unsigned char model_tflite[] = {
  0x1c, 0x00, 0x00, 0x00, 0x54, 0x46, 0x4c, 0x33, 0x00, 0x00, 0x12, 0x00,
  0x1c, 0x00, 0x04, 0x00, 0x08, 0x00, 0x0c, 0x00, 0x10, 0x00, 0x14, 0x00,
  0x00, 0x00, 0x18, 0x00, 0x12, 0x00, 0x00, 0x00, 0x03, 0x00, 0x00, 0x00,
  0x24, 0x4c, 0x00, 0x00, 0x10, 0x00, 0x00, 0x00, 0x1c, 0x00, 0x00, 0x00,
  0x2c, 0x00, 0x00, 0x00, 0x0c, 0x00, 0x00, 0x00, 0x01, 0x00, 0x00, 0x00,
  0x14, 0x01, 0x00, 0x00, 0x01, 0x00, 0x00, 0x00, 0xdc, 0x00, 0x00, 0x00,
  0x0f, 0x00, 0x00, 0x00, 0x54, 0x4f, 0x43, 0x4f, 0x20, 0x43, 0x6f, 0x6e,
  0x76, 0x65, 0x72, 0x74, 0x65, 0x64, 0x2e, 0x00, 0x12, 0x00, 0x00, 0x00,
  0xb0, 0x00, 0x00, 0x00, 0xa8, 0x00, 0x00, 0x00, 0x9c, 0x00, 0x00, 0x00,
  0x94, 0x00, 0x00, 0x00, 0x8c, 0x00, 0x00, 0x00, 0x80, 0x00, 0x00, 0x00,
  0x74, 0x00, 0x00, 0x00, 0x6c, 0x00, 0x00, 0x00, 0x64, 0x00, 0x00, 0x00,
  0x5c, 0x00, 0x00, 0x00, 0x54, 0x00, 0x00, 0x00, 0x4c, 0x00, 0x00, 0x00,
  0x40, 0x00, 0x00, 0x00, 0x34, 0x00, 0x00, 0x00, 0x28, 0x00, 0x00, 0x00,
  0x1c, 0x00, 0x00, 0x00, 0x10, 0x00, 0x00, 0x00, 0x04, 0x00, 0x00, 0x00,
  0x6e, 0xb6, 0xff, 0xff, 0x68, 0x00, 0x00, 0x00, 0x76, 0xb6, 0xff, 0xff,
  0x48, 0x01, 0x00, 0x00, 0x7e, 0xb6, 0xff, 0xff, 0xc8, 0x01, 0x00, 0x00,
  0x86, 0xb6, 0xff, 0xff, 0x30, 0x02, 0x00, 0x00, 0x8e, 0xb6, 0xff, 0xff,
  0x88, 0x3a, 0x00, 0x00, 0x96, 0xb6, 0xff, 0xff, 0xdc, 0x42, 0x00, 0x00,
  0x58, 0xb6, 0xff, 0xff, 0x5c, 0xb6, 0xff, 0xff, 0x60, 0xb6, 0xff, 0xff,
  0x64, 0xb6, 0xff, 0xff, 0x68, 0xb6, 0xff, 0xff, 0xb2, 0xb6, 0xff, 0xff,
  0xe0, 0x45, 0x00, 0x00, 0xba, 0xb6, 0xff, 0xff, 0x60, 0x46, 0x00, 0x00,
  0x7c, 0xb6, 0xff, 0xff, 0x80, 0xb6, 0xff, 0xff, 0xca, 0xb6, 0xff, 0xff,
  0x6c, 0x47, 0x00, 0x00, 0x8c, 0xb6, 0xff, 0xff, 0x90, 0xb6, 0xff, 0xff,
  0x05, 0x00, 0x00, 0x00, 0x31, 0x2e, 0x35, 0x2e, 0x30, 0x00, 0x00, 0x00,
  0x5c, 0xb7, 0xff, 0xff, 0x08, 0x00, 0x00, 0x00, 0x11, 0x00, 0x00, 0x00,
  0x13, 0x00, 0x00, 0x00, 0x6d, 0x69, 0x6e, 0x5f, 0x72, 0x75, 0x6e, 0x74,
  0x69, 0x6d, 0x65, 0x5f, 0x76, 0x65, 0x72, 0x73, 0x69, 0x6f, 0x6e, 0x00,
  0x0c, 0x00, 0x14, 0x00, 0x04, 0x00, 0x08, 0x00, 0x0c, 0x00, 0x10, 0x00,
  0x0c, 0x00, 0x00, 0x00, 0x20, 0x00, 0x00, 0x00, 0x14, 0x00, 0x00, 0x00,
  0x08, 0x00, 0x00, 0x00, 0x88, 0x48, 0x00, 0x00, 0x01, 0x00, 0x00, 0x00,
  0x00, 0x00, 0x00, 0x00, 0x01, 0x00, 0x00, 0x00, 0x01, 0x00, 0x00, 0x00,
  0x10, 0x00, 0x00, 0x00, 0xbc, 0x43, 0x00, 0x00, 0x0c, 0x48, 0x00, 0x00,
  0xd8, 0x41, 0x00, 0x00, 0x90, 0x45, 0x00, 0x00, 0x48, 0x46, 0x00, 0x00,
  0x6c, 0x39, 0x00, 0x00, 0xfc, 0x44, 0x00, 0x00, 0xac, 0x44, 0x00, 0x00,
  0x00, 0x01, 0x00, 0x00, 0x1c, 0x00, 0x00, 0x00, 0x0c, 0x44, 0x00, 0x00,
  0xc4, 0x43, 0x00, 0x00, 0x70, 0x46, 0x00, 0x00, 0x94, 0x00, 0x00, 0x00,
  0xcc, 0x45, 0x00, 0x00, 0x38, 0x44, 0x00, 0x00, 0x3e, 0xb8, 0xff, 0xff,
  0x10, 0x00, 0x00, 0x00, 0x10, 0x00, 0x00, 0x00, 0x10, 0x00, 0x00, 0x00,
  0x30, 0x00, 0x00, 0x00, 0x01, 0x00, 0x00, 0x00, 0x10, 0x00, 0x00, 0x00,
  0x1c, 0x00, 0x00, 0x00, 0x73, 0x65, 0x71, 0x75, 0x65, 0x6e, 0x74, 0x69,
  0x61, 0x6c, 0x2f, 0x64, 0x65, 0x6e, 0x73, 0x65, 0x2f, 0x4d, 0x61, 0x74,
  0x4d, 0x75, 0x6c, 0x5f, 0x62, 0x69, 0x61, 0x73, 0x00, 0x00, 0x00, 0x00,
  0x78, 0xb7, 0xff, 0xff, 0x40, 0x00, 0x00, 0x00, 0x20, 0x73, 0x6a, 0x3f,
  0xb8, 0x66, 0x20, 0x3e, 0x99, 0xe9, 0x94, 0xbe, 0xa6, 0xf0, 0x88, 0xbe,
  0x18, 0xd8, 0xcb, 0xbe, 0xda, 0x35, 0x58, 0xbe, 0x31, 0xa9, 0x5a, 0x3d,
  0xf4, 0x30, 0x01, 0xbe, 0xfb, 0x80, 0xc6, 0xbe, 0xd9, 0x14, 0x6b, 0xbe,
  0x61, 0x7d, 0xa1, 0x3e, 0xa6, 0x5d, 0x13, 0xbe, 0x59, 0x9e, 0xb2, 0xbe,
  0xdb, 0xf1, 0x04, 0x3f, 0xd4, 0x5b, 0x3c, 0xbe, 0xb4, 0xcd, 0xf4, 0x3b,
  0xc6, 0xb8, 0xff, 0xff, 0x10, 0x00, 0x00, 0x00, 0x0f, 0x00, 0x00, 0x00,
  0x10, 0x00, 0x00, 0x00, 0x30, 0x00, 0x00, 0x00, 0x01, 0x00, 0x00, 0x00,
  0x04, 0x00, 0x00, 0x00, 0x1e, 0x00, 0x00, 0x00, 0x73, 0x65, 0x71, 0x75,
  0x65, 0x6e, 0x74, 0x69, 0x61, 0x6c, 0x2f, 0x64, 0x65, 0x6e, 0x73, 0x65,
  0x5f, 0x31, 0x2f, 0x4d, 0x61, 0x74, 0x4d, 0x75, 0x6c, 0x5f, 0x62, 0x69,
  0x61, 0x73, 0x00, 0x00, 0x00, 0xb8, 0xff, 0xff, 0x10, 0x00, 0x00, 0x00,
  0x3d, 0x99, 0x27, 0xc0, 0x84, 0xc1, 0x98, 0xbe, 0x93, 0x6a, 0xbd, 0x3f,
  0xee, 0x42, 0xbe, 0xbe, 0x1e, 0xb9, 0xff, 0xff, 0x10, 0x00, 0x00, 0x00,
  0x0e, 0x00, 0x00, 0x00, 0x14, 0x00, 0x00, 0x00, 0x48, 0x00, 0x00, 0x00,
  0x02, 0x00, 0x00, 0x00, 0x10, 0x00, 0x00, 0x00, 0xe0, 0x00, 0x00, 0x00,
  0x30, 0x00, 0x00, 0x00, 0x73, 0x65, 0x71, 0x75, 0x65, 0x6e, 0x74, 0x69,
  0x61, 0x6c, 0x2f, 0x64, 0x65, 0x6e, 0x73, 0x65, 0x2f, 0x4d, 0x61, 0x74,
  0x4d, 0x75, 0x6c, 0x2f, 0x52, 0x65, 0x61, 0x64, 0x56, 0x61, 0x72, 0x69,
  0x61, 0x62, 0x6c, 0x65, 0x4f, 0x70, 0x2f, 0x74, 0x72, 0x61, 0x6e, 0x73,
  0x70, 0x6f, 0x73, 0x65, 0x00, 0x00, 0x00, 0x00, 0x70, 0xb8, 0xff, 0xff,
  0x00, 0x38, 0x00, 0x00, 0xa9, 0xcb, 0x52, 0x3d, 0x47, 0xff, 0xc5, 0x3d,
  0xd1, 0x48, 0x3f, 0x3d, 0xb6, 0xcc, 0x48, 0x3e, 0xea, 0xd6, 0x06, 0x3e,
  0x50, 0x27, 0x89, 0xbc, 0x1a, 0x49, 0x8d, 0x3d, 0x5f, 0x42, 0x65, 0xbe,
  0xe2, 0xcb, 0xfd, 0xbc, 0x3b, 0x48, 0x9a, 0xbe, 0x73, 0x2d, 0xa4, 0xbd,
  0xe5, 0x67, 0xc6, 0x3d, 0xd6, 0xad, 0x84, 0x3c, 0x07, 0x38, 0xbe, 0xbe,
  0x48, 0x5f, 0xf6, 0x3d, 0xed, 0xe9, 0xdd, 0x3d, 0x9c, 0xa5, 0x0c, 0x3d,
  0x42, 0xcc, 0x86, 0x3e, 0x67, 0x81, 0x42, 0x3c, 0xd2, 0x01, 0x85, 0x3d,
  0xe5, 0xfd, 0xc6, 0xbd, 0xf9, 0xc4, 0xb2, 0xbc, 0x19, 0xea, 0x3d, 0x3b,
  0xc7, 0x82, 0xc4, 0xbe, 0xf4, 0x3b, 0x93, 0x3e, 0x55, 0x9a, 0x04, 0xbd,
  0x3a, 0x51, 0x45, 0xbe, 0xe4, 0x1e, 0xad, 0xbd, 0x38, 0x5f, 0xec, 0xbc,
  0x13, 0xae, 0xb8, 0xbe, 0x7f, 0xf1, 0xea, 0x3d, 0xa4, 0xb4, 0x4b, 0xbe,
  0x8b, 0xf5, 0x83, 0xbd, 0x2f, 0xa7, 0x1d, 0x3e, 0x1a, 0x67, 0x84, 0x3d,
  0x99, 0xa8, 0xd0, 0xbe, 0xcf, 0xd7, 0x24, 0x3e, 0x27, 0x17, 0x4d, 0x3d,
  0xce, 0x51, 0x00, 0x3d, 0x0e, 0x5c, 0x0c, 0xbe, 0x48, 0x3d, 0x4d, 0x3e,
  0x49, 0x27, 0xc5, 0x3d, 0x8a, 0x4b, 0xff, 0xbd, 0x09, 0x79, 0x24, 0xbe,
  0xe1, 0xb7, 0x29, 0x3e, 0xb8, 0x47, 0x81, 0xbe, 0xb7, 0x9c, 0xb2, 0x3d,
  0xdb, 0x5b, 0x91, 0xbe, 0x92, 0xe8, 0x16, 0xbd, 0x7f, 0x47, 0x2b, 0xbe,
  0xf7, 0x6a, 0x87, 0x3e, 0x98, 0x40, 0x30, 0xbe, 0x48, 0x14, 0x72, 0x3e,
  0x50, 0x6e, 0xd1, 0x3d, 0x2f, 0x25, 0x07, 0x3d, 0x1e, 0x6a, 0xaa, 0x3d,
  0x4d, 0x8e, 0x22, 0xbe, 0x2a, 0xcd, 0x17, 0xbc, 0xc9, 0x47, 0x7d, 0xbd,
  0xf2, 0xea, 0x3e, 0xbd, 0x44, 0x19, 0x09, 0x3e, 0x29, 0xf5, 0x69, 0xbd,
  0x84, 0xe6, 0x16, 0x3d, 0x11, 0x34, 0x43, 0xbe, 0x6d, 0x83, 0x61, 0xbd,
  0xbe, 0x0b, 0xb1, 0xbe, 0xd0, 0x8f, 0xa5, 0x3e, 0x00, 0x1b, 0xd7, 0x3c,
  0x83, 0x40, 0x87, 0x3e, 0x86, 0x34, 0xcd, 0xbd, 0x7a, 0x38, 0xd5, 0x3b,
  0x2f, 0x9b, 0x87, 0x3d, 0x30, 0x49, 0xa4, 0xbe, 0xa5, 0x8a, 0x8a, 0x3d,
  0x72, 0xd0, 0x0b, 0x3d, 0x5e, 0xab, 0x75, 0xbe, 0x03, 0x5b, 0xbc, 0x3d,
  0x8f, 0x4f, 0x31, 0xbe, 0xf5, 0x5c, 0x82, 0x3b, 0xbb, 0xc3, 0x5f, 0x3d,
  0x04, 0x3c, 0xac, 0x3b, 0x0c, 0x43, 0x63, 0xbe, 0xc0, 0xc3, 0x71, 0x3e,
  0x98, 0xb1, 0xfe, 0xbc, 0x26, 0x9e, 0x70, 0x3b, 0xa1, 0x5f, 0x0d, 0x3d,
  0x27, 0xc0, 0xde, 0x3c, 0x82, 0xe9, 0x4d, 0x3d, 0x1b, 0x0b, 0x2c, 0xbe,
  0xb8, 0x0e, 0x13, 0xbe, 0x0b, 0x86, 0xb2, 0x3d, 0x8d, 0x50, 0xfc, 0xbd,
  0xaf, 0x21, 0xed, 0x39, 0x47, 0x86, 0xaf, 0x3b, 0xf0, 0x42, 0xd1, 0x3c,
  0x0f, 0xd3, 0x89, 0x3e, 0xc0, 0x80, 0xa8, 0x3c, 0x3a, 0x2e, 0x84, 0xbe,
  0x7f, 0x6a, 0x58, 0x3e, 0xde, 0x94, 0xd1, 0xba, 0xb8, 0x3c, 0xa5, 0x3d,
  0x9b, 0x64, 0xf4, 0xbc, 0x8d, 0x45, 0x44, 0x3c, 0x4c, 0x50, 0x16, 0x3e,
  0xef, 0x78, 0xfe, 0xbd, 0x9b, 0x2b, 0x5c, 0xbe, 0x18, 0x01, 0x83, 0xbd,
  0xfd, 0x29, 0x1b, 0xbe, 0x20, 0xe2, 0x84, 0x3e, 0x8f, 0xe8, 0x82, 0xbc,
  0x89, 0xea, 0x81, 0xbc, 0xae, 0xef, 0x1d, 0x3e, 0xc8, 0x10, 0xb1, 0x3c,
  0x32, 0xc3, 0xb7, 0xbe, 0x9e, 0x24, 0x91, 0x3e, 0xb5, 0x24, 0xa6, 0xbd,
  0xaa, 0x98, 0x13, 0xbd, 0xe4, 0xcf, 0xb5, 0x3d, 0x2b, 0x56, 0x88, 0x3c,
  0x7d, 0x63, 0xcb, 0xbd, 0x11, 0xa4, 0x55, 0xbe, 0x07, 0x38, 0x12, 0xbe,
  0xd1, 0xf0, 0xe2, 0xbb, 0x57, 0xe5, 0x29, 0x3d, 0x47, 0x08, 0x84, 0x3e,
  0xd9, 0xc7, 0x1d, 0x3d, 0x5f, 0x88, 0xd6, 0x3c, 0x9e, 0xb5, 0x00, 0x3e,
  0x48, 0x38, 0x0e, 0x3e, 0x67, 0x63, 0xbc, 0xbe, 0x84, 0x33, 0x3f, 0x3e,
  0xc3, 0x85, 0x9e, 0x3e, 0xc0, 0x36, 0x26, 0xbd, 0xcf, 0x0d, 0x4e, 0x3d,
  0x0a, 0xed, 0x3c, 0x3d, 0x3a, 0xf9, 0x63, 0xbe, 0xc7, 0xcd, 0x07, 0xbe,
  0x2a, 0x9c, 0x54, 0xbe, 0xd2, 0x7d, 0x9e, 0xbc, 0xdb, 0x96, 0x67, 0xbe,
  0x62, 0x53, 0x43, 0x3e, 0x05, 0xe5, 0xc3, 0xbc, 0x4d, 0xc7, 0xdb, 0x3c,
  0x45, 0x09, 0x18, 0x3e, 0x97, 0xcc, 0x35, 0x3c, 0x4b, 0xd7, 0x97, 0xbe,
  0xac, 0xc1, 0x9d, 0x3d, 0x14, 0xb3, 0x94, 0x3e, 0x01, 0x24, 0x36, 0x3b,
  0x4c, 0x7d, 0x7f, 0x3d, 0x62, 0x3c, 0x18, 0x3d, 0xaf, 0x16, 0x89, 0xbe,
  0x48, 0x46, 0xfb, 0xbd, 0xcd, 0xa0, 0x8e, 0xbe, 0x39, 0x8f, 0x02, 0xbe,
  0xce, 0x4c, 0x80, 0xbe, 0x21, 0x02, 0x28, 0x3e, 0xd7, 0xa5, 0x8a, 0xbe,
  0x28, 0x5b, 0xb3, 0xbc, 0x4a, 0x8f, 0xc2, 0x3d, 0x65, 0xc4, 0xa1, 0x3d,
  0xd8, 0x2b, 0x52, 0xbe, 0x80, 0x66, 0xd1, 0x3d, 0xa4, 0xb2, 0xcf, 0x3e,
  0xd5, 0x85, 0x18, 0x3d, 0x55, 0xb6, 0xe1, 0x3d, 0x66, 0x70, 0x15, 0x3c,
  0x52, 0x06, 0x35, 0xbe, 0xe4, 0xca, 0x0e, 0x3e, 0xf0, 0xed, 0xe1, 0xbd,
  0x74, 0x87, 0xf1, 0xbb, 0x5c, 0x34, 0x92, 0xbe, 0x8a, 0x90, 0xf4, 0x3d,
  0x30, 0xf9, 0xad, 0xbe, 0x63, 0xf4, 0xe5, 0x3d, 0x26, 0x92, 0xfc, 0x3d,
  0x8f, 0x0e, 0x17, 0x3e, 0xd0, 0x4e, 0x1b, 0x3e, 0xb4, 0x61, 0xe1, 0xbc,
  0x09, 0xae, 0xbe, 0x3e, 0xea, 0xb8, 0xd8, 0x3d, 0x78, 0x64, 0x36, 0x3e,
  0x66, 0x4e, 0x38, 0xbc, 0x35, 0x7d, 0x6b, 0xbe, 0x15, 0xb5, 0x42, 0x3e,
  0x83, 0x57, 0x2d, 0xbe, 0xc7, 0xf2, 0x14, 0xbd, 0x3e, 0xb5, 0xd2, 0xbd,
  0x2b, 0x19, 0x00, 0x3e, 0x6c, 0x03, 0x69, 0xbe, 0xfd, 0x80, 0xcf, 0x3d,
  0x3c, 0x6c, 0x2a, 0x3e, 0xf4, 0xe7, 0x10, 0x3d, 0x11, 0xa5, 0x67, 0x3e,
  0x8f, 0x73, 0x4b, 0xbd, 0x18, 0x7a, 0x31, 0xbd, 0x24, 0x80, 0x8f, 0x3d,
  0x60, 0xdd, 0x0b, 0xbe, 0xdb, 0x03, 0xfc, 0xbc, 0xda, 0x8f, 0xcc, 0xbe,
  0x9b, 0x88, 0x84, 0x3e, 0x05, 0x98, 0x87, 0xbe, 0x66, 0x01, 0x5c, 0xbc,
  0x23, 0x91, 0x09, 0xbe, 0x31, 0xd8, 0x69, 0x3d, 0xd6, 0xa6, 0x38, 0xbe,
  0x41, 0x17, 0xfd, 0x3d, 0xfb, 0x21, 0x7b, 0xbe, 0xa7, 0xbf, 0x53, 0x3e,
  0xff, 0xcf, 0x43, 0xbe, 0xeb, 0xb6, 0xbb, 0x3d, 0xd8, 0x68, 0x57, 0xbe,
  0x8f, 0x45, 0xa8, 0xbd, 0x53, 0xe7, 0x4c, 0x3e, 0x58, 0x8f, 0x10, 0xbd,
  0x36, 0x22, 0xdc, 0xbe, 0xd7, 0x6f, 0x8a, 0xbe, 0x77, 0xfe, 0x1b, 0xbf,
  0xdd, 0xa8, 0x94, 0xbd, 0x38, 0x12, 0x1b, 0xbe, 0xf6, 0x53, 0xca, 0x3d,
  0x5c, 0xeb, 0xf3, 0xbe, 0x78, 0x3d, 0xa4, 0xbd, 0x70, 0x44, 0x10, 0xbe,
  0xcf, 0x54, 0xab, 0x3c, 0xe0, 0xbd, 0x51, 0x3d, 0x1d, 0x69, 0xf3, 0x3c,
  0xc7, 0xe6, 0xe3, 0xbd, 0xd5, 0x40, 0xbf, 0x3d, 0x35, 0x86, 0x13, 0xbe,
  0xdb, 0x75, 0xd6, 0x3d, 0x2f, 0x2c, 0xa5, 0xbd, 0x61, 0x34, 0xe9, 0x3c,
  0xd4, 0x1e, 0x42, 0x3e, 0x4e, 0x30, 0x5f, 0x3e, 0x63, 0x4f, 0x37, 0x3e,
  0x71, 0x11, 0x76, 0x3d, 0xf5, 0x2c, 0xf5, 0x3c, 0x60, 0x71, 0xb6, 0x3c,
  0x95, 0x32, 0x14, 0x3e, 0xdc, 0x83, 0x2f, 0x3d, 0xde, 0x82, 0xa0, 0xbd,
  0xf2, 0x06, 0x7d, 0xbd, 0xfb, 0x73, 0xab, 0xbc, 0x7e, 0x85, 0x64, 0xbe,
  0xe9, 0x7d, 0xf4, 0x3d, 0xb1, 0x96, 0xea, 0xbc, 0x42, 0x71, 0x69, 0xbe,
  0x45, 0x30, 0x0a, 0xbe, 0xa5, 0x74, 0xfb, 0x3d, 0xa2, 0xe8, 0x6b, 0xbe,
  0xa8, 0x3d, 0xfa, 0xbd, 0xa0, 0x8e, 0x0d, 0x3e, 0x44, 0x23, 0x63, 0xbe,
  0xf4, 0xdd, 0x9b, 0xbc, 0xec, 0xec, 0x12, 0xbe, 0xe5, 0x52, 0x0d, 0x3d,
  0xc9, 0x1b, 0xde, 0xbd, 0x28, 0x5e, 0xa5, 0x3d, 0x8d, 0xcb, 0x0b, 0xbe,
  0x2d, 0x51, 0xee, 0xbd, 0x81, 0x10, 0xe2, 0x3d, 0x6c, 0x8d, 0x09, 0x3e,
  0xe6, 0x56, 0x31, 0xbd, 0xbf, 0x7c, 0x93, 0x3d, 0xd4, 0x90, 0xb2, 0xbd,
  0x0f, 0xab, 0x52, 0xbe, 0x0f, 0x66, 0x1b, 0x3e, 0x8c, 0xa4, 0x24, 0x3e,
  0x30, 0xae, 0xbe, 0x3c, 0x84, 0x7a, 0xa6, 0x3d, 0x36, 0x25, 0x1a, 0xbe,
  0x6a, 0x17, 0x5d, 0x3d, 0x6a, 0x18, 0x7a, 0xbe, 0x37, 0x5d, 0x08, 0xbd,
  0x68, 0x35, 0x96, 0x3d, 0xff, 0x2f, 0x00, 0xbe, 0xcb, 0x36, 0x0d, 0x3e,
  0xe4, 0xe6, 0x9d, 0xbc, 0x8e, 0xa0, 0xcb, 0x3c, 0x0b, 0x75, 0xb9, 0xbd,
  0x14, 0x1e, 0x33, 0xbe, 0xdd, 0xe8, 0x4f, 0xbe, 0x35, 0x81, 0x13, 0x3d,
  0xa8, 0xac, 0xe6, 0x3b, 0x82, 0xee, 0x0d, 0xbe, 0x80, 0x80, 0x9d, 0x3d,
  0xbc, 0x85, 0x27, 0xbe, 0xe6, 0xf4, 0xd2, 0x3c, 0x9c, 0x5e, 0x83, 0xbb,
  0x69, 0x36, 0x2a, 0xbd, 0x40, 0x86, 0x3e, 0x3d, 0x37, 0x74, 0xe4, 0xbd,
  0xba, 0x06, 0x61, 0x3e, 0xb7, 0xd1, 0x98, 0xbc, 0x04, 0xfb, 0x6b, 0xbe,
  0xdc, 0xea, 0xea, 0x3d, 0xd1, 0x05, 0xfa, 0xba, 0x19, 0xa0, 0xba, 0xbd,
  0xa7, 0x1e, 0x35, 0xbc, 0x92, 0xaf, 0xa9, 0x3d, 0x85, 0x96, 0x84, 0x3d,
  0xe7, 0x84, 0x93, 0x3c, 0x17, 0x94, 0x31, 0xbd, 0x1a, 0x94, 0x47, 0xbb,
  0x83, 0x77, 0xd3, 0xbd, 0xfd, 0x0a, 0x5d, 0xbe, 0xca, 0x94, 0x8e, 0xbd,
  0x41, 0xa3, 0xcb, 0xba, 0x21, 0xd1, 0x80, 0x3e, 0x89, 0x14, 0x5d, 0xbd,
  0x29, 0xd8, 0xa6, 0xbd, 0xcb, 0x40, 0x51, 0x3e, 0xfa, 0x8f, 0x42, 0x3c,
  0x06, 0x0a, 0xaf, 0xbd, 0x38, 0x8a, 0xbf, 0x3d, 0xe3, 0x7b, 0xc6, 0xbd,
  0x10, 0x6b, 0x17, 0xbe, 0x72, 0x31, 0x7c, 0xbc, 0x32, 0x39, 0x25, 0xbe,
  0x89, 0x47, 0x9f, 0x3d, 0xab, 0x49, 0x3f, 0x3d, 0xa9, 0x09, 0xad, 0xbb,
  0xcb, 0x7f, 0x2a, 0x3e, 0x3f, 0x1f, 0xfc, 0xbd, 0xd0, 0x96, 0x75, 0x3e,
  0xa2, 0xb3, 0x3e, 0xbe, 0xdf, 0xf1, 0x31, 0xbe, 0x13, 0x71, 0x8f, 0x3d,
  0x43, 0x92, 0xd2, 0x3c, 0xbb, 0x35, 0x99, 0x3d, 0x39, 0x4a, 0x9b, 0x3d,
  0x83, 0x7a, 0x19, 0x3e, 0xa3, 0x16, 0xf7, 0x3d, 0x4f, 0xf3, 0xcf, 0x3d,
  0x8b, 0xf1, 0x28, 0x3d, 0x1c, 0xfb, 0x86, 0x3e, 0x13, 0x05, 0x3f, 0xbc,
  0x6b, 0xc0, 0xe4, 0xbd, 0x3a, 0xfd, 0x18, 0xbd, 0x01, 0xcb, 0x21, 0x3d,
  0x96, 0xad, 0x06, 0x3e, 0xd9, 0x64, 0x29, 0xbd, 0x8d, 0xde, 0xcc, 0xbd,
  0x78, 0xea, 0xc7, 0xbd, 0xd3, 0x6b, 0xd9, 0x3d, 0x10, 0x4c, 0x69, 0x3e,
  0x1e, 0xbc, 0x04, 0xbd, 0x87, 0x95, 0xba, 0xbd, 0xd1, 0x58, 0x0a, 0x3d,
  0xc1, 0x0a, 0xb7, 0x3d, 0x66, 0x2d, 0xd4, 0x3c, 0x05, 0xfb, 0x30, 0x3d,
  0x22, 0x04, 0x04, 0xbe, 0x85, 0xa3, 0xbf, 0x3c, 0x10, 0x11, 0xd4, 0xbd,
  0xcd, 0x6b, 0xaf, 0xbd, 0x66, 0xb3, 0x04, 0x3e, 0xe7, 0x69, 0xeb, 0xbd,
  0x5e, 0x4b, 0xa7, 0xbd, 0xc3, 0xc1, 0x60, 0xbd, 0xb0, 0x23, 0x97, 0x3b,
  0xa9, 0x59, 0x89, 0x3d, 0x3b, 0x62, 0x23, 0x3e, 0x09, 0xca, 0xdd, 0xbc,
  0xe5, 0x68, 0x36, 0x3e, 0xf7, 0xf9, 0x93, 0x3d, 0xce, 0x38, 0x6b, 0xbe,
  0xd7, 0x80, 0xfd, 0x3c, 0x33, 0xb8, 0x77, 0x3d, 0x40, 0x67, 0x89, 0x3d,
  0x78, 0xdf, 0xbc, 0x3d, 0x9a, 0x34, 0x00, 0xbd, 0xf6, 0x59, 0x31, 0xbd,
  0x8a, 0x09, 0xf7, 0x3d, 0x18, 0xb0, 0x02, 0xbe, 0x2f, 0x99, 0xaa, 0xba,
  0x11, 0x52, 0xe1, 0x39, 0x51, 0xa0, 0x69, 0x3d, 0xb2, 0x28, 0x8d, 0x3d,
  0xd1, 0x54, 0x90, 0xbd, 0x75, 0xb8, 0x68, 0xbd, 0x4b, 0x8d, 0x07, 0x3e,
  0x41, 0xc1, 0xc4, 0xbd, 0xec, 0x88, 0x2f, 0x3d, 0xcb, 0xe5, 0xa3, 0xbd,
  0xe9, 0xf7, 0x28, 0x3d, 0xb8, 0x3e, 0x1f, 0xbd, 0xb3, 0x6c, 0xe4, 0x3d,
  0xae, 0xb0, 0x8c, 0xbd, 0x56, 0x98, 0xba, 0x3d, 0xce, 0x4f, 0x5b, 0xbc,
  0x50, 0x3b, 0x24, 0xbe, 0x44, 0x42, 0x01, 0xbc, 0x66, 0x49, 0x01, 0x3e,
  0x3e, 0x89, 0x00, 0x3e, 0xbd, 0x36, 0x94, 0x3d, 0x30, 0x8a, 0x99, 0xbc,
  0xaf, 0x79, 0xf3, 0xbb, 0xad, 0xbd, 0x33, 0xbe, 0xdb, 0x8d, 0x5a, 0x3b,
  0x83, 0xc4, 0x46, 0xbe, 0x19, 0x18, 0xc0, 0x3d, 0xab, 0x05, 0xcb, 0xbd,
  0x8c, 0xb1, 0x2d, 0xbe, 0x06, 0x27, 0xb0, 0x39, 0xea, 0x39, 0xb1, 0xba,
  0xbd, 0x7b, 0x95, 0xbd, 0x15, 0xd2, 0x9b, 0xbd, 0xcc, 0x05, 0x5c, 0x3d,
  0xb0, 0x86, 0x12, 0xbd, 0xf6, 0xf7, 0x24, 0x3e, 0x4f, 0x22, 0x2c, 0x3d,
  0x62, 0x59, 0xed, 0x3c, 0x83, 0x4a, 0xbd, 0xbc, 0x78, 0xb4, 0x16, 0xbd,
  0xb4, 0xba, 0x12, 0x3e, 0x2f, 0xbe, 0xa1, 0xbd, 0x8a, 0x45, 0xc0, 0xbc,
  0x18, 0x46, 0xc1, 0x3c, 0x36, 0xc7, 0xd8, 0xbd, 0xf3, 0x55, 0xe0, 0x3d,
  0x0c, 0x9f, 0xe9, 0xbd, 0x89, 0x65, 0x84, 0xbd, 0xc8, 0x10, 0x51, 0x3d,
  0xe6, 0xa9, 0x37, 0xbe, 0x0f, 0xf1, 0xf5, 0xbd, 0x74, 0x7c, 0x81, 0x3d,
  0xf6, 0x15, 0xbf, 0xbd, 0x74, 0x36, 0xa7, 0x3d, 0x3e, 0x54, 0x28, 0x3d,
  0x14, 0x18, 0x10, 0xbc, 0x07, 0x98, 0xf5, 0x3d, 0x2b, 0x1a, 0xc6, 0xbd,
  0x20, 0x60, 0x77, 0xbe, 0x68, 0xec, 0x7e, 0xbe, 0x0e, 0x1c, 0xba, 0xbe,
  0x0f, 0x5c, 0xe7, 0xbc, 0x5c, 0xe2, 0x26, 0xbe, 0xe4, 0xf7, 0x9e, 0xbe,
  0x4d, 0x2d, 0x53, 0xbe, 0x63, 0xc4, 0x90, 0xbe, 0xe5, 0xeb, 0x0b, 0xbe,
  0x8c, 0xa0, 0x41, 0xbd, 0x23, 0x7a, 0x86, 0x3e, 0x4e, 0x9e, 0xcc, 0xbe,
  0x73, 0x55, 0xce, 0xbb, 0xd0, 0x5f, 0xb6, 0xbe, 0x24, 0x0f, 0x3b, 0x3c,
  0xeb, 0x1a, 0x81, 0x3d, 0x85, 0x4f, 0x0c, 0xbe, 0x29, 0xfc, 0xec, 0x3c,
  0xa3, 0xbb, 0x41, 0x3e, 0x5d, 0x4e, 0x6d, 0xbd, 0x22, 0x75, 0x0c, 0xbe,
  0x85, 0xab, 0x13, 0x3e, 0xc9, 0x2f, 0x96, 0x3c, 0x23, 0x78, 0x4c, 0x3d,
  0xf8, 0xc7, 0x8a, 0x3e, 0xae, 0xac, 0xb4, 0x3c, 0x39, 0x71, 0x85, 0xbd,
  0xe6, 0xc4, 0x3c, 0x3d, 0x2d, 0x07, 0x46, 0x3d, 0xba, 0x78, 0x76, 0x3c,
  0xde, 0x07, 0x80, 0x3d, 0xa8, 0x09, 0x6e, 0x3d, 0x9b, 0x19, 0xf1, 0xbd,
  0x5c, 0x95, 0x24, 0x3e, 0xef, 0x29, 0x4e, 0xbb, 0xfa, 0x89, 0x1f, 0x3e,
  0x3a, 0x3f, 0xea, 0xbc, 0x05, 0x19, 0x24, 0x3e, 0x93, 0xf8, 0x61, 0x3d,
  0x65, 0x62, 0x01, 0x3e, 0x17, 0x51, 0x15, 0xbd, 0xae, 0x98, 0xc2, 0x3b,
  0x15, 0x41, 0x04, 0x3e, 0x4b, 0xa1, 0x94, 0x3e, 0xbb, 0x20, 0xd6, 0x3d,
  0x45, 0xec, 0x99, 0xbe, 0x5d, 0x34, 0xa9, 0xbd, 0xc2, 0x14, 0x56, 0xbe,
  0x05, 0xbc, 0xa6, 0xbd, 0x48, 0xd2, 0x81, 0x3c, 0x2a, 0x4c, 0x4f, 0xbd,
  0xc7, 0x75, 0x82, 0xbd, 0x17, 0x2b, 0xb5, 0xbe, 0x64, 0x6f, 0x59, 0xbd,
  0xc8, 0x58, 0xbc, 0x3d, 0x9b, 0x27, 0x04, 0x3e, 0xd3, 0x79, 0x70, 0xbe,
  0xec, 0x46, 0x3c, 0xbe, 0x75, 0x2c, 0x4b, 0x3b, 0x60, 0x2a, 0x5a, 0xbd,
  0x52, 0xc0, 0x1c, 0xbc, 0x8f, 0x96, 0x8e, 0xbd, 0x1b, 0x2c, 0x9c, 0xbd,
  0x74, 0x50, 0x53, 0xbc, 0xda, 0xfb, 0xcd, 0xbb, 0xc3, 0x73, 0xc0, 0x3d,
  0x44, 0x78, 0xc3, 0xbd, 0x49, 0xde, 0x5a, 0xbd, 0x51, 0x47, 0xac, 0xbe,
  0x5f, 0x40, 0xbd, 0x3c, 0xb9, 0x38, 0x33, 0xbd, 0x5b, 0xe9, 0x08, 0x3e,
  0x01, 0x52, 0xca, 0xbd, 0xba, 0xfa, 0x33, 0x3c, 0xb7, 0x21, 0xf5, 0xbd,
  0xb1, 0x83, 0x01, 0xbd, 0x39, 0x52, 0x0e, 0xbe, 0x3e, 0xeb, 0xf1, 0x3d,
  0x64, 0x8b, 0x27, 0x3d, 0x89, 0x06, 0x43, 0xbe, 0x97, 0x94, 0x4e, 0xbe,
  0xf3, 0x8a, 0x02, 0xbd, 0x90, 0x3a, 0xbe, 0x3d, 0x36, 0x91, 0xae, 0xbd,
  0x41, 0x18, 0x5a, 0xbe, 0x43, 0x80, 0xb9, 0xbd, 0x0e, 0xac, 0x92, 0xbe,
  0x61, 0x99, 0x6a, 0xbd, 0x89, 0x58, 0x89, 0x3b, 0x85, 0x90, 0x3b, 0x3c,
  0xd3, 0x0b, 0xfa, 0xbd, 0x13, 0xae, 0x02, 0xbe, 0xd3, 0xa5, 0xce, 0xbd,
  0xc8, 0xbf, 0xdb, 0xbd, 0x6b, 0x3b, 0x18, 0xbd, 0x7f, 0x9e, 0x2b, 0xbe,
  0x0a, 0x3d, 0x35, 0xbd, 0x9f, 0x57, 0x19, 0x3d, 0x2d, 0xa0, 0xc2, 0x3d,
  0x5c, 0x4b, 0x62, 0xbd, 0x79, 0x76, 0x34, 0xbe, 0x9d, 0x28, 0xf1, 0xbd,
  0x84, 0x6a, 0x17, 0xbe, 0x2c, 0xb8, 0x82, 0xbd, 0x23, 0x4f, 0x1f, 0xbe,
  0x5f, 0x79, 0x99, 0x3d, 0xda, 0x0a, 0x90, 0xbd, 0x14, 0x2b, 0x0f, 0x3d,
  0xd8, 0x19, 0xeb, 0xbd, 0x47, 0xf0, 0x5c, 0xbd, 0x09, 0xba, 0x14, 0x3d,
  0x34, 0x0a, 0x1b, 0xbb, 0x17, 0xc7, 0x41, 0xbd, 0x08, 0xf4, 0xbe, 0x3d,
  0x90, 0x9a, 0x75, 0x3d, 0x3c, 0x47, 0x1f, 0x3c, 0x41, 0xc8, 0xaf, 0xbe,
  0xe1, 0x57, 0xcc, 0xbd, 0xdd, 0x70, 0x87, 0xbb, 0x3a, 0x67, 0xbb, 0x3d,
  0x07, 0xd6, 0xa6, 0xbb, 0x89, 0x16, 0x8e, 0xbc, 0x17, 0x79, 0xa6, 0xbd,
  0xaf, 0x0b, 0x5d, 0x3c, 0xbd, 0x06, 0x08, 0xbe, 0x83, 0x5c, 0x16, 0x3e,
  0x52, 0xd7, 0x4e, 0xbd, 0x6f, 0x40, 0xf1, 0xbd, 0x67, 0x0e, 0x19, 0x3c,
  0x13, 0xf9, 0x35, 0x3e, 0x91, 0xf3, 0x31, 0x3d, 0xca, 0x90, 0x3c, 0x3b,
  0x4b, 0x3c, 0x68, 0xbe, 0x30, 0xd0, 0x1d, 0x3d, 0x3e, 0x3a, 0x1c, 0x3d,
  0x06, 0x4e, 0xa2, 0x3c, 0x65, 0x9c, 0x86, 0x3d, 0xfa, 0x5f, 0xfb, 0xbd,
  0x74, 0xce, 0xb3, 0x3d, 0x23, 0x97, 0x01, 0xbc, 0xf8, 0x83, 0xf2, 0xbd,
  0x8c, 0xca, 0x39, 0xbe, 0xcd, 0x9b, 0x4c, 0xbe, 0x63, 0xc2, 0xac, 0xbd,
  0xef, 0x70, 0x21, 0x3d, 0xda, 0xe6, 0x1f, 0x3e, 0x84, 0x43, 0xfa, 0x3d,
  0x69, 0x9e, 0x15, 0xbe, 0xec, 0x1d, 0xf7, 0xbe, 0xc1, 0xe5, 0x6e, 0x3e,
  0x88, 0x71, 0xe0, 0xbd, 0x93, 0xe8, 0xa4, 0xbd, 0xec, 0x45, 0x17, 0xbc,
  0x10, 0xb2, 0x38, 0xbe, 0x57, 0x84, 0xb9, 0x3d, 0x3f, 0xd3, 0xd5, 0xbd,
  0xfd, 0xcd, 0x86, 0xbd, 0x3e, 0x9e, 0xf3, 0x3c, 0xe7, 0x36, 0x8d, 0xbd,
  0x24, 0x2b, 0x4d, 0xbe, 0xfd, 0x62, 0x0f, 0xbd, 0x14, 0xca, 0x6b, 0x3e,
  0x77, 0x30, 0xec, 0x3d, 0xf4, 0x0f, 0x12, 0xbc, 0x05, 0x67, 0xc5, 0xbe,
  0xf3, 0xe9, 0x46, 0x3e, 0x1e, 0xc0, 0x1b, 0x3e, 0xaa, 0x83, 0xc6, 0x3d,
  0xf6, 0xcd, 0x43, 0x3d, 0x30, 0xbe, 0x67, 0x3d, 0xe2, 0x3b, 0xce, 0x3d,
  0x4f, 0x17, 0x27, 0x3d, 0xc6, 0x70, 0xab, 0xbd, 0x17, 0x8d, 0x13, 0xbd,
  0x50, 0xbc, 0x90, 0xbd, 0x4f, 0x1e, 0x29, 0xbd, 0xb5, 0x89, 0x40, 0xbe,
  0x45, 0xe3, 0xff, 0x3d, 0xe0, 0x5e, 0xee, 0x3c, 0xf6, 0xc3, 0xc4, 0x3d,
  0x31, 0xb8, 0xaa, 0xbd, 0x0c, 0xb2, 0x40, 0x3e, 0x06, 0xe4, 0x1f, 0x3e,
  0x75, 0x9b, 0x44, 0x3d, 0x6d, 0x11, 0x96, 0x3d, 0x01, 0x93, 0xf2, 0x3d,
  0x7c, 0x70, 0x93, 0x3d, 0x81, 0x20, 0x62, 0x3d, 0x8a, 0x89, 0x7d, 0x3d,
  0xba, 0xe1, 0x80, 0x3d, 0x38, 0x5f, 0x43, 0x3d, 0x8d, 0x20, 0x20, 0x3c,
  0xb7, 0x78, 0xaa, 0x3d, 0x98, 0xd3, 0x2e, 0x3e, 0xb0, 0x61, 0x39, 0x3b,
  0xc7, 0x1a, 0xbb, 0xbd, 0xae, 0x80, 0x8e, 0xbe, 0x67, 0xf4, 0x81, 0x3d,
  0xb4, 0x96, 0x83, 0x3c, 0xf4, 0xd3, 0xe7, 0x3d, 0x2a, 0x97, 0x00, 0xbe,
  0x8b, 0x93, 0x05, 0xbe, 0xd8, 0x45, 0xaf, 0xbd, 0x3f, 0x37, 0xc4, 0xbb,
  0xb7, 0x2f, 0xf2, 0xbd, 0x2c, 0x25, 0xec, 0x3c, 0xd7, 0xa1, 0xfb, 0x3c,
  0xb9, 0xc0, 0x88, 0xba, 0xb1, 0x9d, 0xe2, 0xbd, 0x3a, 0x28, 0x42, 0x3e,
  0xf7, 0x96, 0x88, 0xbd, 0x6f, 0x77, 0x2b, 0xbd, 0xc6, 0x49, 0x8d, 0xbe,
  0x1e, 0xdc, 0x96, 0x3d, 0x07, 0x42, 0x48, 0x3e, 0x8a, 0x64, 0xc5, 0x3d,
  0xdf, 0x0c, 0x51, 0xbe, 0x91, 0x5b, 0x0f, 0x3e, 0x08, 0xdc, 0xab, 0x3d,
  0xe5, 0x80, 0xb2, 0x3e, 0x81, 0x86, 0xb2, 0x3d, 0xcf, 0xfc, 0xd7, 0x3c,
  0x33, 0x17, 0xc2, 0xbd, 0xbb, 0x4f, 0xf2, 0xbd, 0xae, 0xae, 0xf1, 0xbd,
  0xc3, 0x06, 0xfa, 0x3d, 0xdb, 0x3b, 0x19, 0xbe, 0xa6, 0x38, 0xe1, 0x3d,
  0x39, 0x24, 0x80, 0xbe, 0xb4, 0xfd, 0x6f, 0x3c, 0x46, 0x58, 0x2a, 0x3d,
  0xb3, 0xb5, 0x36, 0x3d, 0x1d, 0x4d, 0x8c, 0xbe, 0x3e, 0xb1, 0x8b, 0xbc,
  0xaa, 0xa9, 0xe8, 0x3d, 0xb6, 0x31, 0x09, 0x3e, 0x11, 0x5d, 0x3b, 0xbe,
  0x20, 0x95, 0x8d, 0xbe, 0x33, 0x26, 0xc5, 0xbc, 0xa0, 0x0e, 0x2b, 0xbe,
  0xc4, 0x62, 0x0f, 0xbe, 0x62, 0xef, 0x61, 0xbd, 0x06, 0x63, 0xb5, 0xbd,
  0xe8, 0xc1, 0x48, 0xbd, 0x47, 0xad, 0x32, 0xbe, 0x63, 0x40, 0x71, 0x3d,
  0x81, 0xd0, 0x00, 0xbe, 0x05, 0xd3, 0x6f, 0x3d, 0xae, 0x6c, 0x7f, 0xbd,
  0xd3, 0xaa, 0x0e, 0xbe, 0x1c, 0x53, 0xe5, 0xbd, 0xbf, 0xfe, 0x52, 0x3d,
  0xac, 0xa7, 0x10, 0xbd, 0xc4, 0x17, 0x3a, 0x3d, 0xde, 0xcc, 0x04, 0x3e,
  0x92, 0xd0, 0x05, 0xbd, 0xe2, 0x47, 0x94, 0x3c, 0x28, 0x79, 0xdb, 0x3d,
  0x26, 0xdd, 0xfc, 0xbd, 0x55, 0x96, 0x1e, 0xbe, 0x36, 0xd1, 0x73, 0xbe,
  0x26, 0x58, 0x51, 0xbd, 0xcb, 0x62, 0x0f, 0xbe, 0xc1, 0x6d, 0x97, 0xbc,
  0x34, 0xb0, 0x04, 0x3d, 0x6e, 0x54, 0xbd, 0x3c, 0xcf, 0x94, 0xf3, 0xbd,
  0xa4, 0x9f, 0xa8, 0x3d, 0x74, 0xd4, 0xd6, 0xbc, 0x3a, 0x93, 0x4a, 0xbe,
  0xe3, 0x76, 0xdf, 0xbd, 0x29, 0x9d, 0xa1, 0xbd, 0xdb, 0x48, 0x43, 0xbd,
  0xb6, 0x4c, 0x05, 0xbc, 0xa2, 0x21, 0x72, 0xbd, 0xf4, 0xaf, 0xf1, 0x3d,
  0xfc, 0x11, 0x4c, 0xbd, 0x26, 0x2d, 0x9a, 0x3d, 0x08, 0x1d, 0xa0, 0xbd,
  0x5e, 0x98, 0x39, 0xbd, 0x99, 0xdd, 0xa2, 0xbd, 0xf2, 0xff, 0xe9, 0x3d,
  0x3b, 0xb7, 0xb3, 0xbc, 0xb8, 0xd5, 0xcd, 0xbd, 0x1f, 0x3c, 0x84, 0xbd,
  0x32, 0xcf, 0xc1, 0xbd, 0xa7, 0xb9, 0x08, 0x3d, 0x1d, 0xe7, 0x96, 0xbd,
  0xc0, 0x39, 0x8b, 0x3d, 0x12, 0xc3, 0xd3, 0x3c, 0xad, 0xba, 0xa4, 0xbd,
  0x48, 0xd2, 0x2e, 0x3d, 0x7f, 0xf0, 0x05, 0xbe, 0x54, 0xcb, 0xf7, 0xbd,
  0xd2, 0xe8, 0x82, 0xbd, 0x2a, 0x98, 0xbe, 0x3b, 0xc3, 0x81, 0x7d, 0x3d,
  0x44, 0x2f, 0xae, 0xbc, 0x1c, 0x25, 0x18, 0xbd, 0x58, 0xb8, 0x8d, 0x3c,
  0x54, 0xff, 0xef, 0x3c, 0x15, 0xbe, 0xa9, 0xbd, 0x9b, 0xe9, 0x13, 0xbe,
  0x8b, 0x31, 0xa6, 0xbe, 0x3d, 0x99, 0xaf, 0xbd, 0x49, 0xeb, 0xf3, 0x3d,
  0x7c, 0x7b, 0x55, 0xbd, 0x12, 0x71, 0x87, 0xbd, 0x23, 0xfa, 0x3e, 0xbd,
  0x9f, 0x79, 0x9e, 0xbc, 0x5e, 0x9c, 0x02, 0xbe, 0xbd, 0xa4, 0x2b, 0x3d,
  0x8a, 0x1f, 0x76, 0x3d, 0xe6, 0xb7, 0xeb, 0xbd, 0x1a, 0x9d, 0x94, 0x3d,
  0x7a, 0xea, 0xa8, 0xbd, 0xd7, 0x97, 0x7c, 0xbd, 0xf6, 0xd3, 0xf5, 0xbd,
  0x01, 0x14, 0x0b, 0xbc, 0x8b, 0x8f, 0x81, 0xbe, 0x4f, 0x8c, 0xa3, 0x3d,
  0x2a, 0x43, 0x9b, 0x3d, 0x00, 0xf8, 0xad, 0xbd, 0xf2, 0xd1, 0x09, 0xbe,
  0x5a, 0x4a, 0xa2, 0xbd, 0xa9, 0x89, 0xaa, 0xbd, 0x71, 0x17, 0xd2, 0x3b,
  0xa6, 0x6e, 0x8c, 0xbd, 0xd0, 0xc2, 0x5a, 0xbd, 0x95, 0xec, 0x1d, 0xbe,
  0x02, 0x48, 0xe7, 0xbd, 0xa6, 0x44, 0x26, 0xbe, 0x40, 0xa0, 0x92, 0xbd,
  0xc8, 0x01, 0xeb, 0xbd, 0xb3, 0xa7, 0x7c, 0x3d, 0x54, 0x9a, 0x72, 0xbe,
  0x8b, 0x8c, 0x7d, 0xbd, 0x5f, 0xa9, 0xbd, 0x3c, 0x10, 0x48, 0x9a, 0x3d,
  0xd2, 0xd4, 0x17, 0xbd, 0x69, 0x77, 0x94, 0xbd, 0xa0, 0x82, 0x21, 0xbe,
  0x7f, 0x96, 0xf1, 0x3d, 0x59, 0x0a, 0xb0, 0xbc, 0x4c, 0x48, 0x8b, 0xbc,
  0x76, 0x18, 0x8a, 0x3d, 0xfe, 0x8c, 0xc7, 0xbd, 0x37, 0x54, 0xf9, 0x3c,
  0x47, 0x50, 0xe4, 0x3c, 0x9f, 0x79, 0x99, 0x3d, 0xde, 0xcc, 0xff, 0x3d,
  0x05, 0xac, 0x64, 0xbe, 0x5a, 0xa9, 0x12, 0xbe, 0x2e, 0xe3, 0x87, 0xbc,
  0x50, 0x25, 0xf2, 0xbd, 0xbf, 0x78, 0x1d, 0xbe, 0x8d, 0x92, 0x3e, 0xbe,
  0xf8, 0x37, 0xdf, 0xbb, 0x48, 0xb2, 0x1b, 0xbd, 0x7c, 0x6b, 0x0b, 0x3d,
  0x31, 0xd0, 0x1f, 0x38, 0xc6, 0xe9, 0x47, 0x3d, 0x56, 0x3c, 0x90, 0x3d,
  0xcc, 0x1e, 0x7a, 0xba, 0x54, 0x42, 0xab, 0xbc, 0x62, 0xa7, 0x67, 0xbb,
  0xb1, 0xaa, 0x1d, 0xbe, 0x49, 0xc4, 0x8d, 0xbe, 0xd5, 0x94, 0x01, 0x3e,
  0x51, 0x63, 0xf2, 0x3d, 0x20, 0x9a, 0xe3, 0xbd, 0x87, 0xeb, 0x1e, 0xbd,
  0x18, 0x60, 0x76, 0xbd, 0x48, 0x09, 0xce, 0xbd, 0x43, 0x3b, 0x27, 0xbe,
  0xb8, 0xf8, 0x01, 0x3e, 0x80, 0xe3, 0x28, 0x3d, 0x80, 0x72, 0xc9, 0xbc,
  0x67, 0xbc, 0xb9, 0xbd, 0x43, 0x84, 0x0d, 0x3e, 0xe3, 0x1d, 0xec, 0x3c,
  0x1d, 0xbc, 0x00, 0xbe, 0x26, 0x6f, 0x24, 0xbe, 0x87, 0xb6, 0xdc, 0xbd,
  0x1a, 0xaf, 0x22, 0xbe, 0x2c, 0x0c, 0x8f, 0xbd, 0x90, 0x5f, 0x95, 0x3c,
  0xa2, 0xf1, 0x33, 0x3c, 0x41, 0x78, 0x89, 0xbd, 0x3c, 0x20, 0xad, 0x3d,
  0x51, 0xc2, 0xcb, 0x3d, 0x40, 0x1b, 0xc0, 0x3d, 0x28, 0x68, 0xa5, 0xbc,
  0x7f, 0x19, 0xbf, 0xbd, 0x2e, 0x92, 0x79, 0xbd, 0x51, 0xed, 0x9c, 0x3d,
  0xe4, 0xb8, 0x68, 0xbe, 0x3d, 0x64, 0x69, 0xbc, 0x87, 0x06, 0xef, 0x3d,
  0x36, 0x43, 0x18, 0xbe, 0x49, 0xcd, 0x3c, 0x3d, 0xf3, 0xc7, 0x86, 0xbe,
  0x2d, 0x3b, 0x86, 0xbd, 0xce, 0x4e, 0xac, 0x3d, 0x4d, 0x41, 0x84, 0xbe,
  0x7a, 0xf5, 0xaf, 0x3d, 0x8d, 0x53, 0x02, 0xbe, 0xb3, 0xdf, 0x0a, 0xbe,
  0x6f, 0xc8, 0x49, 0xbe, 0x27, 0x3c, 0xb6, 0x3d, 0x30, 0x54, 0x33, 0x3c,
  0x9a, 0x23, 0x03, 0x3e, 0x47, 0x1a, 0x89, 0xbd, 0xfa, 0x30, 0x04, 0x3d,
  0x5d, 0xdc, 0x65, 0x3c, 0x6c, 0x67, 0x37, 0xbe, 0x7f, 0x2d, 0x5f, 0x3d,
  0x28, 0xbd, 0x96, 0xbd, 0x33, 0x25, 0x73, 0x3c, 0x4c, 0x56, 0x48, 0x3d,
  0xe6, 0x98, 0xa9, 0xbd, 0xa7, 0xf7, 0xc9, 0xba, 0xaf, 0xe0, 0x4f, 0x3d,
  0x0e, 0x5a, 0x4f, 0xbc, 0xf3, 0x55, 0xb5, 0x3c, 0x55, 0x44, 0xab, 0xbd,
  0xbd, 0xf8, 0xdf, 0xbd, 0x95, 0x4e, 0x12, 0xbe, 0x28, 0xf8, 0x12, 0xbd,
  0xab, 0x6a, 0x78, 0xbd, 0xc9, 0x31, 0xf3, 0x3c, 0x3d, 0x1a, 0x72, 0xbe,
  0x3a, 0x57, 0x9b, 0x3c, 0xf5, 0x17, 0xb5, 0x3d, 0x5c, 0xc1, 0x2a, 0xbe,
  0x19, 0xd2, 0x91, 0xbd, 0xf4, 0x2a, 0x15, 0xbe, 0x33, 0x16, 0x13, 0x3d,
  0x5f, 0xfa, 0x08, 0xbe, 0x5a, 0xe4, 0xca, 0xbd, 0x6a, 0x1d, 0x27, 0xbe,
  0x6c, 0xc5, 0x1b, 0x3d, 0x0f, 0x6b, 0xf6, 0xbd, 0xeb, 0x68, 0xc1, 0xbc,
  0x3f, 0xf0, 0xe5, 0xbd, 0x75, 0xa5, 0x01, 0xbe, 0x93, 0x4f, 0xe7, 0xbd,
  0x2d, 0x18, 0x6d, 0xbe, 0xbc, 0x9e, 0xfa, 0x3d, 0x4c, 0x75, 0xc7, 0xbd,
  0xea, 0x0b, 0xcc, 0xbd, 0x37, 0x76, 0xb5, 0x3b, 0x63, 0x05, 0x2e, 0xbe,
  0xec, 0xea, 0x50, 0x3d, 0xaf, 0xca, 0xf6, 0xbd, 0x25, 0x5b, 0xed, 0x3d,
  0xb6, 0x47, 0x8a, 0xbe, 0xba, 0x44, 0xcd, 0xba, 0x08, 0x49, 0x01, 0xbe,
  0x7f, 0xad, 0x00, 0xbd, 0x0b, 0x1e, 0x13, 0x3c, 0x41, 0x98, 0x10, 0xbd,
  0x3a, 0xf5, 0x71, 0x3e, 0x8e, 0x1f, 0x2d, 0x3d, 0x98, 0xef, 0x1a, 0xbe,
  0x8b, 0x5a, 0x5f, 0x3d, 0x90, 0xa9, 0x59, 0x3d, 0x37, 0xd2, 0x37, 0xbe,
  0xa6, 0xfa, 0x61, 0xbe, 0xb3, 0x9f, 0x11, 0x3e, 0xcf, 0xa1, 0xce, 0x3c,
  0x04, 0xdd, 0x43, 0xbd, 0x1d, 0x9e, 0x2b, 0xbd, 0x02, 0xdf, 0xde, 0xbd,
  0xbb, 0x86, 0x2e, 0x3d, 0x9b, 0x6e, 0xe7, 0x3d, 0x6c, 0x3c, 0x40, 0xbd,
  0xc5, 0x5f, 0xcf, 0xbd, 0xd1, 0x8a, 0x69, 0x3d, 0xff, 0xb1, 0x07, 0x3e,
  0xce, 0x6e, 0x86, 0x3d, 0xa8, 0x59, 0xbc, 0x3e, 0x91, 0x73, 0x69, 0x3d,
  0xeb, 0x81, 0x12, 0xbd, 0x6d, 0xde, 0x51, 0xbe, 0xdd, 0x95, 0x88, 0xbc,
  0x1e, 0x70, 0x4a, 0x3e, 0xc4, 0xff, 0xf1, 0xba, 0x62, 0x6e, 0xf7, 0xbd,
  0xd8, 0x91, 0x1e, 0x3c, 0xad, 0x68, 0x02, 0x3e, 0x39, 0xb9, 0x0a, 0x3e,
  0x02, 0x53, 0xb3, 0x3d, 0x23, 0xda, 0x48, 0xbe, 0xec, 0xa0, 0x8f, 0xbe,
  0x2e, 0xb8, 0x5f, 0xbc, 0x0d, 0x81, 0xf3, 0xbd, 0x69, 0x5f, 0x80, 0x3e,
  0x09, 0x8a, 0x28, 0xbe, 0x53, 0xc4, 0x97, 0xbd, 0xf0, 0x39, 0x8a, 0xbe,
  0x05, 0x76, 0x06, 0x3e, 0xf6, 0xf0, 0x5f, 0x3d, 0x7c, 0x25, 0x06, 0x3c,
  0x84, 0xa2, 0xf8, 0xbd, 0xe6, 0xa6, 0x3d, 0xbd, 0x60, 0x93, 0xf4, 0x3d,
  0x67, 0x56, 0x46, 0x3d, 0x81, 0xf6, 0x60, 0x3d, 0x59, 0x0d, 0xda, 0xbd,
  0x48, 0x02, 0x14, 0xbe, 0x92, 0x2b, 0x8f, 0xbc, 0xc7, 0x1a, 0xde, 0xbc,
  0x94, 0x0b, 0xd8, 0x3e, 0x65, 0x25, 0x15, 0xbe, 0x1a, 0x8c, 0x57, 0xbc,
  0xb8, 0x90, 0x5e, 0xbe, 0x02, 0xc3, 0x77, 0x3e, 0x5d, 0x36, 0x9a, 0x3d,
  0x0c, 0x4c, 0x5c, 0x3d, 0x55, 0xc4, 0x3e, 0xbe, 0x05, 0x89, 0x22, 0x3d,
  0x2a, 0x2e, 0x6e, 0x3c, 0x82, 0xf7, 0x98, 0x3e, 0x73, 0xcd, 0xa7, 0xbc,
  0xc3, 0x04, 0x72, 0xbd, 0xf9, 0xba, 0xae, 0xbc, 0x2d, 0x2e, 0x90, 0x3d,
  0x00, 0x42, 0x45, 0xbe, 0xe5, 0xfe, 0xaf, 0x3e, 0x68, 0x8f, 0x64, 0x3d,
  0xab, 0x8f, 0x4a, 0x3d, 0xa1, 0x14, 0x15, 0xbe, 0xe6, 0x36, 0x32, 0x3e,
  0x39, 0x20, 0x34, 0x3e, 0x60, 0x44, 0x31, 0x3e, 0xf8, 0x91, 0x98, 0xbe,
  0x27, 0xf9, 0xa3, 0x3b, 0xaa, 0x67, 0xf6, 0xbb, 0x1a, 0x6c, 0x31, 0x3e,
  0x10, 0x40, 0xa7, 0xbc, 0xfd, 0xdf, 0xf1, 0xbc, 0x61, 0xb6, 0xd2, 0xbc,
  0xee, 0x30, 0x6f, 0x3d, 0x4c, 0x30, 0x59, 0xbe, 0x31, 0xe7, 0xa7, 0x3e,
  0x81, 0x40, 0x43, 0x3d, 0x0a, 0xbc, 0x92, 0xbd, 0xb6, 0xd8, 0x1f, 0x3c,
  0x98, 0x62, 0xa6, 0x3e, 0x3d, 0x89, 0x23, 0x3e, 0x24, 0x3d, 0x02, 0x3d,
  0xfa, 0xfa, 0x96, 0xbe, 0x28, 0x39, 0x98, 0xbc, 0x66, 0xa7, 0xd6, 0x3d,
  0x97, 0xef, 0x8e, 0x3e, 0xa7, 0x27, 0x80, 0x3a, 0xc7, 0x67, 0x9c, 0x3d,
  0x58, 0x1a, 0xac, 0xbc, 0xce, 0x92, 0xec, 0x3d, 0x3c, 0xfc, 0x39, 0xbe,
  0x76, 0x0f, 0xdf, 0xbd, 0xc4, 0xa8, 0x1d, 0x3d, 0x7b, 0xc5, 0x9a, 0x3d,
  0xea, 0x97, 0x04, 0xbe, 0xf8, 0x13, 0xa4, 0xbd, 0x61, 0xa0, 0x82, 0xbc,
  0x0d, 0xf0, 0x06, 0x3d, 0x42, 0x40, 0x07, 0xbe, 0xe1, 0x51, 0x0e, 0xbe,
  0xb4, 0x16, 0xf3, 0x3c, 0x0a, 0x67, 0xab, 0x3e, 0x73, 0x2c, 0x6b, 0xbc,
  0x47, 0x83, 0x79, 0xbd, 0x2c, 0xab, 0xd5, 0xbd, 0xcc, 0xf2, 0xbd, 0x3d,
  0x1d, 0xa2, 0xbd, 0x3d, 0x72, 0xc2, 0xcc, 0x3d, 0xcf, 0x88, 0x4b, 0xbd,
  0xad, 0xca, 0x5d, 0xbc, 0x03, 0x4f, 0x04, 0xbe, 0xbc, 0x14, 0x3a, 0xbe,
  0xc1, 0xb8, 0xa5, 0xbd, 0xf3, 0x96, 0xe0, 0xbd, 0xf7, 0xfc, 0xbf, 0xbe,
  0x5d, 0x11, 0xce, 0xbd, 0xf9, 0x8a, 0x25, 0xbd, 0x8d, 0xf6, 0x44, 0xbd,
  0x1c, 0x2b, 0xa8, 0xbd, 0x8e, 0xc1, 0x4b, 0xbd, 0x85, 0x13, 0xcf, 0xbd,
  0x78, 0x21, 0x9f, 0xbd, 0x4e, 0x09, 0xd9, 0xbd, 0x84, 0xa6, 0xb7, 0xba,
  0xf5, 0xd4, 0x2c, 0x3d, 0x7e, 0xb3, 0x3f, 0x3d, 0x49, 0x4e, 0x46, 0xbe,
  0x78, 0x15, 0x47, 0xbe, 0xf0, 0x00, 0x21, 0xbe, 0x9c, 0xb7, 0x34, 0x3c,
  0xd1, 0xb0, 0xe6, 0xbd, 0x03, 0x98, 0xcd, 0x3d, 0x77, 0xa7, 0xe9, 0xba,
  0xd5, 0xff, 0x37, 0xbd, 0x37, 0x53, 0xdf, 0xbd, 0x25, 0xa3, 0xde, 0xbc,
  0x74, 0xa3, 0x2c, 0x3d, 0xc0, 0x68, 0xa2, 0xbd, 0xa8, 0x17, 0xf5, 0xbb,
  0x52, 0x4e, 0xbf, 0xbd, 0xb3, 0x85, 0x4e, 0xbd, 0x3b, 0x3a, 0x7f, 0x3c,
  0x2e, 0x6a, 0x50, 0xbe, 0xdf, 0xc6, 0xc1, 0xbc, 0x05, 0x10, 0x1c, 0xbe,
  0x2e, 0x81, 0xd8, 0x3c, 0xba, 0xef, 0x2d, 0xbe, 0x9a, 0x81, 0xe8, 0x3d,
  0x93, 0x51, 0x83, 0x3d, 0x41, 0x99, 0x33, 0xbe, 0x75, 0xd7, 0x90, 0xbd,
  0xdf, 0x93, 0x9b, 0xbd, 0x78, 0xcc, 0x12, 0xbe, 0x74, 0xb3, 0x5d, 0xbd,
  0x28, 0x95, 0x8c, 0xbd, 0x01, 0x4e, 0xa1, 0xbc, 0x00, 0xaa, 0x54, 0x3d,
  0xc8, 0xf3, 0x01, 0x3e, 0xc1, 0xff, 0x6e, 0xbe, 0x7d, 0xc6, 0x37, 0xbe,
  0x78, 0x49, 0x01, 0xbe, 0xc3, 0x6f, 0x12, 0xbe, 0xea, 0xa9, 0x11, 0xbe,
  0xa4, 0x7a, 0x5d, 0x3d, 0x32, 0x35, 0x93, 0xbc, 0xb3, 0x6e, 0xa2, 0x3a,
  0xf3, 0x3d, 0xa7, 0xbd, 0x16, 0xc5, 0x76, 0x3d, 0xe1, 0x3e, 0x01, 0xbe,
  0x89, 0xd4, 0x71, 0xbd, 0x8a, 0xd4, 0xb2, 0xbd, 0xa7, 0xef, 0x00, 0xbc,
  0xf7, 0xc2, 0xa9, 0x3c, 0xd8, 0x71, 0x00, 0xbe, 0x2e, 0xb1, 0x4f, 0xbe,
  0x80, 0xdb, 0x48, 0xbe, 0x59, 0x76, 0x29, 0xbd, 0xa9, 0xee, 0x89, 0x3d,
  0x40, 0x34, 0x29, 0xbe, 0xe4, 0x09, 0x0d, 0x3c, 0xf6, 0x2f, 0x22, 0xbe,
  0xdd, 0x6d, 0x11, 0x3c, 0x6b, 0x34, 0x52, 0xbd, 0x8f, 0x46, 0x02, 0xbe,
  0xbd, 0x4c, 0x3c, 0x3d, 0x52, 0xe8, 0xbc, 0xbb, 0x67, 0xf1, 0xd9, 0xbd,
  0xae, 0x22, 0x69, 0xbd, 0x1d, 0x0b, 0x99, 0xbd, 0x03, 0x41, 0x1c, 0xbe,
  0x0b, 0xd4, 0x23, 0xbe, 0x43, 0xee, 0x6a, 0xbd, 0xe4, 0x75, 0xc2, 0xbc,
  0x8b, 0x59, 0x86, 0xbd, 0x64, 0xff, 0x27, 0xbe, 0x30, 0x02, 0x9a, 0xbd,
  0x3e, 0x68, 0x1c, 0x3e, 0xc8, 0x77, 0x1a, 0xbe, 0x45, 0xa0, 0x47, 0xbd,
  0x48, 0xc6, 0xf6, 0xbc, 0x4c, 0x98, 0x52, 0xbe, 0x5d, 0x12, 0xbb, 0xbd,
  0xa3, 0x26, 0x95, 0xbd, 0x79, 0xf9, 0xe4, 0xbd, 0x68, 0x3b, 0x18, 0xbe,
  0xb8, 0x03, 0x60, 0xbd, 0xdb, 0x8d, 0x33, 0xbe, 0xe0, 0x1b, 0x0a, 0xbe,
  0x37, 0x9e, 0x8b, 0xbd, 0x0b, 0xf2, 0x6e, 0x3d, 0x67, 0x99, 0xab, 0xbe,
  0x15, 0x0c, 0xaf, 0x3d, 0x79, 0x42, 0x5a, 0xbd, 0x82, 0xe6, 0xe5, 0xbd,
  0x46, 0x48, 0xc1, 0xbd, 0xa0, 0x5d, 0x10, 0xbc, 0x3b, 0x4b, 0xa2, 0x3e,
  0x2f, 0x36, 0x9a, 0xbc, 0x94, 0x81, 0x05, 0xbe, 0xa1, 0x47, 0x4e, 0xba,
  0xe6, 0xfa, 0x52, 0x3e, 0x44, 0x1e, 0x36, 0xbe, 0x9a, 0x97, 0x26, 0xbe,
  0xab, 0x72, 0xfd, 0x3d, 0xf5, 0xff, 0xd4, 0xbc, 0x85, 0x28, 0xb8, 0x3d,
  0xc7, 0x15, 0x79, 0x3e, 0x7d, 0xad, 0xbb, 0x3d, 0x3d, 0x46, 0x8f, 0xbc,
  0x87, 0x72, 0x35, 0x3e, 0xf9, 0x9c, 0xc8, 0xbc, 0x53, 0xa0, 0x0f, 0x3c,
  0x09, 0xdf, 0xfb, 0xbd, 0xe7, 0x7c, 0x9b, 0x3d, 0xba, 0x6f, 0x73, 0x3e,
  0xd1, 0x84, 0x80, 0x3e, 0x33, 0x03, 0xd3, 0x3d, 0x80, 0xfd, 0x19, 0x3d,
  0x76, 0xdd, 0x00, 0xbe, 0x82, 0x62, 0x98, 0x3d, 0x6d, 0xf2, 0xfc, 0xbb,
  0x1b, 0x6d, 0x71, 0x3d, 0xd7, 0x66, 0x21, 0xbe, 0x9e, 0x14, 0x06, 0x3e,
  0xc8, 0xaf, 0x6d, 0xbd, 0x4b, 0x48, 0xad, 0x3e, 0xd5, 0x85, 0x8d, 0x3c,
  0x6c, 0x97, 0xfb, 0xbd, 0x16, 0x20, 0x67, 0xbe, 0xaa, 0x0b, 0xb6, 0xbc,
  0x2e, 0xe1, 0x85, 0x3d, 0x9d, 0xd1, 0xb2, 0x3e, 0x8c, 0xc8, 0xfd, 0xbd,
  0x03, 0x03, 0x24, 0xbc, 0xab, 0x85, 0x0b, 0xbd, 0xd7, 0xed, 0x8c, 0x3e,
  0x77, 0x33, 0xf0, 0x3d, 0x0f, 0xda, 0x9f, 0x3c, 0x18, 0x56, 0xa8, 0xbd,
  0x75, 0x49, 0x9b, 0x3d, 0x8b, 0x60, 0x0a, 0xbd, 0xf8, 0xd7, 0xa5, 0x3e,
  0x34, 0x4e, 0x42, 0xbd, 0x20, 0xe8, 0xd7, 0xbd, 0xcb, 0x08, 0x05, 0xbe,
  0x8c, 0x9d, 0x71, 0xbd, 0x72, 0xc9, 0x0a, 0xbe, 0x5c, 0x97, 0x97, 0x3e,
  0x79, 0x39, 0x73, 0xbc, 0x8d, 0x40, 0x78, 0xbd, 0x9e, 0x76, 0xba, 0xbd,
  0x14, 0x05, 0x47, 0x3e, 0x66, 0x61, 0xa4, 0x3d, 0xfb, 0xac, 0x09, 0x3e,
  0x27, 0x4b, 0xaa, 0xbe, 0xb5, 0x39, 0xfc, 0x3d, 0xb0, 0x94, 0xa7, 0x3d,
  0x48, 0x81, 0x8d, 0x3e, 0xd7, 0x73, 0xaa, 0x3d, 0xca, 0xea, 0x96, 0xbd,
  0xb2, 0x1c, 0x17, 0xbd, 0x5b, 0x0f, 0x85, 0x3d, 0x80, 0x86, 0xac, 0xbd,
  0x65, 0x76, 0xb6, 0x3e, 0x96, 0x14, 0x69, 0x3c, 0xfe, 0xdb, 0x85, 0xbd,
  0x4b, 0xb0, 0x41, 0xbe, 0x72, 0xea, 0x3a, 0x3e, 0x84, 0x91, 0x2c, 0x3d,
  0xdd, 0x65, 0x21, 0xbd, 0x52, 0x1f, 0x14, 0xbe, 0xee, 0x8d, 0x7b, 0xbd,
  0x71, 0xdd, 0x99, 0xbd, 0xf6, 0x91, 0xe0, 0x3e, 0x8a, 0x79, 0xcb, 0xbd,
  0xaf, 0xa4, 0x19, 0xbe, 0x45, 0xa7, 0x06, 0xbe, 0x83, 0xc7, 0xf6, 0xbd,
  0x66, 0xfd, 0x76, 0xbe, 0xf8, 0xfd, 0xcc, 0x3e, 0x66, 0x8c, 0x95, 0x3c,
  0x24, 0x44, 0xf5, 0x3d, 0xb6, 0x49, 0x03, 0xbe, 0x8e, 0x74, 0x47, 0x3d,
  0x6e, 0x18, 0x21, 0x3c, 0x01, 0x41, 0x36, 0xbe, 0xc3, 0x05, 0xff, 0xbc,
  0xf4, 0xbc, 0x2a, 0x3e, 0x96, 0x37, 0xbb, 0x3d, 0xea, 0x24, 0xd3, 0x3e,
  0x5a, 0x2a, 0xb6, 0x3b, 0xf6, 0x49, 0x86, 0xbc, 0x91, 0xff, 0x9b, 0x3c,
  0xf5, 0x21, 0xd4, 0x3b, 0x07, 0xd1, 0xb4, 0xbd, 0x11, 0x26, 0x9f, 0x3d,
  0x3b, 0xc8, 0x94, 0xbd, 0x5f, 0x2f, 0xaf, 0x3d, 0x15, 0x0a, 0x75, 0xbe,
  0xff, 0x72, 0xab, 0xbe, 0x2b, 0x9c, 0xa7, 0x3d, 0xdd, 0x24, 0x81, 0xbe,
  0xdc, 0xa3, 0x56, 0x3b, 0xf8, 0xfc, 0x8a, 0x3d, 0x67, 0x1c, 0x58, 0x3e,
  0x65, 0x0c, 0x43, 0x3d, 0xc3, 0x07, 0x4e, 0x39, 0xa2, 0x6e, 0x06, 0xbe,
  0xc8, 0x94, 0x1f, 0xbe, 0x6c, 0x81, 0x26, 0xbd, 0xd2, 0xd3, 0xe3, 0xbc,
  0xb9, 0xa2, 0xc6, 0x3e, 0x8e, 0xef, 0x01, 0xbd, 0x73, 0x79, 0xa9, 0xbd,
  0xb4, 0xc6, 0x34, 0xbe, 0xf6, 0x50, 0x50, 0xbe, 0xf1, 0x52, 0x06, 0xbe,
  0x19, 0x72, 0x4b, 0xbd, 0x3c, 0x7f, 0x9a, 0x3c, 0xfb, 0xcf, 0x0b, 0x3e,
  0x18, 0x59, 0xd2, 0x3d, 0xab, 0x13, 0x34, 0xbe, 0xc9, 0xdd, 0x92, 0xbd,
  0xdd, 0xca, 0xde, 0x3b, 0xf3, 0x6b, 0xb3, 0xbd, 0x81, 0x61, 0x11, 0xbd,
  0xa5, 0x6f, 0x7c, 0xbe, 0x4e, 0xc2, 0x36, 0x3e, 0x44, 0xb0, 0xbd, 0xbd,
  0x90, 0x7e, 0xb8, 0xbd, 0xfa, 0xa7, 0x9d, 0xbe, 0x7d, 0xa2, 0x31, 0xbb,
  0xa0, 0xb5, 0xb9, 0xbd, 0xdc, 0xdc, 0x85, 0xbd, 0x79, 0xcd, 0xc5, 0x3d,
  0xf8, 0x97, 0xf5, 0xbd, 0x3e, 0xb1, 0x95, 0xbc, 0x92, 0x7f, 0xe3, 0x3d,
  0xc4, 0x3c, 0x77, 0x3c, 0xc5, 0x4f, 0x01, 0x3d, 0xbe, 0xee, 0x13, 0xbd,
  0x63, 0x24, 0x27, 0xbd, 0x5b, 0xc5, 0xae, 0x3d, 0xe3, 0x0a, 0x3b, 0x3e,
  0x59, 0x47, 0x29, 0x3d, 0xea, 0x33, 0x3c, 0x3b, 0xdc, 0x97, 0x68, 0xbe,
  0x77, 0x94, 0x35, 0x3e, 0x5c, 0x3d, 0x48, 0xbd, 0x7c, 0x64, 0xe0, 0xbd,
  0x80, 0xf4, 0x87, 0x3b, 0xec, 0xb8, 0x8e, 0xbd, 0x68, 0xc2, 0x06, 0x3e,
  0xca, 0xd6, 0x63, 0x3e, 0xe3, 0x89, 0x58, 0xbd, 0xc8, 0xb3, 0x3f, 0x3d,
  0x44, 0x99, 0x7c, 0x3c, 0x1d, 0x3b, 0xd7, 0x3c, 0xeb, 0x57, 0x97, 0xbd,
  0x68, 0xe9, 0x59, 0x3d, 0x45, 0xf1, 0x5f, 0x3e, 0x08, 0x6c, 0xd3, 0xbd,
  0xd7, 0xfe, 0x9c, 0xbd, 0xdf, 0x8f, 0x5a, 0x3d, 0xda, 0x18, 0x68, 0xbb,
  0x11, 0x00, 0xc7, 0xbd, 0x78, 0x24, 0xf6, 0x3c, 0xca, 0x8f, 0x12, 0x3d,
  0x74, 0xb6, 0x7d, 0x3e, 0xf9, 0xe1, 0x88, 0x3e, 0x34, 0x1e, 0x38, 0x3d,
  0x4c, 0xf8, 0x60, 0xbc, 0x82, 0xf8, 0x12, 0xbe, 0xe9, 0x63, 0x45, 0x3d,
  0x16, 0xb2, 0x2f, 0xbe, 0xc7, 0x82, 0x88, 0x3d, 0x35, 0xab, 0xb7, 0x3d,
  0xcc, 0xa4, 0x4b, 0xbc, 0x50, 0x59, 0x52, 0xbe, 0x62, 0xab, 0x0a, 0x3e,
  0x33, 0xfe, 0x9c, 0xbc, 0xf7, 0x4a, 0x4b, 0x3d, 0x34, 0x29, 0x80, 0xbd,
  0xc1, 0x14, 0xed, 0x3c, 0xf4, 0x10, 0x86, 0xbd, 0x1e, 0x26, 0x87, 0x3e,
  0xea, 0xdd, 0xa3, 0xbd, 0x1a, 0x51, 0x57, 0x3d, 0xe5, 0xe5, 0xd1, 0x3d,
  0x36, 0x1e, 0x00, 0x3d, 0xcd, 0x7d, 0xda, 0xbd, 0x26, 0x8b, 0xb0, 0x3c,
  0x97, 0xf7, 0x84, 0xbd, 0xc8, 0x0a, 0x1e, 0x3d, 0x07, 0x38, 0x6c, 0xbe,
  0xcf, 0x31, 0x87, 0x3e, 0xd3, 0x91, 0xd7, 0x3d, 0xde, 0x94, 0x52, 0x3e,
  0x35, 0x28, 0x75, 0xbe, 0xf2, 0x24, 0x35, 0x3e, 0x77, 0xc1, 0x5a, 0x3c,
  0x8f, 0x25, 0x8c, 0x3e, 0xa9, 0x7e, 0xfa, 0x3d, 0xff, 0x48, 0x4f, 0x3d,
  0xdb, 0x27, 0xf2, 0xbd, 0xbe, 0xdc, 0x86, 0xbc, 0xac, 0xeb, 0x54, 0xbd,
  0x74, 0xa7, 0xe1, 0xbd, 0x15, 0x3b, 0xa2, 0x3c, 0x96, 0xcf, 0xb0, 0xbc,
  0xed, 0x16, 0x3f, 0xbe, 0x58, 0x80, 0x3c, 0x3e, 0x0e, 0x8b, 0xb4, 0x3c,
  0x94, 0x04, 0xc6, 0x3d, 0x9e, 0xca, 0x99, 0xbe, 0x32, 0x0c, 0x1d, 0xbe,
  0x71, 0x3d, 0x5f, 0xbc, 0x7e, 0x6e, 0xb5, 0x3d, 0x68, 0x54, 0xdb, 0x3c,
  0xfe, 0xe8, 0xea, 0xbd, 0x55, 0x1f, 0xa3, 0xbe, 0x06, 0x3a, 0x2a, 0x3e,
  0xff, 0x81, 0x9b, 0xbe, 0xce, 0x10, 0x82, 0xbe, 0x75, 0xa2, 0x92, 0x3d,
  0x36, 0xb3, 0xb3, 0x3c, 0xcb, 0x59, 0x62, 0xbe, 0xb9, 0x93, 0x76, 0xbe,
  0x23, 0x7f, 0xb7, 0xbe, 0xc8, 0xd8, 0x1f, 0x3e, 0xd4, 0xbf, 0xc1, 0x3e,
  0xe6, 0x8a, 0x30, 0x3e, 0x03, 0x31, 0x57, 0x3e, 0x1a, 0x8a, 0x46, 0x3e,
  0x7a, 0xcf, 0xaa, 0xbe, 0x89, 0x09, 0x9f, 0x3e, 0x84, 0x5b, 0xb3, 0x3d,
  0xb2, 0x2a, 0xc3, 0xbd, 0x26, 0x66, 0xfb, 0x3c, 0x1a, 0x2a, 0x13, 0xbe,
  0x83, 0x7e, 0x35, 0xbd, 0x27, 0xe8, 0x7d, 0x3e, 0x49, 0x98, 0xf4, 0xbd,
  0x7f, 0x8a, 0x76, 0xbe, 0x9c, 0x7e, 0x29, 0xbe, 0x61, 0xce, 0x91, 0x3d,
  0x6a, 0x4a, 0xc6, 0xbd, 0xc7, 0x04, 0x24, 0x3d, 0x39, 0xac, 0x1e, 0x3d,
  0x53, 0x66, 0x34, 0xbe, 0x46, 0xb5, 0xa0, 0xbe, 0x18, 0x3b, 0xf9, 0x3c,
  0x35, 0x2e, 0x2c, 0xbd, 0x0c, 0x05, 0x70, 0xbd, 0xc3, 0xef, 0x19, 0x3d,
  0xfa, 0x9c, 0x0f, 0xbe, 0x46, 0x52, 0xd9, 0xbd, 0x75, 0x59, 0xd6, 0x3d,
  0x00, 0x8f, 0xb4, 0x3d, 0xba, 0x79, 0x8b, 0xbd, 0x4d, 0x13, 0x09, 0xbd,
  0x49, 0x04, 0x5c, 0x3e, 0x31, 0x09, 0x90, 0x3d, 0x15, 0xb8, 0xe8, 0x3b,
  0x3b, 0x44, 0x04, 0x3e, 0xf6, 0xda, 0x75, 0xbd, 0xbe, 0x6e, 0x89, 0xbe,
  0x58, 0xcd, 0x24, 0x3b, 0x3a, 0xeb, 0xaa, 0x3d, 0x5b, 0xb8, 0xc1, 0xbd,
  0x13, 0xd7, 0x76, 0xbd, 0x2e, 0x2c, 0xb1, 0xbd, 0x7b, 0xee, 0x50, 0xbd,
  0xdf, 0x7c, 0x4c, 0x3e, 0x00, 0x5c, 0xa9, 0x3d, 0xd2, 0x26, 0x89, 0xbd,
  0x06, 0xba, 0x5d, 0xbd, 0x37, 0x62, 0x15, 0x3e, 0x5d, 0xff, 0x43, 0xbd,
  0xa0, 0x52, 0x2b, 0x3e, 0x2a, 0x42, 0xba, 0x3b, 0xcb, 0xca, 0xb3, 0x3d,
  0x1f, 0x91, 0xb4, 0xbe, 0x9f, 0xb2, 0x1f, 0x3d, 0xb0, 0x25, 0xcf, 0xbc,
  0x22, 0x8a, 0xd0, 0x3d, 0xce, 0xca, 0x00, 0x3e, 0xdb, 0xe7, 0x48, 0xbc,
  0xf1, 0x60, 0x67, 0x3d, 0xbe, 0xbc, 0x6e, 0x3d, 0x9e, 0x67, 0x00, 0xbd,
  0x06, 0x4f, 0x96, 0x3d, 0xc7, 0x11, 0x78, 0x3c, 0x50, 0x4e, 0x3f, 0x3e,
  0x23, 0x01, 0xb1, 0xbd, 0x67, 0xeb, 0x42, 0xbd, 0x94, 0xc3, 0xd1, 0xba,
  0x86, 0xd7, 0xd8, 0x3d, 0x3f, 0x03, 0xdc, 0xbd, 0xc6, 0x23, 0xb1, 0x3d,
  0x29, 0x7f, 0xef, 0xbd, 0x5f, 0x4e, 0xb0, 0x3c, 0x32, 0x31, 0x67, 0x3d,
  0x27, 0x8b, 0xb9, 0xbd, 0x0a, 0x0f, 0xf5, 0xbc, 0xad, 0x75, 0x89, 0x3c,
  0xe2, 0x03, 0x49, 0xbe, 0x83, 0x5f, 0x2f, 0x3d, 0x05, 0x0c, 0xf2, 0x3d,
  0x5b, 0x00, 0x66, 0x3d, 0x15, 0x62, 0x0c, 0xbb, 0xf8, 0xac, 0x94, 0x3e,
  0x52, 0xef, 0xfb, 0xbb, 0xc1, 0x02, 0xc9, 0x3c, 0x79, 0xc3, 0x04, 0x3d,
  0x4e, 0xc8, 0x03, 0xbc, 0x12, 0xce, 0x5e, 0x3c, 0x62, 0xb7, 0x81, 0xbc,
  0x03, 0x1f, 0x0e, 0x3e, 0x67, 0x93, 0x64, 0x3e, 0xdf, 0x2b, 0x95, 0x3c,
  0x71, 0xc3, 0xb3, 0x3d, 0x35, 0xfc, 0x94, 0xbd, 0xe1, 0x55, 0xc7, 0x3d,
  0xce, 0xc4, 0x26, 0x3e, 0xcf, 0xc8, 0x83, 0x3d, 0x11, 0xc6, 0x65, 0xbd,
  0x1a, 0x2c, 0x09, 0x3e, 0x13, 0xfb, 0x88, 0xba, 0x29, 0xf3, 0x5f, 0x3d,
  0xf8, 0x14, 0xb4, 0xbd, 0x51, 0x8b, 0xb7, 0x3d, 0x35, 0x5c, 0x89, 0x3d,
  0xa1, 0xb2, 0x10, 0x3e, 0xd2, 0xdb, 0xf5, 0xbb, 0xc0, 0xd7, 0x41, 0xbc,
  0xb8, 0xa3, 0x0f, 0xbe, 0x6f, 0xe9, 0xe7, 0x3d, 0x20, 0xf0, 0xcb, 0xbd,
  0x82, 0x49, 0x63, 0xbd, 0x9d, 0x83, 0x4f, 0x3d, 0x61, 0xb6, 0x1c, 0x3e,
  0x3b, 0x17, 0x36, 0x3c, 0x77, 0xc4, 0x3c, 0x3b, 0x89, 0x9e, 0xcf, 0x3c,
  0xab, 0xa7, 0x10, 0x3d, 0x3f, 0xdf, 0x1b, 0x3d, 0x00, 0x27, 0x54, 0x3c,
  0x32, 0x45, 0x2d, 0xbe, 0x2e, 0x06, 0x9d, 0x3d, 0xdd, 0xff, 0xc3, 0x3d,
  0x65, 0x70, 0x0f, 0x3e, 0x27, 0xfa, 0x0d, 0xbe, 0x0d, 0x7d, 0x13, 0x3c,
  0x1e, 0xd1, 0xaf, 0xbd, 0xb1, 0xf9, 0x95, 0x3d, 0xad, 0x6e, 0x3e, 0x3d,
  0x13, 0x24, 0x9e, 0x3d, 0xc7, 0x76, 0x7e, 0xbd, 0x40, 0x0e, 0xd8, 0x3d,
  0xd2, 0xb3, 0x9d, 0x3d, 0xab, 0x32, 0x3a, 0x3e, 0x97, 0x37, 0x19, 0xbe,
  0x2a, 0x06, 0xd0, 0x3c, 0x6b, 0x97, 0x00, 0x3e, 0xe0, 0xae, 0x25, 0x3b,
  0xd0, 0x03, 0x8d, 0x3d, 0x09, 0xb3, 0x6b, 0xbd, 0x6b, 0x11, 0x4d, 0xbd,
  0xb0, 0x1b, 0x43, 0xbd, 0x76, 0xd6, 0x11, 0xbe, 0x29, 0x6c, 0x59, 0x3c,
  0x94, 0x32, 0x40, 0x3e, 0x2f, 0xfc, 0x52, 0x3e, 0x15, 0xa5, 0x9b, 0x3d,
  0xde, 0x71, 0x4d, 0x3c, 0xa0, 0x6e, 0x02, 0x3e, 0xe2, 0x3c, 0x2e, 0x3e,
  0xb0, 0xd0, 0x3e, 0xbe, 0x3e, 0x2a, 0x0a, 0xba, 0xa2, 0xaf, 0x87, 0xbd,
  0x12, 0x33, 0x27, 0xbd, 0xdc, 0xa7, 0xae, 0x3c, 0x71, 0x6f, 0xa4, 0xbc,
  0xb3, 0xcc, 0xaf, 0x3d, 0xcc, 0x02, 0xa2, 0x3d, 0x42, 0x8b, 0x9b, 0xbd,
  0x6a, 0xae, 0x91, 0xbd, 0x8a, 0x0a, 0xaf, 0xbd, 0x54, 0xa6, 0x0c, 0x3e,
  0x30, 0x81, 0x3d, 0xbd, 0x80, 0xc6, 0x91, 0x3d, 0x6d, 0x05, 0x36, 0x3e,
  0xf8, 0x15, 0x5e, 0xbd, 0x4b, 0xe8, 0x53, 0xbe, 0x70, 0xe3, 0x49, 0xbd,
  0xaa, 0xbd, 0x4d, 0x3d, 0x37, 0xfe, 0x66, 0xbd, 0x83, 0xb2, 0x39, 0x3b,
  0xed, 0x96, 0xa1, 0xbc, 0xe9, 0x2f, 0x31, 0x3c, 0x4c, 0xb8, 0x07, 0x3e,
  0x6d, 0xa6, 0x88, 0xbc, 0xcb, 0x15, 0x15, 0xbe, 0x36, 0x6f, 0x5b, 0xbd,
  0xcb, 0x45, 0x1d, 0x3e, 0xe2, 0xba, 0xe1, 0x3c, 0x57, 0x50, 0x07, 0x3e,
  0x43, 0x29, 0x27, 0x3d, 0xd2, 0x16, 0xd7, 0x3d, 0xff, 0xde, 0x7a, 0xbe,
  0x05, 0x3e, 0x35, 0x3c, 0xd4, 0x33, 0xad, 0x3c, 0xba, 0xde, 0x66, 0xbd,
  0x7f, 0xf7, 0x81, 0x3d, 0x42, 0x67, 0x44, 0x3d, 0xfb, 0xe8, 0x45, 0xbd,
  0x49, 0x08, 0xf2, 0x3d, 0x48, 0x73, 0x10, 0x3d, 0x24, 0xdb, 0x0d, 0xbe,
  0x96, 0x5d, 0x5a, 0xbb, 0xb2, 0x89, 0x2e, 0x3e, 0xbf, 0x8c, 0x1f, 0xbd,
  0x9a, 0x6c, 0x5b, 0x3e, 0x0f, 0x7d, 0xbf, 0x3d, 0x1e, 0x90, 0x62, 0xbc,
  0xb6, 0xc1, 0x95, 0xbd, 0xbb, 0x59, 0xe2, 0x3d, 0x2b, 0xb3, 0x1e, 0x3d,
  0xf2, 0x14, 0xb3, 0xbc, 0xd6, 0x76, 0x2f, 0xbe, 0x35, 0x2e, 0xee, 0xbd,
  0xa7, 0x19, 0xac, 0xbd, 0x53, 0xc4, 0x6a, 0x3e, 0xbe, 0xf5, 0x0a, 0xbd,
  0x32, 0x6d, 0xbf, 0x3c, 0xed, 0xa8, 0x8b, 0xbd, 0x1f, 0x10, 0x46, 0x3e,
  0x7f, 0x21, 0x4b, 0x3a, 0x32, 0x4d, 0x4f, 0x3e, 0x0f, 0x96, 0x54, 0x3d,
  0x5b, 0xfd, 0x55, 0xbd, 0x09, 0x4e, 0x3b, 0xbe, 0x58, 0xfe, 0x23, 0x3d,
  0xa3, 0x31, 0x8d, 0xbc, 0xb2, 0x94, 0x7f, 0x3d, 0xc4, 0x37, 0x9c, 0xbd,
  0x19, 0x29, 0x60, 0xbe, 0x7e, 0x9d, 0x32, 0x3c, 0xd2, 0x0c, 0x47, 0xbe,
  0x4c, 0x6c, 0x95, 0xbd, 0x7f, 0x49, 0xcf, 0x3d, 0x61, 0xcf, 0x38, 0x3b,
  0x47, 0x6e, 0x75, 0xbc, 0xec, 0x69, 0xce, 0xbd, 0xad, 0x5a, 0x41, 0x3e,
  0x22, 0xbe, 0xff, 0x3d, 0xf3, 0x65, 0x3f, 0x3d, 0xd6, 0xd6, 0xae, 0xbc,
  0x21, 0x6b, 0xad, 0x3c, 0x12, 0xe3, 0xab, 0x3d, 0x9b, 0x6a, 0xfa, 0xbd,
  0xb0, 0xf6, 0xe6, 0x3c, 0x7c, 0x03, 0xc1, 0xbd, 0x87, 0x31, 0x7d, 0xbd,
  0x39, 0xee, 0xe5, 0xbb, 0x6a, 0x21, 0x85, 0xbe, 0xb8, 0x18, 0xc2, 0xbd,
  0x9c, 0x51, 0x6c, 0x3c, 0x9f, 0x71, 0x10, 0xbe, 0x79, 0x88, 0x5f, 0xbd,
  0xb7, 0x91, 0x16, 0xbd, 0x89, 0x6f, 0x96, 0x3d, 0x53, 0x18, 0xce, 0x3c,
  0x08, 0x8b, 0x67, 0xbc, 0xf0, 0x67, 0x91, 0x3d, 0xa0, 0x29, 0x62, 0xbb,
  0x4c, 0x1a, 0x2d, 0xbe, 0x61, 0x7f, 0x80, 0xbc, 0x16, 0xe4, 0xc9, 0xbc,
  0xb5, 0x2a, 0xd9, 0xbc, 0x3d, 0x80, 0x18, 0x3e, 0x2b, 0x7a, 0xb4, 0xbd,
  0x35, 0x63, 0x61, 0x3d, 0xb9, 0x73, 0x9a, 0x3d, 0xae, 0x7f, 0xec, 0x3d,
  0x8f, 0xd6, 0x5c, 0xbe, 0x60, 0x37, 0x53, 0xbd, 0x05, 0x29, 0x02, 0x3e,
  0xd1, 0x2f, 0x62, 0x3d, 0x9e, 0x91, 0xb0, 0x3c, 0xe7, 0x6a, 0x80, 0xbd,
  0x5d, 0x43, 0x16, 0x3d, 0xbd, 0xfa, 0x93, 0xbd, 0x41, 0x30, 0xde, 0x3d,
  0x21, 0x58, 0xd4, 0x3d, 0x44, 0xd0, 0xc4, 0x3d, 0xa5, 0xd8, 0xb6, 0xbd,
  0x07, 0x7d, 0xf6, 0xbc, 0x45, 0x16, 0xdf, 0x3d, 0xb0, 0xdf, 0x56, 0xbd,
  0x7d, 0x9e, 0x29, 0xbe, 0x83, 0x88, 0x2d, 0xbd, 0xff, 0x42, 0x1f, 0x3e,
  0xcb, 0x3b, 0x1e, 0xbd, 0xdb, 0x18, 0xba, 0xbd, 0x69, 0xc4, 0xb0, 0xbd,
  0xa8, 0x3d, 0x74, 0xbd, 0xbd, 0x65, 0x83, 0xbd, 0x78, 0x57, 0xf1, 0xbd,
  0xcb, 0xe8, 0x76, 0xbd, 0xcc, 0xec, 0x0c, 0x3e, 0x54, 0xc4, 0x1a, 0xbd,
  0xc4, 0xf3, 0x9e, 0xbc, 0x29, 0xe4, 0x3c, 0xbe, 0x9c, 0x42, 0x04, 0xbd,
  0x85, 0x82, 0xd3, 0xbd, 0x05, 0xaa, 0x9c, 0x3d, 0x28, 0x83, 0x14, 0x3d,
  0xdd, 0x30, 0x95, 0x3d, 0x2a, 0x2a, 0x52, 0xbd, 0x39, 0xb4, 0x51, 0x3c,
  0x65, 0xda, 0x6b, 0xbd, 0xac, 0x38, 0x74, 0xbe, 0x78, 0xc6, 0xc0, 0x3d,
  0x49, 0x85, 0x70, 0xbe, 0x85, 0xe0, 0x04, 0x3d, 0x3a, 0x85, 0x41, 0xbd,
  0xb8, 0xcd, 0xc0, 0xbd, 0x99, 0x53, 0x10, 0xbe, 0x34, 0x85, 0x31, 0xbc,
  0x3a, 0x2c, 0xb8, 0xbb, 0x41, 0x8c, 0x71, 0xbd, 0x35, 0x8b, 0x32, 0xbe,
  0x8f, 0x3f, 0x86, 0x3c, 0xe9, 0x39, 0xd3, 0xba, 0x94, 0x0b, 0xb2, 0xbd,
  0x07, 0xfa, 0xcc, 0xbd, 0xdd, 0x46, 0x19, 0x3d, 0x03, 0x5f, 0xb6, 0xbd,
  0x48, 0xf4, 0x50, 0x3d, 0xf9, 0x7d, 0x2f, 0xbe, 0xca, 0xb9, 0x21, 0x3d,
  0x36, 0x0e, 0xa1, 0x3c, 0xb9, 0xc7, 0x6b, 0xbc, 0x69, 0xff, 0xcf, 0xbc,
  0x3c, 0xf4, 0x5c, 0xbe, 0x4c, 0xf0, 0x72, 0xbb, 0xbc, 0x94, 0x91, 0x3d,
  0x6d, 0x1d, 0xda, 0x3d, 0xf3, 0xd9, 0x72, 0xbe, 0x75, 0x3b, 0xcd, 0x3b,
  0x89, 0xcc, 0xc5, 0xbb, 0x1d, 0x5e, 0x28, 0xbd, 0x37, 0x74, 0x2e, 0x3d,
  0xdf, 0x5e, 0x35, 0xbd, 0x6f, 0x17, 0x6f, 0xbd, 0x94, 0x05, 0xff, 0xbd,
  0x43, 0x86, 0x35, 0xbe, 0xf2, 0x80, 0x16, 0x3d, 0xb2, 0x97, 0x9f, 0xbd,
  0x9c, 0x96, 0xc4, 0xbd, 0xdb, 0x0b, 0x78, 0xbe, 0x02, 0x8c, 0xe9, 0xbc,
  0x89, 0x2f, 0xff, 0x3c, 0xee, 0x0a, 0xf4, 0x3d, 0x06, 0x39, 0xee, 0xbd,
  0xe0, 0xc6, 0xef, 0xbd, 0x30, 0x87, 0x09, 0xbe, 0x23, 0x3c, 0x60, 0xbd,
  0x47, 0xe3, 0x8c, 0x3d, 0xa6, 0xd5, 0x5f, 0xbd, 0xe8, 0x57, 0x0a, 0x3d,
  0x9f, 0x97, 0xc4, 0xbc, 0xd4, 0x57, 0xac, 0xbd, 0x71, 0x89, 0x2a, 0xbe,
  0xc9, 0xad, 0x83, 0xbd, 0x8e, 0xfd, 0x08, 0xbe, 0x38, 0x18, 0x7c, 0xbe,
  0xb8, 0xfc, 0xc4, 0x3d, 0x9b, 0x26, 0x09, 0x3c, 0x06, 0xfe, 0x91, 0x3d,
  0x81, 0x21, 0x70, 0xbd, 0x2e, 0xba, 0x74, 0xbd, 0xe2, 0xd2, 0x9f, 0x3d,
  0x2d, 0x61, 0xfc, 0xbd, 0x8c, 0xa0, 0x4d, 0xbc, 0x58, 0xe0, 0x61, 0xbe,
  0x74, 0xed, 0xc5, 0x3c, 0x3c, 0xa0, 0x90, 0xbe, 0x9a, 0xff, 0x07, 0x3c,
  0x5a, 0xa4, 0x03, 0xbe, 0x8a, 0x76, 0x87, 0xbd, 0x61, 0xc2, 0xb5, 0xbc,
  0x5b, 0x83, 0xb0, 0xbc, 0x29, 0xc8, 0xdc, 0xbd, 0x4e, 0x5c, 0x26, 0x3d,
  0x78, 0xd3, 0x3a, 0xbe, 0x9e, 0x7e, 0x38, 0xbe, 0x38, 0x04, 0xb0, 0xbd,
  0xbe, 0x90, 0x41, 0x3e, 0xd3, 0x46, 0x07, 0xbe, 0xc4, 0xe3, 0xbc, 0x3c,
  0xda, 0x5f, 0x74, 0xbe, 0xe7, 0x5f, 0x0c, 0xbe, 0xd6, 0x79, 0x62, 0xbe,
  0xc0, 0xd3, 0x9f, 0x3d, 0xb5, 0x46, 0x73, 0xbd, 0x68, 0x35, 0xd1, 0xbd,
  0xb8, 0xd7, 0x07, 0xbd, 0x7e, 0xfe, 0xfe, 0xbd, 0xb9, 0x1c, 0x06, 0xbd,
  0x48, 0x1f, 0x44, 0xbd, 0xc1, 0x5e, 0x68, 0x3e, 0xe3, 0x84, 0x50, 0xbe,
  0x1f, 0x26, 0x1e, 0x3d, 0x67, 0x6e, 0x20, 0xbe, 0x21, 0xc5, 0x00, 0xbd,
  0xc4, 0xda, 0x81, 0xbd, 0xf5, 0x1f, 0x10, 0x3b, 0x0b, 0x7f, 0x2e, 0x3b,
  0x2c, 0x58, 0x70, 0xbe, 0x42, 0xef, 0xb3, 0x3c, 0xdb, 0xef, 0x75, 0x3b,
  0x0b, 0xdd, 0x3b, 0x3c, 0xbb, 0xba, 0x86, 0x3a, 0xfe, 0x6f, 0xe6, 0x3c,
  0x72, 0x19, 0x29, 0x3e, 0x56, 0x12, 0x26, 0xbd, 0x2f, 0x52, 0xb3, 0xbc,
  0xc6, 0x09, 0x8d, 0x3d, 0xe8, 0x19, 0x1a, 0xbe, 0x4e, 0xa3, 0x88, 0xbd,
  0xca, 0xa1, 0x18, 0x3c, 0xc5, 0xe4, 0x27, 0xbe, 0xe8, 0xc7, 0xf2, 0xbd,
  0xaf, 0xfa, 0xad, 0xbd, 0xf2, 0x58, 0x5f, 0xbe, 0xb7, 0x9e, 0x76, 0x3c,
  0xf7, 0xe5, 0x3c, 0xbe, 0x3c, 0x52, 0x40, 0x3d, 0x48, 0x62, 0xc0, 0xbd,
  0xbe, 0x70, 0x22, 0x3e, 0xa7, 0xb1, 0x54, 0x3d, 0xc8, 0x62, 0x24, 0xbe,
  0x12, 0x66, 0x74, 0xbd, 0x82, 0xaf, 0xcc, 0x3d, 0x8a, 0x3a, 0xa9, 0xbd,
  0x69, 0x9f, 0x13, 0xbe, 0x64, 0x28, 0x0a, 0xbe, 0x58, 0xbe, 0x2e, 0xbe,
  0x98, 0xe4, 0x8b, 0x3e, 0x87, 0xca, 0x45, 0xbe, 0x1d, 0x75, 0x51, 0x3d,
  0x31, 0x78, 0xe5, 0xbd, 0x23, 0xb9, 0x05, 0xbc, 0xa3, 0x58, 0xeb, 0x3b,
  0x7b, 0xbd, 0x41, 0xbe, 0xe2, 0x7f, 0xff, 0xbb, 0x13, 0x7b, 0xee, 0x3c,
  0xa8, 0xda, 0xaa, 0x3c, 0xbc, 0x6d, 0x62, 0xbe, 0xe4, 0xc3, 0x66, 0x3e,
  0x3d, 0x5f, 0xac, 0xbc, 0x93, 0x20, 0x18, 0x3e, 0xe8, 0x14, 0xff, 0xb9,
  0x35, 0xed, 0x9c, 0x3d, 0x53, 0x7e, 0x2b, 0x3e, 0xe6, 0xe1, 0x79, 0xbd,
  0x93, 0xfc, 0xfe, 0xbc, 0x3c, 0xc3, 0x9b, 0x3b, 0x42, 0xeb, 0x5f, 0xbe,
  0x40, 0xa8, 0x04, 0xbe, 0x72, 0xb7, 0x8f, 0x3d, 0xaf, 0xc2, 0x8f, 0x3d,
  0xce, 0x7d, 0x0a, 0xbe, 0x78, 0x2f, 0x93, 0xbd, 0xb4, 0xce, 0x2d, 0xbe,
  0xc7, 0xbd, 0xed, 0xbc, 0x60, 0xfc, 0x85, 0x3c, 0xd8, 0x68, 0x2d, 0x3d,
  0x87, 0xc1, 0xad, 0xbe, 0xf4, 0x6d, 0x9c, 0xbd, 0x39, 0x86, 0xd1, 0xbd,
  0xa5, 0xd2, 0x28, 0x3e, 0x5c, 0x23, 0x96, 0x3c, 0x0f, 0xaf, 0xc9, 0xbd,
  0x8a, 0xff, 0x47, 0xbe, 0x65, 0x7e, 0x49, 0x3d, 0x60, 0x1a, 0xf3, 0x3c,
  0x43, 0x0d, 0xb0, 0xbc, 0x81, 0xa4, 0x09, 0xbe, 0x5c, 0xa1, 0xf4, 0xbd,
  0x8b, 0x88, 0x18, 0xbe, 0x5a, 0xb5, 0x1f, 0xbe, 0xa3, 0xd5, 0x66, 0xbd,
  0x65, 0xeb, 0xd2, 0x3d, 0xfc, 0x80, 0x47, 0xbe, 0xbf, 0x32, 0xb4, 0xbd,
  0xca, 0x95, 0x02, 0xbe, 0xc4, 0x76, 0xa9, 0xbd, 0xf4, 0x08, 0x02, 0xbe,
  0x79, 0xce, 0x44, 0xbe, 0x0d, 0x5f, 0xcd, 0xbd, 0xcb, 0x18, 0xc3, 0x3b,
  0xb4, 0xcb, 0x02, 0x3e, 0x21, 0x9c, 0xdb, 0xbd, 0x7c, 0x78, 0x4e, 0xbe,
  0xd5, 0xff, 0x3b, 0xbd, 0x8a, 0x8c, 0x53, 0x3d, 0x0b, 0x3f, 0xff, 0x3c,
  0xf5, 0x0a, 0x8c, 0xbc, 0xbb, 0x84, 0x5e, 0xbd, 0x2f, 0xa2, 0xbe, 0x3c,
  0x34, 0x6c, 0xef, 0xbd, 0x96, 0x74, 0x82, 0xbe, 0xf0, 0x38, 0x71, 0x3d,
  0xec, 0x0a, 0xb9, 0xbd, 0x88, 0x14, 0x8a, 0xbe, 0x4e, 0xd5, 0x91, 0x3d,
  0xb3, 0xb5, 0x9b, 0x3d, 0x63, 0x81, 0x1f, 0xbe, 0x50, 0x5b, 0x41, 0xbe,
  0x84, 0xbf, 0x94, 0xbd, 0x2c, 0xaf, 0x99, 0xbd, 0xb0, 0x3a, 0x9d, 0x3d,
  0x5a, 0x0d, 0xdb, 0x3c, 0x59, 0x3e, 0x1e, 0xbd, 0x0c, 0xfb, 0xda, 0xbc,
  0xf4, 0xd8, 0x36, 0x3e, 0x86, 0xcd, 0x4f, 0xbe, 0x43, 0x1c, 0x6e, 0xbe,
  0x5f, 0xd1, 0x92, 0x3d, 0x33, 0x9f, 0x59, 0xbe, 0xdf, 0xf0, 0xbc, 0xbd,
  0x68, 0x2c, 0x86, 0xbe, 0xa4, 0xaf, 0xb9, 0xbd, 0x81, 0xc3, 0x1e, 0xbe,
  0x2f, 0x1e, 0x09, 0xbe, 0x58, 0x2f, 0xd3, 0xbd, 0xb2, 0xd6, 0xd9, 0xbd,
  0x11, 0xdc, 0x9b, 0x3d, 0xa0, 0xcc, 0x12, 0x3d, 0xa9, 0x60, 0xac, 0xbd,
  0x67, 0x4c, 0xe3, 0xbd, 0x5d, 0xe6, 0x74, 0x3b, 0x58, 0x73, 0x0a, 0xbe,
  0x81, 0x21, 0xe0, 0xbd, 0x0d, 0x7c, 0x55, 0x3d, 0x64, 0x70, 0x36, 0xbe,
  0x7c, 0xa6, 0x00, 0xbe, 0x94, 0x24, 0x5a, 0xbe, 0x16, 0x6a, 0x3d, 0xbe,
  0xc1, 0x26, 0xea, 0x3c, 0x9c, 0x5d, 0x08, 0xbd, 0x9d, 0xbc, 0xb6, 0x3c,
  0xb8, 0xbe, 0x81, 0xbe, 0xe3, 0x53, 0x45, 0xbd, 0x72, 0x2c, 0x5f, 0x3d,
  0xbc, 0x76, 0x36, 0xbe, 0x4d, 0x6e, 0xb9, 0xbd, 0xa0, 0xfa, 0xc9, 0x3d,
  0x31, 0x06, 0x75, 0xbd, 0xb0, 0x23, 0x85, 0xbe, 0x3b, 0xd2, 0xdf, 0x3c,
  0xe7, 0x6d, 0x5b, 0xbe, 0x3e, 0x4f, 0x7e, 0xbe, 0xd3, 0xa3, 0xe9, 0x3d,
  0x9d, 0x38, 0xd7, 0xbd, 0x3e, 0xf7, 0x49, 0x3e, 0x63, 0x53, 0x73, 0x3b,
  0xb4, 0x8b, 0xbb, 0x3d, 0x55, 0x0d, 0x85, 0xbe, 0x1b, 0x4b, 0x18, 0xbe,
  0x5b, 0x81, 0xec, 0x3d, 0xe4, 0xe5, 0x18, 0x3d, 0x63, 0xe7, 0xca, 0x3d,
  0xa5, 0x05, 0x08, 0xbe, 0xd2, 0x15, 0x40, 0xbe, 0x0b, 0x77, 0x2f, 0xbd,
  0x65, 0xad, 0x18, 0x3e, 0xd2, 0xf4, 0x02, 0xbe, 0x50, 0xa0, 0x87, 0x3d,
  0x3f, 0x2b, 0x9e, 0x3e, 0xc5, 0x3f, 0x5f, 0x3d, 0x50, 0x14, 0x27, 0x3d,
  0x33, 0x05, 0xdd, 0xbc, 0x05, 0x31, 0x76, 0x3e, 0xa0, 0x63, 0xdd, 0xbd,
  0x41, 0x25, 0x6f, 0x3e, 0x87, 0xbc, 0xad, 0xbd, 0x7f, 0xeb, 0x23, 0xbe,
  0xc2, 0xaa, 0x0c, 0x3e, 0x86, 0x8f, 0x54, 0xbe, 0xeb, 0xd7, 0x7f, 0xbd,
  0xda, 0x62, 0x2a, 0x3c, 0xb3, 0x1c, 0x13, 0xbe, 0x81, 0x1a, 0x21, 0x3e,
  0x1a, 0x0a, 0xd0, 0xbd, 0xbb, 0xa7, 0x10, 0x3e, 0xe3, 0xa9, 0x1f, 0xbe,
  0xfc, 0xde, 0x84, 0x3c, 0xa2, 0x9e, 0x44, 0x3a, 0x2d, 0xe6, 0x60, 0x3e,
  0x4a, 0x24, 0xa1, 0x3d, 0xa9, 0x7e, 0x87, 0xbc, 0xf9, 0x87, 0x05, 0xbd,
  0x27, 0x5f, 0xf9, 0xbd, 0xd0, 0x43, 0x29, 0x3b, 0x5b, 0x98, 0x64, 0x3e,
  0x25, 0xca, 0x22, 0xbd, 0x4c, 0xa3, 0x24, 0x3d, 0x4d, 0x1d, 0x8d, 0xbd,
  0x72, 0xc4, 0x21, 0x3e, 0x4c, 0xe5, 0x1f, 0x3e, 0x24, 0xd1, 0x8c, 0x3e,
  0xfb, 0xdf, 0x2b, 0x3e, 0x81, 0x8c, 0x9c, 0xbd, 0xfa, 0xe8, 0xe6, 0xbb,
  0xcb, 0x82, 0x4c, 0x3e, 0x4f, 0x06, 0xa7, 0x3d, 0x03, 0x44, 0x99, 0xbd,
  0xc1, 0x27, 0xb9, 0x3c, 0x6b, 0x3e, 0x5e, 0x3d, 0x06, 0xc9, 0x63, 0x3c,
  0xdf, 0x5a, 0x63, 0x3e, 0xb0, 0xd2, 0x83, 0xbd, 0xd7, 0x85, 0x28, 0x3c,
  0x76, 0xe5, 0xed, 0xbd, 0xc6, 0xe9, 0x3f, 0x3e, 0x81, 0xae, 0xa5, 0xbd,
  0x07, 0x34, 0x53, 0x3e, 0xff, 0x2c, 0x9e, 0x3d, 0x3d, 0x0f, 0xe1, 0xbd,
  0xbb, 0x1e, 0x35, 0xbe, 0x3e, 0xca, 0xd6, 0x3d, 0x30, 0xb9, 0x25, 0x3e,
  0xad, 0x31, 0x51, 0xbd, 0x78, 0x9f, 0x33, 0x3e, 0x70, 0xdd, 0xf9, 0x3d,
  0x4d, 0x55, 0xef, 0x3c, 0xae, 0x9f, 0x94, 0x3e, 0xef, 0x65, 0xfd, 0x3c,
  0x19, 0x48, 0x6d, 0x3c, 0x75, 0x17, 0xc2, 0x3c, 0x86, 0xae, 0x0b, 0x3e,
  0xc4, 0x0d, 0x1f, 0xbb, 0xa0, 0x81, 0x39, 0x3e, 0x82, 0x25, 0x99, 0x3a,
  0x80, 0xfe, 0x27, 0xbd, 0x65, 0x4f, 0x57, 0xbe, 0x98, 0xed, 0xb1, 0x3c,
  0xfb, 0x2f, 0x0f, 0xbd, 0x6d, 0x1a, 0x05, 0x3d, 0x42, 0xfd, 0xb3, 0xbd,
  0x73, 0x4a, 0xc6, 0x3c, 0x48, 0x67, 0x1a, 0x3c, 0x8e, 0xc5, 0x24, 0x3e,
  0x47, 0x27, 0x52, 0xbd, 0xe9, 0xc5, 0xc5, 0xbd, 0xff, 0xcd, 0xc8, 0xbc,
  0x37, 0xdd, 0x41, 0x3e, 0xa8, 0x6d, 0xe4, 0x3c, 0xa1, 0xc3, 0x3e, 0x3e,
  0xdd, 0x38, 0x89, 0x3d, 0x61, 0xb9, 0x56, 0xbd, 0x7a, 0x56, 0x29, 0xbe,
  0xff, 0x8c, 0x4d, 0x3e, 0xf8, 0xdb, 0x6c, 0x3e, 0xe5, 0x7d, 0xf8, 0x3d,
  0x47, 0xb2, 0x30, 0xbe, 0x04, 0x0f, 0x30, 0x3e, 0x6f, 0x37, 0xec, 0xbc,
  0x72, 0xc9, 0x1f, 0x3e, 0x54, 0x16, 0x0a, 0x3e, 0xba, 0xc5, 0x31, 0xbd,
  0xc7, 0x47, 0xc8, 0x3d, 0x93, 0xf4, 0x65, 0xbc, 0xe2, 0xad, 0x0e, 0x3d,
  0x4a, 0xdc, 0xc5, 0xbb, 0xa7, 0x8f, 0x83, 0x3c, 0x65, 0x6d, 0x13, 0xbd,
  0xf3, 0x28, 0x79, 0xbd, 0xbb, 0xa0, 0xde, 0x3c, 0xa6, 0xed, 0xc2, 0x3d,
  0x9c, 0x25, 0xcf, 0x3b, 0x54, 0xeb, 0x36, 0xbd, 0xe7, 0xcd, 0x1b, 0x3e,
  0xec, 0xb4, 0x61, 0x3d, 0x46, 0x88, 0xab, 0x3d, 0xca, 0x95, 0x81, 0x3d,
  0x1a, 0xc2, 0xf6, 0xbd, 0x95, 0x24, 0xba, 0xbd, 0x6e, 0x2c, 0x5d, 0xbe,
  0x88, 0xa7, 0x80, 0x3d, 0x7f, 0x59, 0x00, 0xbe, 0xda, 0xa1, 0x3c, 0xbe,
  0x13, 0xc9, 0x16, 0xbe, 0x94, 0x68, 0xc3, 0x3c, 0x88, 0x86, 0xfa, 0x3c,
  0xe0, 0x38, 0x28, 0x3d, 0x50, 0x12, 0x6d, 0x3c, 0xfc, 0x9e, 0x07, 0xbe,
  0x95, 0x6c, 0xbc, 0x3c, 0xd5, 0x36, 0x85, 0x3d, 0xf1, 0x67, 0x12, 0xbd,
  0x20, 0x69, 0x8d, 0xbd, 0x67, 0xb0, 0xed, 0xbd, 0x7e, 0xc6, 0xbc, 0xbc,
  0x1e, 0x44, 0x70, 0xbe, 0x20, 0x80, 0xd7, 0x3d, 0x4c, 0xc1, 0x01, 0xbd,
  0xf6, 0x5a, 0x61, 0x3d, 0xd7, 0xfb, 0xff, 0xbd, 0x9b, 0xb5, 0x9c, 0xbd,
  0x9d, 0x80, 0x70, 0x3e, 0xbf, 0x46, 0xed, 0xbc, 0x75, 0xd8, 0x29, 0xbd,
  0xac, 0x1d, 0x94, 0x3e, 0xcd, 0x4c, 0x1a, 0xbe, 0x4e, 0x3c, 0x0d, 0xbe,
  0x2c, 0x0f, 0xf9, 0xbc, 0x43, 0xab, 0x90, 0xbe, 0x53, 0x24, 0x5b, 0x3e,
  0x7f, 0xfa, 0x84, 0xbe, 0x98, 0x1f, 0x8a, 0xbd, 0x56, 0xf7, 0x24, 0xbd,
  0x08, 0x8d, 0x4d, 0xbc, 0x60, 0x68, 0xd2, 0x3c, 0x2d, 0x00, 0xef, 0xbd,
  0x01, 0xc1, 0x45, 0xbe, 0x07, 0x8d, 0xa3, 0xbd, 0x72, 0x8e, 0x17, 0xbe,
  0x38, 0x91, 0x91, 0xbd, 0xf3, 0xcc, 0x59, 0x3e, 0x5d, 0x8d, 0xd2, 0xbd,
  0xc3, 0xd9, 0x05, 0xbd, 0x87, 0x88, 0xf0, 0x3b, 0x6a, 0xc3, 0x13, 0xbe,
  0xfa, 0x81, 0x9e, 0x3e, 0x26, 0xbd, 0xf2, 0xbd, 0x8f, 0x73, 0x11, 0x3e,
  0x73, 0x8f, 0x09, 0xbc, 0x59, 0xd2, 0x1c, 0xbe, 0xf2, 0x28, 0x18, 0xbd,
  0xec, 0x39, 0x66, 0xbd, 0xc1, 0x8c, 0xd8, 0xbd, 0x55, 0xf1, 0x25, 0xbe,
  0xd9, 0xe8, 0x1b, 0x3d, 0x21, 0x0e, 0x1a, 0x3d, 0xe0, 0x62, 0x17, 0x3d,
  0xc0, 0x73, 0x1b, 0x3d, 0x9b, 0x27, 0x53, 0xbd, 0xe4, 0x7f, 0xc0, 0xbd,
  0x36, 0xde, 0xc4, 0x3d, 0x8d, 0xe5, 0x3a, 0x3e, 0x81, 0x67, 0xf9, 0xbd,
  0x9f, 0x32, 0x5a, 0x3d, 0x1d, 0x1a, 0x9c, 0xbb, 0x2f, 0x42, 0xf5, 0xbd,
  0x23, 0x62, 0x98, 0xbd, 0xd7, 0x1f, 0x02, 0x3e, 0xb7, 0x7f, 0x66, 0xbe,
  0xd9, 0xcc, 0x6c, 0xbe, 0x65, 0x7a, 0xd0, 0x3d, 0xf7, 0x1d, 0x5a, 0xbe,
  0x6b, 0x44, 0xab, 0x3b, 0xee, 0x1d, 0xa4, 0xbd, 0x33, 0x3f, 0x70, 0x3e,
  0xda, 0xef, 0x1d, 0xbe, 0x66, 0xeb, 0xaa, 0xbd, 0xa7, 0xd8, 0x65, 0xbd,
  0x37, 0x25, 0x83, 0xbd, 0x04, 0x5f, 0x0d, 0x3c, 0xeb, 0x12, 0x65, 0x3d,
  0x2b, 0x9d, 0x4e, 0x3d, 0x5d, 0x2d, 0x8d, 0xbd, 0x98, 0x33, 0x29, 0xbc,
  0x65, 0xa8, 0x9f, 0xbd, 0x86, 0xdb, 0x9c, 0x3d, 0x04, 0x58, 0x27, 0x3e,
  0xde, 0xc5, 0x35, 0x3c, 0x33, 0x91, 0x86, 0xbd, 0x21, 0x1b, 0x42, 0xbd,
  0xb1, 0x9d, 0x41, 0x3e, 0x3b, 0x8b, 0xab, 0xbd, 0x01, 0xa0, 0xa6, 0x3d,
  0x3c, 0x30, 0x62, 0xbd, 0x6d, 0x37, 0xec, 0xbd, 0xd7, 0x11, 0x81, 0x3d,
  0xb4, 0x34, 0x20, 0xbe, 0x8f, 0x09, 0x66, 0xbd, 0x68, 0x8e, 0xe7, 0xbb,
  0xa4, 0xa1, 0x08, 0x3e, 0xe2, 0xd4, 0xa0, 0xbe, 0x98, 0x5e, 0x70, 0x3d,
  0xfb, 0xb6, 0x5b, 0x3c, 0x3c, 0xe1, 0xb3, 0xbd, 0xe1, 0x8f, 0xf6, 0x3d,
  0x1f, 0xf4, 0x6e, 0x3d, 0xfa, 0x03, 0x12, 0x3d, 0x8b, 0xbe, 0x00, 0xbe,
  0x3f, 0x56, 0x2d, 0xbd, 0x8a, 0x92, 0xca, 0xbd, 0x5d, 0xdb, 0xe4, 0xbd,
  0x7e, 0xea, 0x14, 0x3e, 0x2d, 0x0f, 0xd0, 0xbd, 0x33, 0x29, 0x19, 0x3e,
  0xe1, 0x01, 0x2b, 0xbe, 0x98, 0xba, 0x9c, 0x3d, 0xdf, 0xe0, 0x8a, 0xbd,
  0x54, 0x24, 0x92, 0x3d, 0x5f, 0x1c, 0xec, 0x3d, 0xa1, 0x26, 0x43, 0xbc,
  0xfb, 0x0e, 0x1a, 0xbd, 0x89, 0x86, 0x67, 0x3d, 0xcb, 0x10, 0x28, 0x3d,
  0x57, 0xe8, 0x97, 0x3b, 0x1c, 0x67, 0xf6, 0x3b, 0x9a, 0x0e, 0x88, 0xbd,
  0x07, 0x85, 0x1b, 0xbe, 0xb2, 0xd8, 0xb0, 0x3d, 0x9a, 0xaf, 0x60, 0xbe,
  0x9f, 0x0d, 0xb3, 0x3d, 0x46, 0x7e, 0xec, 0x3b, 0x4b, 0x57, 0x31, 0xbe,
  0x13, 0x4f, 0x33, 0xbe, 0x96, 0x00, 0x00, 0xbe, 0xbb, 0x96, 0x5d, 0x3e,
  0xa2, 0x53, 0x25, 0x3e, 0x27, 0x98, 0x7a, 0xbd, 0x83, 0x11, 0x2c, 0xbc,
  0x90, 0x03, 0xfa, 0x3d, 0x85, 0xae, 0x01, 0x3d, 0x14, 0x13, 0x03, 0xbd,
  0xcb, 0x6a, 0x22, 0xbd, 0xd7, 0xdc, 0x1f, 0xbe, 0x98, 0xf8, 0x8a, 0x3d,
  0x05, 0x22, 0x36, 0xbe, 0xb8, 0xf7, 0x85, 0x3d, 0xfe, 0xfc, 0x8c, 0x3b,
  0x01, 0x9f, 0x4c, 0x3c, 0x3c, 0x25, 0x85, 0xbe, 0xeb, 0xeb, 0x53, 0x3d,
  0xe4, 0x91, 0xa7, 0xbd, 0xaf, 0x10, 0xdf, 0x3d, 0xba, 0x68, 0x56, 0xbb,
  0x75, 0x3e, 0xbf, 0x3d, 0xe1, 0xd4, 0x5e, 0x3d, 0x7f, 0x19, 0xe4, 0x3d,
  0xd9, 0x58, 0xd9, 0x3d, 0x1d, 0x95, 0x04, 0xbd, 0x7a, 0x0d, 0x1c, 0xbc,
  0x5c, 0xa7, 0x7c, 0x3d, 0xf4, 0xca, 0x68, 0xbe, 0x28, 0xc4, 0xc1, 0x3c,
  0xac, 0xe4, 0x26, 0xbe, 0x86, 0xe4, 0x53, 0xbd, 0xf6, 0xae, 0x1b, 0xbe,
  0x84, 0x54, 0xad, 0x3d, 0xf5, 0x77, 0xd0, 0x3d, 0x1e, 0x01, 0x52, 0xbe,
  0xd6, 0xcc, 0x83, 0x3d, 0xb3, 0x34, 0x84, 0x3d, 0xec, 0xef, 0x83, 0x3e,
  0xb9, 0x75, 0xe6, 0xbd, 0x17, 0xa1, 0x40, 0xbd, 0x79, 0x70, 0xdc, 0xbd,
  0xf0, 0xea, 0xbd, 0xbd, 0xdc, 0x64, 0x07, 0x3d, 0x0b, 0xb5, 0x9b, 0x3c,
  0x2e, 0xfd, 0x81, 0xbd, 0x8a, 0x4b, 0xa3, 0xbd, 0x5c, 0x54, 0x3b, 0x3e,
  0x0c, 0x00, 0x81, 0xbe, 0xc7, 0x0a, 0x64, 0xbe, 0xf7, 0x6e, 0xb9, 0xbc,
  0x9d, 0x3d, 0x2a, 0xbe, 0x03, 0xba, 0xf6, 0xbd, 0x44, 0x0c, 0x85, 0xbd,
  0xc0, 0x81, 0x8b, 0x3d, 0xe9, 0xe7, 0x06, 0x3e, 0xdd, 0x2c, 0xaa, 0x3c,
  0xcc, 0x51, 0xdd, 0xbd, 0xd7, 0xe6, 0x21, 0xbe, 0xa6, 0x64, 0xc4, 0xbc,
  0x9f, 0xe7, 0xa2, 0xbd, 0x7e, 0x23, 0x17, 0xbe, 0x52, 0x51, 0x98, 0xbd,
  0xaf, 0x11, 0xe5, 0xbd, 0xc3, 0xc9, 0x33, 0xbc, 0xa2, 0xd8, 0xc1, 0xbd,
  0xd2, 0x25, 0xaf, 0xbc, 0x13, 0xd4, 0x90, 0xbd, 0x5c, 0xd5, 0x91, 0x3c,
  0x04, 0x62, 0x8a, 0xbc, 0x98, 0x82, 0x3c, 0x3e, 0x54, 0xa3, 0x6c, 0xbd,
  0xf5, 0x4f, 0x83, 0x3d, 0x4c, 0xac, 0x03, 0xbe, 0x7c, 0xb8, 0x40, 0xbe,
  0xbd, 0xd6, 0x9a, 0xbc, 0x01, 0x85, 0x88, 0xbc, 0xe2, 0x6e, 0xbc, 0xbb,
  0x54, 0xc3, 0x08, 0x3d, 0xda, 0x85, 0x59, 0xbc, 0xc8, 0xf0, 0xf4, 0xbd,
  0x46, 0x57, 0xa8, 0x3d, 0xe4, 0x31, 0xf1, 0x3a, 0xc0, 0xba, 0x43, 0x3e,
  0xe9, 0x46, 0xda, 0xbd, 0x10, 0xe8, 0x30, 0x3e, 0x50, 0x61, 0x13, 0x3e,
  0x52, 0x69, 0x05, 0xbc, 0xd2, 0xb3, 0xa6, 0xbc, 0x55, 0xd5, 0x06, 0xbe,
  0x72, 0x0f, 0x7f, 0xbd, 0x04, 0x7e, 0x65, 0xbd, 0x32, 0x0d, 0x28, 0x3d,
  0xb9, 0x2e, 0x98, 0xbe, 0xb7, 0xaf, 0xec, 0xbc, 0xad, 0xc8, 0x5e, 0x3b,
  0x8c, 0x10, 0xba, 0x3d, 0x9c, 0x40, 0xf8, 0x3d, 0xde, 0x7d, 0x81, 0x3c,
  0x57, 0x02, 0x46, 0x3c, 0x32, 0x08, 0xd9, 0xbd, 0x83, 0x31, 0xcd, 0x3d,
  0xfa, 0xe6, 0xfa, 0xbc, 0x75, 0xc7, 0xe0, 0x3d, 0xc3, 0xb4, 0xbb, 0xbc,
  0x20, 0x2f, 0x7e, 0xbe, 0xde, 0x18, 0x12, 0x3c, 0x4c, 0x43, 0xe7, 0xbe,
  0x99, 0xaa, 0x4e, 0xbd, 0x78, 0x93, 0x72, 0xbe, 0x2f, 0x5f, 0x13, 0x3b,
  0x8e, 0xc1, 0xfc, 0xbd, 0x7c, 0x8f, 0x57, 0x3d, 0xa8, 0xa8, 0xef, 0x3d,
  0xb6, 0xb8, 0xa5, 0xbe, 0x83, 0x3c, 0x46, 0xbd, 0x44, 0x32, 0xcc, 0x3d,
  0x75, 0x35, 0x63, 0xbd, 0x2e, 0x8a, 0xf2, 0x3d, 0xf1, 0x66, 0x8f, 0xbe,
  0x46, 0xbd, 0x8f, 0xbd, 0xea, 0x2c, 0x6e, 0x3e, 0xeb, 0xd7, 0x22, 0xbc,
  0xb0, 0xff, 0xd6, 0xbd, 0x20, 0x7b, 0x96, 0xbb, 0xc8, 0x3c, 0x3d, 0x3c,
  0xaf, 0x69, 0x55, 0xbb, 0xec, 0xd1, 0xf0, 0xbd, 0xed, 0x05, 0x30, 0x3d,
  0xe0, 0xad, 0x9e, 0x3d, 0xc6, 0xce, 0xe2, 0xbd, 0x6f, 0x77, 0x04, 0xbe,
  0xf5, 0xa7, 0x21, 0x3d, 0xee, 0x88, 0xb2, 0xbd, 0xcb, 0x94, 0x2c, 0x3e,
  0x7a, 0x5b, 0x98, 0xbe, 0x3b, 0xc7, 0xa1, 0x3d, 0x04, 0x8f, 0x97, 0x3e,
  0x77, 0x64, 0x3b, 0xbd, 0x5f, 0x66, 0xde, 0x3d, 0xef, 0x85, 0xb3, 0x3a,
  0x5d, 0xa4, 0x81, 0xbb, 0xcc, 0x44, 0x03, 0xbd, 0xc5, 0x24, 0x1e, 0xbe,
  0xb0, 0x82, 0xe3, 0xbb, 0xa8, 0x4e, 0x16, 0xbe, 0x14, 0x64, 0xbf, 0x3d,
  0x0c, 0x48, 0xc2, 0xbd, 0x29, 0x2f, 0x1c, 0x3d, 0x82, 0x70, 0xe6, 0x3d,
  0x01, 0x52, 0x07, 0x3e, 0x56, 0x58, 0x4a, 0xbe, 0x74, 0xb3, 0x42, 0x3d,
  0x39, 0x97, 0x2c, 0x3e, 0x5f, 0x0b, 0x0b, 0x3d, 0x14, 0x83, 0xb1, 0x3c,
  0xaa, 0x20, 0x2a, 0xbe, 0x76, 0x01, 0xfb, 0xbd, 0xb7, 0xd0, 0x7d, 0xbe,
  0xf7, 0x9a, 0x28, 0xbe, 0x41, 0x91, 0x02, 0xbd, 0xe9, 0x19, 0x61, 0xbe,
  0x2e, 0x1d, 0x12, 0x3c, 0x27, 0x58, 0x46, 0xbe, 0xaf, 0x46, 0xd0, 0xbd,
  0x0b, 0x47, 0x3b, 0x3e, 0xd8, 0xf9, 0x5c, 0x3e, 0xab, 0x08, 0xe2, 0xbd,
  0x9d, 0x4d, 0xf3, 0x3d, 0xcc, 0x1f, 0x91, 0xbd, 0x25, 0x04, 0x52, 0xbd,
  0x59, 0xe1, 0xf8, 0x3d, 0x3d, 0xa1, 0x8d, 0xbe, 0x7d, 0xb2, 0xa6, 0xbc,
  0x2f, 0x0e, 0x10, 0xbe, 0xb9, 0xfc, 0x2b, 0xbe, 0xd1, 0xc1, 0x72, 0xbc,
  0x4f, 0xdf, 0x78, 0xbe, 0xd5, 0x10, 0xd8, 0x3d, 0x65, 0x2c, 0xe6, 0x3d,
  0x1b, 0xb7, 0x05, 0xbd, 0xd4, 0xb9, 0x04, 0x3d, 0x4c, 0x63, 0x6f, 0x3e,
  0xf3, 0x2b, 0x99, 0xbe, 0xbc, 0x5e, 0x9d, 0x3d, 0x73, 0x5d, 0x22, 0xbe,
  0x2e, 0xd6, 0xc3, 0xbb, 0x2f, 0xd9, 0x0e, 0xbc, 0xb5, 0xc8, 0x97, 0xbe,
  0x92, 0xd5, 0x37, 0x3e, 0xfd, 0x92, 0x30, 0xbd, 0x7b, 0x9a, 0xc5, 0x3c,
  0x65, 0x9c, 0xa5, 0x3b, 0x3b, 0x96, 0x1a, 0x3e, 0x8d, 0xe0, 0x15, 0x3e,
  0x1e, 0x83, 0x2e, 0x3e, 0x52, 0x9e, 0x23, 0xbd, 0xf7, 0x64, 0x0a, 0xbb,
  0xf8, 0x20, 0xb3, 0x3d, 0x10, 0x6b, 0x13, 0xbe, 0x2c, 0x94, 0xa6, 0x3d,
  0x45, 0x1c, 0xcc, 0xbd, 0x9d, 0xee, 0x7a, 0x3c, 0xb5, 0x3b, 0xae, 0xbc,
  0xea, 0x90, 0x7b, 0xbe, 0x5a, 0x8d, 0x3b, 0xbe, 0xdb, 0xac, 0x77, 0xbe,
  0x57, 0x95, 0x18, 0x3a, 0x11, 0xdb, 0xa0, 0xbd, 0xf3, 0x45, 0xf2, 0x3d,
  0x2e, 0x28, 0x25, 0x3c, 0x00, 0xec, 0xa7, 0xbc, 0xce, 0x4f, 0x41, 0xbc,
  0x3f, 0x73, 0x7d, 0xbd, 0x97, 0x4c, 0x12, 0x3e, 0x19, 0x48, 0x1a, 0x3d,
  0x71, 0xa7, 0xc4, 0x3d, 0xc7, 0x72, 0x05, 0xbe, 0x46, 0x8e, 0x95, 0xbc,
  0x29, 0x29, 0xb9, 0xbd, 0x3d, 0xf2, 0x43, 0xbe, 0x1e, 0x4a, 0xcb, 0xbe,
  0x47, 0x9b, 0xcd, 0x3d, 0xe4, 0xe1, 0xf4, 0x3d, 0x86, 0xfd, 0x5f, 0xbc,
  0x11, 0xde, 0x85, 0x3c, 0x22, 0x6b, 0x02, 0xbd, 0xff, 0xa7, 0x4a, 0x3e,
  0xd3, 0x27, 0x00, 0x3d, 0xff, 0x00, 0x9f, 0xbd, 0x91, 0x9b, 0x81, 0xbd,
  0x7f, 0xb9, 0x82, 0x3d, 0x55, 0xc7, 0x99, 0x3d, 0x88, 0xda, 0x44, 0xbe,
  0x64, 0xa0, 0xe0, 0x3d, 0xde, 0x8a, 0x0d, 0x3d, 0xa8, 0xc3, 0x76, 0xbc,
  0x55, 0x1a, 0xd5, 0xbe, 0x9c, 0xb4, 0x86, 0x3c, 0x58, 0xfc, 0x30, 0xbd,
  0x32, 0xf7, 0x41, 0x3d, 0xb0, 0x0a, 0x41, 0xbd, 0xb8, 0x51, 0xd0, 0x3d,
  0x81, 0x66, 0xec, 0x3c, 0xcc, 0xf0, 0x7e, 0xbd, 0xd7, 0x33, 0xab, 0xbb,
  0x14, 0x74, 0x92, 0x3d, 0xb1, 0x23, 0x5c, 0xbe, 0xe7, 0x0e, 0xaf, 0x3d,
  0x62, 0x70, 0x04, 0xbe, 0x52, 0x47, 0x11, 0x3d, 0x3f, 0xe5, 0x76, 0xbe,
  0xf1, 0xad, 0xa2, 0xbc, 0x59, 0xdd, 0x30, 0xbe, 0x16, 0xa3, 0x9c, 0xbc,
  0x7b, 0xf0, 0xd8, 0x3d, 0x91, 0x31, 0x7d, 0x3c, 0xb0, 0xf6, 0x05, 0x3e,
  0x95, 0x95, 0x75, 0xbc, 0x83, 0xcf, 0x12, 0x3e, 0xb1, 0xc5, 0x96, 0x3c,
  0xb3, 0xe5, 0xb9, 0xbd, 0x58, 0xac, 0x1a, 0x3e, 0x87, 0x6a, 0xa1, 0xbd,
  0x4e, 0x13, 0xe6, 0x3c, 0x09, 0x66, 0x0d, 0xbe, 0xf4, 0x45, 0x13, 0x3d,
  0x4e, 0xce, 0x47, 0xbe, 0x2e, 0x25, 0x08, 0x3e, 0x61, 0x0e, 0x58, 0xbe,
  0x2f, 0x78, 0x01, 0xbe, 0x68, 0xf5, 0xbf, 0xbd, 0xfe, 0xaa, 0x78, 0x3d,
  0xbd, 0x4a, 0x42, 0x3e, 0xf4, 0xb0, 0x16, 0xbe, 0x0e, 0x0c, 0xe9, 0x3d,
  0xef, 0x92, 0x1b, 0xbd, 0xbb, 0x7b, 0x25, 0xbc, 0xeb, 0xce, 0x72, 0x3e,
  0x26, 0x76, 0x48, 0xbe, 0xd7, 0xb0, 0x94, 0x3c, 0x66, 0x80, 0x2f, 0xbd,
  0xa3, 0x62, 0xc1, 0xbc, 0xea, 0x99, 0x34, 0xbe, 0xd4, 0x74, 0x32, 0xbe,
  0xc7, 0x51, 0x9b, 0xbe, 0x41, 0xec, 0x13, 0x3d, 0x4e, 0x40, 0x92, 0xbe,
  0xaa, 0xa8, 0xbb, 0x3c, 0x98, 0xab, 0x9b, 0x3d, 0xce, 0x6d, 0x17, 0xbe,
  0x8a, 0xe1, 0x20, 0xbe, 0xfd, 0xac, 0x6a, 0xbc, 0xfd, 0x5a, 0x09, 0xbd,
  0xeb, 0x29, 0xa3, 0x3d, 0x77, 0xc8, 0x9f, 0xbe, 0x51, 0x1b, 0x98, 0xbd,
  0xc8, 0xbb, 0x4c, 0x3e, 0xe5, 0x9d, 0x4c, 0x3e, 0xb0, 0xfd, 0x2b, 0x3d,
  0x2b, 0x49, 0xc8, 0xbe, 0x90, 0xed, 0xee, 0xbd, 0x50, 0xce, 0xcc, 0xbd,
  0xbe, 0xde, 0x45, 0xbe, 0x70, 0xa6, 0x22, 0xbd, 0xfd, 0xaf, 0x7a, 0x3d,
  0x33, 0x69, 0x0e, 0xbd, 0x76, 0x66, 0x4a, 0xbd, 0x64, 0x79, 0x4d, 0xbd,
  0x62, 0x9f, 0x30, 0xbe, 0xdf, 0x2e, 0xec, 0x3e, 0x6e, 0x24, 0xe8, 0x3b,
  0x36, 0x87, 0x17, 0x3d, 0xe4, 0x36, 0x6d, 0x3e, 0x62, 0xcb, 0xf3, 0x3d,
  0x59, 0x85, 0x83, 0xbd, 0x8e, 0xf3, 0x36, 0xbe, 0xc6, 0x2a, 0x68, 0x3b,
  0x8d, 0x8d, 0x04, 0xbe, 0xa2, 0x70, 0xaa, 0xbd, 0x03, 0xe6, 0x8c, 0xbe,
  0xcb, 0x4f, 0x27, 0x3d, 0xc1, 0x2b, 0x48, 0xbe, 0x7c, 0x2e, 0xc5, 0x3d,
  0x11, 0x3e, 0xba, 0xbb, 0xa5, 0x06, 0x00, 0xbe, 0xd3, 0x05, 0xe6, 0x3d,
  0x92, 0x67, 0xc5, 0xbd, 0x7a, 0x8f, 0x6c, 0x3d, 0x32, 0x9a, 0xab, 0x3d,
  0x1e, 0x68, 0x3b, 0x3d, 0x55, 0x7f, 0x21, 0xbe, 0x3e, 0x36, 0xa3, 0xbd,
  0x3c, 0x34, 0xf4, 0xbd, 0x3e, 0x23, 0x1f, 0xbe, 0xb6, 0xef, 0xd7, 0x3b,
  0x65, 0x44, 0x86, 0xbe, 0x82, 0xbc, 0xf8, 0x3c, 0x21, 0x1f, 0xcd, 0xbc,
  0xa3, 0x68, 0xe6, 0x3b, 0x50, 0xc2, 0xb0, 0x3d, 0x69, 0x93, 0x03, 0x3e,
  0x49, 0xed, 0xc7, 0xbd, 0x99, 0x25, 0x80, 0x3d, 0xe9, 0x7b, 0x49, 0xbd,
  0x87, 0x3b, 0x80, 0xbb, 0x29, 0xf9, 0x8a, 0xbd, 0xb7, 0x32, 0x95, 0xbd,
  0xd6, 0x04, 0x00, 0x3e, 0x82, 0xbe, 0x24, 0x3d, 0xbf, 0xa2, 0x95, 0x3c,
  0xf3, 0x67, 0x86, 0x3d, 0x71, 0x72, 0xe4, 0xbd, 0xe1, 0x2f, 0x32, 0xbd,
  0xe0, 0x88, 0xb2, 0xbd, 0x00, 0x08, 0xae, 0xbd, 0x09, 0xb3, 0x06, 0x3e,
  0x9d, 0xb6, 0x4b, 0x3d, 0x8f, 0x22, 0x1d, 0xbd, 0x68, 0xdb, 0x35, 0xbd,
  0x7a, 0x5a, 0x12, 0x3d, 0xc2, 0xd1, 0xba, 0xbd, 0x90, 0xd1, 0xe7, 0x3d,
  0x94, 0x3c, 0x4e, 0xbe, 0x79, 0x4c, 0x03, 0xbe, 0xae, 0x3f, 0x72, 0xbb,
  0xdd, 0xeb, 0x17, 0xbe, 0x65, 0xcb, 0xd3, 0x3d, 0x71, 0x4b, 0x16, 0xbe,
  0x86, 0xe3, 0x44, 0x3c, 0x24, 0x06, 0x14, 0x3d, 0x58, 0xd9, 0x85, 0xbd,
  0x87, 0x84, 0x15, 0xbe, 0x91, 0xea, 0xd3, 0x3d, 0xd5, 0x4e, 0x8a, 0xbd,
  0xa1, 0x35, 0x13, 0x3d, 0x63, 0x7b, 0x0e, 0xbe, 0xc2, 0x60, 0x12, 0x3d,
  0x9c, 0xa1, 0x5c, 0x3d, 0x53, 0x4d, 0xf9, 0xbd, 0xc4, 0x96, 0x1d, 0xbe,
  0xce, 0x2f, 0xa0, 0x3d, 0x20, 0x57, 0xaa, 0xbd, 0x22, 0x21, 0x04, 0x3e,
  0xf5, 0xe3, 0x3c, 0x3c, 0x41, 0x04, 0x72, 0x3d, 0x23, 0x6f, 0xba, 0x3c,
  0xe9, 0x13, 0xdd, 0x3d, 0x30, 0x1b, 0xd1, 0xbc, 0xd2, 0x34, 0xdd, 0x3d,
  0xb4, 0x40, 0xed, 0x3c, 0xbe, 0xf6, 0x1e, 0xbe, 0x6a, 0x11, 0x1a, 0xbe,
  0x5e, 0xd9, 0x88, 0xbd, 0xb9, 0x51, 0xab, 0xbd, 0x19, 0x28, 0x22, 0xbe,
  0x60, 0x6a, 0x41, 0xbb, 0x5b, 0x7f, 0x23, 0x3b, 0xb9, 0xdd, 0x0d, 0x3e,
  0xc8, 0x64, 0xf5, 0xbd, 0xd8, 0x24, 0xb5, 0x3d, 0xdb, 0x96, 0x0d, 0xbe,
  0x4a, 0x19, 0x41, 0xbd, 0x5c, 0x37, 0xdc, 0x3d, 0xfa, 0x32, 0x4e, 0xbd,
  0x8f, 0xd6, 0x45, 0x3a, 0xad, 0x98, 0xdc, 0xbc, 0x84, 0x5d, 0x51, 0x3d,
  0x7d, 0x54, 0x02, 0xbe, 0x39, 0x86, 0xfe, 0xbd, 0xea, 0x42, 0xb6, 0x3d,
  0x68, 0xbd, 0xd1, 0xbd, 0xcf, 0x0b, 0x80, 0xbd, 0x44, 0x96, 0xbe, 0x3d,
  0xed, 0xe0, 0xa0, 0xbc, 0x4d, 0xe0, 0xa5, 0xbd, 0xeb, 0xf3, 0x46, 0xbe,
  0x7b, 0xc4, 0x4f, 0x3d, 0xd4, 0x38, 0x91, 0x3d, 0xe4, 0x3e, 0x6c, 0xbb,
  0x4c, 0xf3, 0x08, 0xbe, 0xa1, 0x97, 0x89, 0x3b, 0xc7, 0x35, 0xc2, 0xbc,
  0x2c, 0x0f, 0x15, 0x3e, 0x18, 0x87, 0x1a, 0xbe, 0xda, 0x26, 0xd0, 0xbd,
  0x62, 0x90, 0xcd, 0xbc, 0x2b, 0x79, 0x25, 0xbe, 0x76, 0xcd, 0xc7, 0x3b,
  0xeb, 0xec, 0x8b, 0x3d, 0x15, 0xc3, 0x25, 0xbe, 0x59, 0xdb, 0xb3, 0x3d,
  0x9d, 0xbf, 0x3e, 0xbe, 0x23, 0x98, 0xad, 0xbd, 0xd4, 0xe1, 0xae, 0xbd,
  0x39, 0x9a, 0x26, 0x3e, 0x10, 0x2d, 0x86, 0xbc, 0x2c, 0xaf, 0xd5, 0xbd,
  0xd1, 0x7e, 0xd2, 0xbd, 0xd6, 0xed, 0x12, 0xbd, 0xc6, 0xe5, 0xb9, 0xbc,
  0xbd, 0x92, 0x03, 0x3e, 0xd5, 0xcb, 0x71, 0xbb, 0xd4, 0xc4, 0x1d, 0xbd,
  0x3d, 0x4e, 0x15, 0xbd, 0xba, 0xea, 0x54, 0x3e, 0xfd, 0x5a, 0x5f, 0xbd,
  0xbc, 0xb4, 0x17, 0xbe, 0x4b, 0x4a, 0x1b, 0xbd, 0xa4, 0x5b, 0x9f, 0xbd,
  0xf6, 0xa0, 0x2f, 0xbd, 0x35, 0x98, 0x27, 0x3e, 0xb7, 0xc4, 0xd5, 0xbd,
  0x40, 0x40, 0xda, 0xbc, 0xad, 0x23, 0x07, 0x3d, 0xc2, 0xb1, 0x0b, 0x3e,
  0xb6, 0xf4, 0x93, 0x3c, 0x9c, 0x44, 0x27, 0xbd, 0x32, 0x40, 0x26, 0xbe,
  0xab, 0xd3, 0xb5, 0xbd, 0x1d, 0xa5, 0x00, 0xbe, 0x0c, 0x4a, 0x56, 0x3d,
  0x32, 0xd1, 0xaf, 0xbc, 0xcb, 0x0b, 0xc7, 0xbd, 0x70, 0x2b, 0x14, 0xbe,
  0x19, 0xd9, 0x19, 0x3d, 0xce, 0xd6, 0x31, 0xbe, 0x03, 0x16, 0xcc, 0xbd,
  0xae, 0x2e, 0x92, 0xbc, 0xb6, 0x18, 0xc9, 0xbd, 0xd3, 0x0e, 0x98, 0x3c,
  0x11, 0x1c, 0xad, 0xbd, 0xc5, 0xb1, 0x07, 0xbd, 0x41, 0xd5, 0xa5, 0x3d,
  0xee, 0x05, 0xf1, 0x3d, 0xad, 0x8c, 0x45, 0x3b, 0xe1, 0xad, 0x4c, 0xbd,
  0x54, 0xe0, 0xa7, 0x3d, 0x48, 0x28, 0x6f, 0xbb, 0xe4, 0xa9, 0x16, 0x3d,
  0x82, 0x2e, 0x0d, 0xbd, 0xfa, 0x83, 0xae, 0x3d, 0x71, 0x65, 0x22, 0xbe,
  0x01, 0xf4, 0xc0, 0xbd, 0xe5, 0x1e, 0x14, 0x3e, 0xe6, 0xb4, 0xb7, 0xbd,
  0xe7, 0x9b, 0xd6, 0x3d, 0xf4, 0x79, 0x88, 0x3d, 0x37, 0x8c, 0x25, 0xbd,
  0x31, 0xe2, 0x1a, 0xbe, 0x4d, 0x7f, 0xe2, 0xbd, 0x97, 0x9d, 0x50, 0xbe,
  0x9c, 0x2b, 0xcc, 0xbd, 0xb7, 0x62, 0x19, 0xbe, 0x88, 0x0f, 0x50, 0x3d,
  0xfa, 0xed, 0x52, 0x3c, 0xf3, 0x85, 0x01, 0xbe, 0xc9, 0x50, 0x19, 0xbe,
  0x4a, 0x32, 0xed, 0xbd, 0x14, 0x96, 0x4c, 0xbd, 0xff, 0xc7, 0x1d, 0xbc,
  0x87, 0x1b, 0x09, 0x3e, 0x43, 0x06, 0x14, 0x3b, 0xbb, 0xcb, 0x5d, 0x3d,
  0x0d, 0x18, 0xab, 0x3d, 0x5a, 0xab, 0x2c, 0xbe, 0x32, 0xe7, 0x84, 0x3d,
  0x50, 0xb5, 0x12, 0xbe, 0xb9, 0xa7, 0x05, 0x3e, 0x3a, 0xec, 0xdc, 0x3b,
  0x0c, 0xdf, 0x9b, 0xbc, 0x02, 0x72, 0x86, 0xbd, 0x3e, 0x01, 0xde, 0xbd,
  0xf3, 0xff, 0xbc, 0xbc, 0xcd, 0x8f, 0x26, 0x3d, 0xb0, 0x74, 0x15, 0xbe,
  0x9e, 0x8e, 0xac, 0xbd, 0x8f, 0xf1, 0xfc, 0xbd, 0x22, 0xc2, 0x3b, 0x3d,
  0x3f, 0xee, 0x18, 0x3d, 0xbe, 0x13, 0x93, 0x3d, 0xd8, 0xec, 0x3c, 0xbe,
  0x53, 0x79, 0xe6, 0xbc, 0x57, 0x95, 0x28, 0xbe, 0x90, 0xfa, 0x14, 0xbe,
  0xbc, 0x66, 0x04, 0x3e, 0x6f, 0x3a, 0x26, 0xbe, 0x09, 0x08, 0xa0, 0x3d,
  0x85, 0xed, 0x1b, 0xbe, 0x05, 0x12, 0x3d, 0x3c, 0xc4, 0xaa, 0x39, 0xbe,
  0x20, 0x4d, 0xd9, 0xbd, 0x5d, 0xfc, 0xa6, 0xbd, 0x0d, 0x8b, 0x0b, 0x3e,
  0xbb, 0xdc, 0xd8, 0xbd, 0xa9, 0x8b, 0x9f, 0x3a, 0x7c, 0xa2, 0xce, 0xbc,
  0xad, 0x2f, 0x2b, 0x3d, 0x77, 0x08, 0x0b, 0x3e, 0xb1, 0x8b, 0x2d, 0x3d,
  0xb0, 0xa5, 0xd2, 0x3c, 0x03, 0xba, 0xc6, 0x3e, 0x0c, 0x62, 0xd7, 0x3c,
  0x84, 0x17, 0x70, 0x3d, 0x0b, 0xf8, 0xfa, 0xbb, 0x61, 0xa5, 0x36, 0xbe,
  0x0c, 0x37, 0xdf, 0xbd, 0xca, 0xc9, 0x91, 0xbe, 0x28, 0x8a, 0xb5, 0x3d,
  0xcf, 0x2a, 0x63, 0xbd, 0x34, 0xb1, 0x12, 0xbd, 0x9c, 0x09, 0x76, 0xbe,
  0xf8, 0xa1, 0x87, 0x3d, 0x3d, 0x95, 0x82, 0xbe, 0xec, 0xfa, 0xee, 0x3c,
  0xa2, 0xc6, 0x87, 0x3e, 0x7b, 0x17, 0x3a, 0x3b, 0x06, 0x0b, 0xb0, 0x3e,
  0x19, 0x0f, 0x8a, 0xbc, 0xc4, 0x30, 0x00, 0x3d, 0xdc, 0x09, 0xe2, 0xbc,
  0xac, 0x3a, 0x34, 0xbe, 0xa8, 0xeb, 0x8b, 0x3e, 0x8d, 0xe9, 0xf0, 0xbd,
  0x35, 0x85, 0x5f, 0xbd, 0x08, 0xa9, 0xc9, 0x3c, 0xe8, 0x36, 0x28, 0x3e,
  0x33, 0xaf, 0xf8, 0xbd, 0x85, 0xf3, 0xef, 0x3d, 0x10, 0xee, 0x04, 0xbe,
  0x69, 0xf2, 0x3c, 0x3b, 0x99, 0x16, 0x30, 0x3d, 0x43, 0xc1, 0x35, 0xbd,
  0x91, 0xd6, 0xc7, 0x3a, 0xa2, 0x46, 0x1b, 0x3e, 0xca, 0x11, 0x3d, 0xbd,
  0xc4, 0x07, 0x79, 0xbc, 0x7f, 0x3d, 0x28, 0xbe, 0x77, 0x41, 0x06, 0x3e,
  0x7c, 0x16, 0xf4, 0xbd, 0xbf, 0x25, 0x64, 0xbc, 0x9c, 0x09, 0xdb, 0x3c,
  0x5c, 0xd6, 0x05, 0x3e, 0xca, 0x76, 0x87, 0xbe, 0x09, 0x75, 0xde, 0xba,
  0xf3, 0x43, 0x5b, 0xbd, 0xa2, 0xed, 0x68, 0xbc, 0xb8, 0x7d, 0xc2, 0xbb,
  0xc2, 0x35, 0x32, 0x3e, 0xbc, 0xb7, 0x9b, 0x3d, 0xcd, 0xeb, 0x07, 0x3e,
  0x0b, 0x8d, 0x18, 0x3d, 0x10, 0xc6, 0x34, 0xbc, 0x1a, 0xb4, 0x2e, 0xbc,
  0xa2, 0x2a, 0xfa, 0xbc, 0x9e, 0x83, 0x5d, 0x3d, 0x8b, 0x84, 0xb7, 0x3c,
  0x81, 0x59, 0x97, 0x3c, 0x98, 0x65, 0x19, 0x3e, 0xbc, 0xcb, 0x1f, 0xbe,
  0xa3, 0xb7, 0x49, 0xbd, 0x9b, 0xbc, 0x37, 0xbd, 0xb0, 0xd1, 0xb5, 0x3c,
  0xde, 0xc9, 0x7e, 0xbe, 0xb0, 0xab, 0x33, 0x3e, 0xb8, 0xd9, 0x6f, 0x3e,
  0xc1, 0x45, 0x15, 0x3e, 0xe6, 0x9b, 0xb6, 0xbd, 0x71, 0xc0, 0xc0, 0xbc,
  0xb3, 0x96, 0xa9, 0x3d, 0x91, 0x85, 0x96, 0xbe, 0x56, 0xa3, 0x0f, 0x3c,
  0x0b, 0xae, 0x02, 0x3d, 0x1c, 0x0b, 0xa3, 0xbb, 0xa4, 0xce, 0xad, 0xbd,
  0xf9, 0x44, 0x34, 0x3e, 0x56, 0x87, 0xfc, 0xbd, 0x6d, 0x09, 0x28, 0xbd,
  0xe1, 0xab, 0x2e, 0x3d, 0x8b, 0x14, 0x60, 0xbe, 0xbe, 0x08, 0xe9, 0x3c,
  0x41, 0xa7, 0xa6, 0x3e, 0x18, 0xda, 0xb9, 0x3b, 0x20, 0x28, 0x0e, 0xbd,
  0xf8, 0x83, 0x91, 0xbc, 0x97, 0x8f, 0x5a, 0x3e, 0x6e, 0xee, 0x99, 0xbe,
  0x0a, 0x3a, 0x19, 0xbe, 0xcd, 0x4e, 0xcf, 0x3c, 0x70, 0x5b, 0x7c, 0xbd,
  0x44, 0x50, 0xbc, 0x3d, 0xda, 0x38, 0x20, 0x3e, 0x93, 0xa4, 0xfc, 0xbd,
  0x89, 0x0e, 0xa8, 0x3d, 0x95, 0x51, 0xaa, 0xbb, 0x24, 0xd2, 0x47, 0xbe,
  0xb6, 0xc1, 0x22, 0x3e, 0x5f, 0x03, 0x98, 0x3d, 0x31, 0x46, 0xcb, 0xbd,
  0xba, 0xc5, 0xd6, 0xbd, 0x2e, 0xca, 0xce, 0x3c, 0x58, 0xe9, 0x10, 0x3e,
  0x71, 0x44, 0x66, 0xbe, 0x68, 0x9b, 0x21, 0xbe, 0x5b, 0x06, 0x7c, 0xbc,
  0xb4, 0x94, 0xab, 0x3d, 0xe3, 0xfa, 0x4f, 0xbe, 0x9c, 0x1f, 0x42, 0x3d,
  0xa2, 0xcb, 0x04, 0xbe, 0x14, 0x0b, 0xe3, 0x3c, 0xed, 0x6a, 0x53, 0x3d,
  0xb9, 0x79, 0x50, 0xbe, 0xc5, 0xbd, 0x7f, 0x3e, 0x36, 0x9e, 0x1f, 0x3f,
  0xfb, 0x84, 0x6a, 0xbd, 0xc1, 0xe8, 0x6c, 0x3d, 0xb6, 0xfc, 0xf4, 0x3c,
  0x7a, 0xcc, 0xbd, 0x3c, 0x7c, 0x34, 0xb1, 0xbe, 0x7f, 0xf9, 0x11, 0xbe,
  0xbd, 0x36, 0xbb, 0xbc, 0x7d, 0x8b, 0xf0, 0x3c, 0xa3, 0xa2, 0xc1, 0xbd,
  0x3d, 0x1f, 0xd7, 0x3d, 0x7c, 0x00, 0xdf, 0xbd, 0x35, 0x9c, 0x03, 0xbc,
  0xb4, 0x0d, 0x12, 0x3e, 0xd8, 0xb8, 0xa8, 0xbd, 0x3d, 0x1e, 0xd1, 0x3d,
  0xed, 0x36, 0xf0, 0x3e, 0xab, 0x1e, 0x4d, 0xbd, 0x7c, 0xbe, 0x62, 0xbd,
  0xdb, 0x12, 0x1f, 0x3b, 0x42, 0x1c, 0xa4, 0x3b, 0x7f, 0xf7, 0x1b, 0xbe,
  0x6d, 0x80, 0x89, 0xbe, 0xd9, 0x2f, 0xfb, 0xbc, 0xfa, 0x94, 0x12, 0x3d,
  0x14, 0x2a, 0x04, 0x3e, 0xb2, 0x90, 0xa6, 0xbd, 0x9d, 0xe0, 0xb6, 0xbd,
  0x5c, 0x92, 0x5e, 0x3c, 0xdd, 0xc0, 0xf2, 0xbc, 0x5b, 0x75, 0xaf, 0xbb,
  0xd9, 0x63, 0xb6, 0x3d, 0x11, 0xf5, 0xb3, 0x3e, 0x08, 0x58, 0x1c, 0xbc,
  0xee, 0x0c, 0xe7, 0xbc, 0x77, 0x9e, 0xe6, 0xbc, 0x2c, 0x3c, 0xef, 0xbd,
  0xd2, 0x8d, 0xe4, 0x3c, 0x1b, 0x17, 0xd0, 0xbe, 0x5e, 0x01, 0x2b, 0xbd,
  0x3d, 0xf4, 0x35, 0x3d, 0x52, 0x0e, 0x0a, 0x3c, 0xc9, 0x87, 0xe0, 0xbd,
  0x12, 0x60, 0x90, 0x3c, 0x2d, 0xf7, 0x70, 0xba, 0xf5, 0x07, 0xff, 0x3d,
  0xc0, 0x2b, 0x05, 0x3e, 0x1f, 0x18, 0xd2, 0x3c, 0x48, 0xd3, 0x88, 0x3e,
  0xe1, 0x4e, 0x3b, 0xbd, 0xf5, 0xbe, 0xcd, 0xbd, 0xa4, 0x90, 0x1d, 0xbd,
  0x24, 0xdd, 0x57, 0xbe, 0xf7, 0xb2, 0xc8, 0x3d, 0xa9, 0x35, 0x65, 0xbe,
  0xc1, 0xda, 0xfe, 0xbb, 0xb1, 0x97, 0xf1, 0x3b, 0x1c, 0xaa, 0x59, 0x3e,
  0xea, 0x41, 0x17, 0xbf, 0x59, 0x28, 0x82, 0x3d, 0xe1, 0xe0, 0xd9, 0xbd,
  0xa8, 0x5e, 0x51, 0x3c, 0xd3, 0xc8, 0x3b, 0x3e, 0x5c, 0x78, 0x33, 0xbd,
  0xfd, 0xe4, 0x47, 0x3e, 0x3c, 0x8c, 0xc7, 0xbd, 0xe1, 0x66, 0x2b, 0x3c,
  0x9b, 0x79, 0xa8, 0x3b, 0xcd, 0x7c, 0x54, 0xbe, 0x95, 0x1e, 0x54, 0x3e,
  0x17, 0xb6, 0xb5, 0xbe, 0x2b, 0x80, 0x17, 0x3d, 0x23, 0x6b, 0x36, 0xbd,
  0xc3, 0x8a, 0x95, 0x3c, 0x10, 0x73, 0x8f, 0xbe, 0x86, 0xda, 0xb8, 0x3c,
  0xe9, 0x38, 0xa9, 0xbd, 0x70, 0x10, 0x8c, 0xbe, 0x70, 0x19, 0x29, 0x3e,
  0x6c, 0xf3, 0xfa, 0x3d, 0x3a, 0x8a, 0x5c, 0x3e, 0x89, 0xd9, 0xb6, 0x3d,
  0x3e, 0xea, 0xab, 0x3d, 0xe7, 0x44, 0x7e, 0xbc, 0x56, 0x2d, 0x1a, 0xbe,
  0xa4, 0x50, 0x31, 0x3e, 0x71, 0x1d, 0x98, 0xbe, 0x21, 0x15, 0x55, 0x3d,
  0x4d, 0xc5, 0x99, 0xbd, 0x88, 0x8d, 0x2a, 0x3e, 0x46, 0xfc, 0x7d, 0xbe,
  0xde, 0xcd, 0x18, 0x3e, 0xa2, 0x38, 0x11, 0xbe, 0x7d, 0x08, 0x6a, 0xbe,
  0xdd, 0x75, 0x3e, 0xbc, 0x47, 0x66, 0xeb, 0x3d, 0xe8, 0xa6, 0x85, 0x3e,
  0xeb, 0xb6, 0xa8, 0x3d, 0xc5, 0x01, 0x27, 0x3e, 0xd8, 0xf7, 0xe1, 0x3b,
  0xe4, 0x22, 0x83, 0xbe, 0x2e, 0x2f, 0x10, 0x3e, 0x81, 0x0e, 0x83, 0xbe,
  0xf0, 0xac, 0x26, 0x3c, 0xf0, 0x39, 0x30, 0xbe, 0x98, 0x14, 0x49, 0x3c,
  0xc5, 0x64, 0xb1, 0xbc, 0x31, 0x17, 0xa3, 0xbc, 0xfc, 0xcf, 0x8e, 0xbd,
  0xf9, 0x44, 0x57, 0xbe, 0xaf, 0xdf, 0xc3, 0x3e, 0x92, 0x50, 0x87, 0xbe,
  0x2e, 0x82, 0xd4, 0xbe, 0xea, 0x23, 0x84, 0x3d, 0x5a, 0x02, 0x4b, 0xbd,
  0x4f, 0xe7, 0x6a, 0xbe, 0x99, 0x04, 0x69, 0xbe, 0x42, 0xfc, 0x15, 0xbf,
  0xb3, 0x48, 0x44, 0x3e, 0x6c, 0x8a, 0xae, 0x3e, 0x46, 0x07, 0x85, 0x3e,
  0xe4, 0x56, 0x67, 0x3d, 0x13, 0xa4, 0xd1, 0xbd, 0xda, 0xf3, 0xfe, 0xbe,
  0x74, 0xcb, 0x02, 0x3f, 0x29, 0xae, 0x20, 0xbe, 0xda, 0x14, 0x05, 0xbd,
  0x59, 0x91, 0x91, 0x3e, 0xb0, 0x8d, 0x70, 0xbc, 0x9c, 0xf0, 0x27, 0xbe,
  0xfd, 0x41, 0xaa, 0x3e, 0x3c, 0x14, 0x18, 0xbe, 0x93, 0x07, 0x6a, 0xbe,
  0x99, 0x9d, 0xf1, 0xbd, 0x6c, 0xe7, 0xb9, 0x3e, 0xa7, 0xc3, 0x08, 0x3d,
  0x0c, 0x14, 0x41, 0x3d, 0xb3, 0x7d, 0x7a, 0x3e, 0xe0, 0x4f, 0x9a, 0xbc,
  0xf4, 0x47, 0x84, 0xbe, 0x0f, 0x25, 0x5b, 0x3b, 0x89, 0x0b, 0xf3, 0xbd,
  0xfe, 0x70, 0x14, 0x3b, 0x6b, 0xa4, 0x40, 0x3d, 0xbf, 0xa5, 0x10, 0xbe,
  0xd4, 0xbe, 0x8f, 0xbb, 0xdb, 0xf4, 0xbc, 0x3e, 0xb8, 0xda, 0x02, 0xbe,
  0xa2, 0xcd, 0xba, 0x3d, 0x18, 0xf8, 0x53, 0xbd, 0x4d, 0x75, 0x65, 0x3e,
  0xf3, 0xcb, 0xb6, 0x3c, 0x8a, 0xa0, 0xc3, 0x3d, 0xfb, 0x54, 0x23, 0x3e,
  0x82, 0x1e, 0xac, 0xbd, 0xef, 0xfa, 0x81, 0xbe, 0x71, 0xfd, 0x44, 0x3b,
  0x26, 0x90, 0x13, 0xbd, 0xc5, 0x08, 0x5d, 0xbd, 0x38, 0x32, 0x63, 0x3d,
  0xee, 0x0a, 0x27, 0xbd, 0x66, 0xed, 0x86, 0xbd, 0x4f, 0x97, 0x13, 0x3e,
  0x12, 0x22, 0xe2, 0xbd, 0x67, 0x8c, 0x73, 0xbd, 0xdf, 0xfc, 0x06, 0xbe,
  0x3f, 0x8b, 0xd4, 0x3d, 0x6e, 0xe5, 0x38, 0x3d, 0x94, 0x93, 0x96, 0x3d,
  0xf1, 0xaf, 0x6e, 0x3d, 0xc7, 0x65, 0x5f, 0x3d, 0x7b, 0xba, 0xe3, 0xbe,
  0x09, 0x97, 0x8d, 0x3c, 0xc7, 0xea, 0x3c, 0xbc, 0xb7, 0xa1, 0x63, 0x3d,
  0x10, 0x03, 0x88, 0x3d, 0x3f, 0xbe, 0x56, 0xbe, 0x65, 0xc0, 0x68, 0xbd,
  0x0b, 0x7d, 0x22, 0x3e, 0x1b, 0xa9, 0x1d, 0xbe, 0x4f, 0x71, 0x00, 0x3e,
  0xe1, 0x60, 0xea, 0x3d, 0x13, 0x9e, 0x7c, 0x3e, 0x5c, 0xd0, 0x2d, 0xbd,
  0x65, 0xe7, 0xdb, 0x3d, 0x0c, 0x2e, 0x72, 0xba, 0xb7, 0xd1, 0xe2, 0x3d,
  0xbc, 0xb9, 0x2e, 0xbe, 0x72, 0x64, 0xbc, 0x3b, 0x7a, 0xae, 0x62, 0x3c,
  0x70, 0x4d, 0xf5, 0x3d, 0xe5, 0x35, 0x32, 0x3e, 0x8b, 0x8c, 0x74, 0xbc,
  0x51, 0x34, 0x42, 0xbb, 0x1c, 0x5f, 0x41, 0x3c, 0x4f, 0x93, 0xe4, 0xbd,
  0x1c, 0x83, 0x9c, 0x3d, 0xed, 0x7f, 0x00, 0x3e, 0xa6, 0xae, 0xf8, 0x3d,
  0x96, 0xfe, 0x8f, 0xbd, 0x3d, 0xab, 0x97, 0x3d, 0x71, 0xdf, 0xc7, 0x3d,
  0xd1, 0x71, 0x00, 0x3e, 0xf6, 0xb9, 0x97, 0xbe, 0xfc, 0x82, 0xbb, 0x3c,
  0x5c, 0xd9, 0x2e, 0x3e, 0x9d, 0xfb, 0x4e, 0x3d, 0x02, 0x2f, 0x6a, 0x3e,
  0xeb, 0x06, 0xe2, 0x3d, 0x9c, 0x4f, 0x6b, 0x3c, 0x07, 0x1d, 0x23, 0x3e,
  0xbe, 0x63, 0x07, 0xbe, 0x64, 0x47, 0x5c, 0x3d, 0x07, 0x9d, 0xab, 0x3d,
  0xa9, 0x4e, 0x1a, 0x3e, 0x4a, 0x3f, 0x12, 0xbd, 0x0e, 0x90, 0x0a, 0x3e,
  0x2c, 0x97, 0x5f, 0x3e, 0x72, 0x73, 0x3a, 0x3e, 0xde, 0x5f, 0x8f, 0xbe,
  0x7f, 0x13, 0x49, 0x3c, 0xa7, 0x79, 0x42, 0x3b, 0x12, 0x30, 0x84, 0x3c,
  0x97, 0x78, 0x98, 0x3d, 0x44, 0x60, 0xcd, 0x3d, 0xc7, 0xdb, 0x7b, 0x3d,
  0x6e, 0xb4, 0xe7, 0x3d, 0x9e, 0x1a, 0x0f, 0xbe, 0xdc, 0xdf, 0xf8, 0xba,
  0x5c, 0xd5, 0x32, 0x3d, 0x89, 0x64, 0x85, 0x3e, 0x0d, 0x40, 0x45, 0xbc,
  0x53, 0xee, 0x15, 0x3e, 0xea, 0xe5, 0x92, 0xbc, 0xc3, 0x23, 0x74, 0x3e,
  0x72, 0x1e, 0x1b, 0xbe, 0x61, 0xf2, 0x0b, 0x3d, 0x42, 0x02, 0x00, 0x3d,
  0x15, 0x82, 0xb0, 0x3d, 0x82, 0xd7, 0x9b, 0x3d, 0x54, 0x6d, 0x09, 0x3e,
  0x46, 0x03, 0xb2, 0x3d, 0x30, 0xf1, 0x58, 0x3e, 0x92, 0x27, 0x69, 0xbd,
  0xcb, 0x65, 0x01, 0x3e, 0xc4, 0x4a, 0x16, 0x3d, 0xcf, 0x7f, 0x69, 0x3e,
  0xb0, 0x0a, 0xe9, 0xbc, 0xc9, 0x7d, 0x63, 0x3e, 0x4f, 0xd0, 0x6b, 0x3c,
  0xc9, 0xeb, 0x3b, 0x3e, 0x7b, 0xea, 0x80, 0xbe, 0x48, 0x89, 0xd6, 0xbb,
  0x27, 0xdf, 0xdb, 0x3c, 0x8d, 0x91, 0xa6, 0x3d, 0xc6, 0xb0, 0xb1, 0x3d,
  0xea, 0x76, 0x95, 0x3d, 0x93, 0xaa, 0x05, 0xbd, 0x85, 0x75, 0xe4, 0x3d,
  0x08, 0xa8, 0x9a, 0xbd, 0x21, 0x4e, 0xa3, 0x3d, 0x37, 0x57, 0x82, 0x3c,
  0x40, 0x2c, 0x8f, 0x3e, 0x72, 0x45, 0x74, 0xbd, 0xe7, 0x9e, 0x4d, 0x3e,
  0x8d, 0x2a, 0xf1, 0x3d, 0xb9, 0x76, 0xe7, 0x3d, 0x31, 0xd7, 0x9a, 0xbe,
  0x59, 0x33, 0x47, 0xbd, 0xa9, 0x56, 0x89, 0x3d, 0xb4, 0x26, 0x95, 0xbc,
  0x9a, 0xea, 0x30, 0x3d, 0x51, 0xcc, 0xd6, 0xbd, 0xbf, 0xdd, 0xe5, 0xbc,
  0x3e, 0x02, 0x2c, 0xbc, 0xa8, 0xd9, 0x99, 0xbd, 0x20, 0x71, 0x0e, 0x3d,
  0x7c, 0x39, 0xbf, 0xbd, 0xcd, 0x52, 0x73, 0x3e, 0xb6, 0x3e, 0xe2, 0xbc,
  0x03, 0xa4, 0x5c, 0x3e, 0xc0, 0x2c, 0xcd, 0x3c, 0x68, 0xd3, 0x63, 0xbd,
  0x87, 0xd0, 0xc0, 0xbe, 0x70, 0xfd, 0x2e, 0x3d, 0xd6, 0x2e, 0x06, 0xbd,
  0x0a, 0x9e, 0x1d, 0x3d, 0xd9, 0x74, 0x75, 0xbe, 0x6c, 0x5e, 0x6b, 0x3d,
  0x85, 0x37, 0x31, 0x3c, 0x8c, 0x2d, 0x37, 0x3e, 0x91, 0xac, 0x15, 0xbc,
  0xf7, 0xff, 0xc7, 0xbd, 0xb8, 0x42, 0x01, 0xbe, 0x3c, 0x14, 0x6d, 0x3e,
  0x3b, 0xbb, 0x34, 0xbd, 0x12, 0xe7, 0x40, 0x3e, 0x8b, 0x3f, 0xf0, 0x3d,
  0x79, 0xc1, 0x7a, 0x3d, 0xd7, 0x11, 0xcb, 0xbe, 0x43, 0xd2, 0x94, 0x3d,
  0xfc, 0x2c, 0x25, 0xbb, 0xec, 0xb4, 0x50, 0xbd, 0x1c, 0xc1, 0x98, 0xbb,
  0x89, 0x68, 0x98, 0xbc, 0xb2, 0xdd, 0x25, 0xbd, 0x0f, 0x67, 0x66, 0x3e,
  0xab, 0x2a, 0x54, 0x3c, 0x7d, 0xe7, 0x3d, 0xbe, 0x77, 0xaf, 0xb1, 0x3d,
  0xdf, 0x7e, 0xb0, 0x3e, 0xa7, 0x5d, 0xc2, 0xbb, 0x57, 0xc8, 0x39, 0x3e,
  0xc0, 0x53, 0x8a, 0x3e, 0x4d, 0xd2, 0xd5, 0xbc, 0xaa, 0x8f, 0xc3, 0xbe,
  0x03, 0x6e, 0xb3, 0x3d, 0xd8, 0xfb, 0x2a, 0x3e, 0x62, 0xbc, 0x99, 0x3d,
  0xe9, 0x80, 0x54, 0xbd, 0xd5, 0x59, 0x20, 0xbd, 0x64, 0xfa, 0xe1, 0xbc,
  0x14, 0xbd, 0x85, 0x3e, 0xe5, 0x7e, 0x5f, 0x3d, 0x07, 0xe2, 0x60, 0xbd,
  0xdf, 0x18, 0xea, 0xbd, 0x9a, 0x0b, 0xf5, 0x3d, 0x2f, 0xed, 0x04, 0xbc,
  0x61, 0x06, 0x84, 0x3e, 0xe3, 0xb8, 0x92, 0xbc, 0xb4, 0x15, 0x9b, 0xbd,
  0xf9, 0x48, 0x8c, 0xbe, 0x53, 0xe5, 0x81, 0x3d, 0xae, 0x7e, 0x52, 0x3e,
  0xf1, 0x03, 0x17, 0xbe, 0x6b, 0x7b, 0x11, 0xbe, 0x9c, 0x8f, 0x8c, 0xbb,
  0x8a, 0x8a, 0x34, 0x3d, 0x59, 0x1d, 0x64, 0xbd, 0xab, 0x26, 0xdb, 0xbd,
  0x85, 0x27, 0xdc, 0x3d, 0x52, 0xe6, 0xfb, 0x3d, 0x7b, 0xe1, 0x85, 0x3d,
  0xe7, 0x9b, 0x85, 0x3d, 0x97, 0x2b, 0x09, 0xbe, 0xad, 0x4a, 0xac, 0xbd,
  0xe0, 0x13, 0x2c, 0x3e, 0xb5, 0x7f, 0xef, 0xbd, 0xe6, 0xb2, 0x29, 0xbe,
  0xa2, 0xc4, 0xa0, 0x3d, 0xc7, 0xdb, 0x87, 0x3d, 0x8e, 0xb2, 0x84, 0xbd,
  0xfd, 0x4a, 0x48, 0x3e, 0x7a, 0x4f, 0x03, 0xbc, 0x6a, 0x8d, 0x2f, 0xbd,
  0x6f, 0xc1, 0xc8, 0xbd, 0x71, 0x1b, 0xdb, 0x3d, 0x06, 0x90, 0x3c, 0x3d,
  0xfd, 0x30, 0x39, 0x3d, 0xfe, 0x2e, 0xe7, 0x3b, 0x1b, 0xc9, 0x47, 0x3d,
  0xa1, 0x51, 0x06, 0x3e, 0x60, 0x84, 0x92, 0x3e, 0xec, 0xcf, 0xf6, 0x3d,
  0x53, 0x88, 0xd6, 0x3b, 0x96, 0x0e, 0x07, 0x3e, 0x0a, 0x11, 0xef, 0x3c,
  0x42, 0x62, 0x22, 0x3c, 0x8d, 0x23, 0x81, 0x3e, 0xef, 0x81, 0x3f, 0x3d,
  0x30, 0x25, 0x32, 0x3e, 0x02, 0xe4, 0x02, 0xbe, 0xc5, 0xdd, 0x91, 0x3d,
  0x62, 0xd4, 0xc4, 0x3d, 0x79, 0x75, 0x22, 0x3e, 0x2e, 0xfb, 0xef, 0xbd,
  0x0d, 0x11, 0xcd, 0x3c, 0x6d, 0xbf, 0x91, 0xbd, 0xf1, 0x8f, 0x81, 0x3e,
  0x7b, 0x79, 0x35, 0xbe, 0x00, 0xe5, 0xc1, 0xbd, 0xf8, 0xe6, 0xa2, 0xbd,
  0xeb, 0x35, 0x2f, 0x3d, 0x05, 0xda, 0xa7, 0x3d, 0x19, 0xcd, 0x54, 0x3e,
  0x23, 0xbd, 0xa7, 0xbc, 0x02, 0x71, 0x2b, 0xbe, 0x6c, 0x4b, 0x9f, 0xbd,
  0x07, 0xd0, 0x94, 0x3e, 0x18, 0xf5, 0x88, 0x3d, 0x84, 0x45, 0x25, 0x3d,
  0xea, 0xa8, 0x3d, 0xbe, 0xac, 0xaa, 0x07, 0x3d, 0x79, 0x5f, 0x89, 0x3d,
  0x33, 0x0c, 0xb6, 0x3e, 0xe9, 0x99, 0xa0, 0x3b, 0xa1, 0x89, 0x37, 0x3d,
  0xeb, 0xd7, 0x3b, 0x3d, 0x3f, 0xde, 0xb6, 0x3d, 0x2b, 0x2d, 0x7d, 0x3c,
  0xf1, 0x21, 0x04, 0x3e, 0x12, 0x01, 0xf2, 0xbd, 0xf2, 0x8d, 0x8a, 0x3d,
  0x48, 0x0a, 0x85, 0x3c, 0x2e, 0xa6, 0x8a, 0x3d, 0x72, 0x51, 0x5f, 0x3e,
  0x34, 0xa9, 0x09, 0x3d, 0x92, 0xf2, 0xf7, 0xbd, 0x4d, 0x30, 0x0b, 0xbe,
  0x59, 0xc2, 0x1f, 0xbe, 0x34, 0xba, 0xcd, 0x3e, 0x41, 0x66, 0xa9, 0x3d,
  0xfa, 0xcd, 0xae, 0x3d, 0x91, 0x71, 0x16, 0xbe, 0xf3, 0xdf, 0xdd, 0x3d,
  0x32, 0x47, 0x86, 0xbe, 0xe3, 0x18, 0xb6, 0x3e, 0x0d, 0x87, 0x34, 0xbd,
  0x17, 0xf2, 0x09, 0x3d, 0xce, 0xe7, 0x04, 0xbe, 0x40, 0x1f, 0x39, 0xbd,
  0xc1, 0xd4, 0xc7, 0x3d, 0x76, 0x04, 0x4e, 0x3e, 0xd9, 0x24, 0xd1, 0x3d,
  0xc1, 0x62, 0xb8, 0x3d, 0xe9, 0x39, 0xef, 0xbc, 0x9c, 0xc2, 0x61, 0xbd,
  0xb3, 0x0b, 0x22, 0x3d, 0x07, 0x07, 0x93, 0x3c, 0xeb, 0x13, 0x64, 0xbe,
  0x8d, 0x69, 0x1e, 0x3d, 0x49, 0x04, 0xea, 0x3b, 0x3c, 0x23, 0xb2, 0xbb,
  0x26, 0xc9, 0x27, 0x3e, 0x56, 0xad, 0x36, 0x3e, 0x38, 0x62, 0x6e, 0xbe,
  0x1c, 0xb7, 0x33, 0xbd, 0xe9, 0x4d, 0x83, 0x3e, 0x72, 0x4e, 0x61, 0xbe,
  0x07, 0xb0, 0x17, 0xbe, 0xb8, 0xc2, 0xc6, 0xbd, 0xb7, 0x1e, 0x8a, 0x3d,
  0x3c, 0xdf, 0x41, 0x3e, 0x20, 0x5f, 0x90, 0x3c, 0x07, 0xaf, 0xf4, 0xbc,
  0xc4, 0x4f, 0x09, 0xbe, 0x13, 0xd2, 0x81, 0x3d, 0x8c, 0xac, 0x2f, 0xbd,
  0x0f, 0x5f, 0x4b, 0x3d, 0xad, 0xa5, 0xa8, 0x3c, 0xa3, 0xcd, 0x3a, 0x3e,
  0xf9, 0x35, 0x7e, 0xbe, 0x62, 0xb4, 0x60, 0xbd, 0xc3, 0xbd, 0xba, 0xbb,
  0x31, 0x99, 0xa3, 0xbc, 0xea, 0xa9, 0xda, 0xbd, 0x25, 0x2f, 0xb9, 0x3c,
  0x50, 0xaf, 0x0f, 0xbe, 0xf9, 0x09, 0xf4, 0x3d, 0x67, 0x4f, 0xd4, 0x3d,
  0x30, 0x7d, 0xcb, 0x3c, 0xeb, 0x90, 0x17, 0xbd, 0xf9, 0xbd, 0x3b, 0xbd,
  0xe6, 0x93, 0x61, 0xbe, 0x2d, 0x32, 0xa8, 0xbc, 0x92, 0x90, 0xee, 0x3d,
  0x4a, 0x31, 0xd0, 0xbd, 0x68, 0x4a, 0x9d, 0xbe, 0x9d, 0xa4, 0xd8, 0xbd,
  0x9f, 0xd2, 0x95, 0xbd, 0x0c, 0xab, 0x17, 0x3e, 0x5e, 0x8d, 0x9d, 0xbb,
  0x4e, 0x55, 0xed, 0xbc, 0x4b, 0xdf, 0x7d, 0x3b, 0xcd, 0x35, 0x4a, 0x3d,
  0xb3, 0xba, 0x4f, 0xbe, 0x92, 0x24, 0xc1, 0x3d, 0xe3, 0x62, 0xfd, 0xbd,
  0xda, 0xe3, 0xc8, 0x3c, 0x63, 0xfb, 0xd3, 0x3c, 0x05, 0xd3, 0xd6, 0xbd,
  0xcc, 0xad, 0x7e, 0xbd, 0x02, 0xf5, 0x89, 0xbd, 0xf8, 0xe5, 0x44, 0xbe,
  0xd5, 0x77, 0x11, 0xbe, 0xb6, 0x3f, 0xfb, 0x3c, 0x83, 0x43, 0x31, 0xbe,
  0xad, 0xa1, 0x7d, 0xbe, 0xac, 0x75, 0xb6, 0xbd, 0x77, 0x13, 0xe6, 0x3d,
  0xde, 0xb6, 0x40, 0xbb, 0x93, 0x0d, 0x1f, 0x3d, 0xe7, 0x21, 0xfc, 0xbb,
  0xa9, 0x5e, 0x33, 0xbe, 0xc1, 0x49, 0x98, 0x3d, 0x95, 0x32, 0x7c, 0xbd,
  0xd7, 0xe4, 0x53, 0x3d, 0x2f, 0x49, 0x1f, 0xbe, 0x77, 0x7c, 0x95, 0x3e,
  0x4f, 0x69, 0xaa, 0xbe, 0x32, 0xfb, 0xca, 0xbc, 0x82, 0x8c, 0xda, 0x3d,
  0x57, 0x5f, 0xa2, 0xbd, 0xbd, 0xad, 0x16, 0xbe, 0x4a, 0x28, 0xdc, 0x3c,
  0xb4, 0x23, 0xb9, 0x3c, 0x88, 0x37, 0x12, 0x3e, 0xce, 0x79, 0x43, 0xbe,
  0x3e, 0x87, 0x9b, 0xbd, 0x93, 0xfb, 0xec, 0xbd, 0x23, 0xa2, 0xd0, 0x3d,
  0x39, 0xd7, 0xd2, 0xbd, 0xa6, 0xcb, 0x10, 0x3e, 0x71, 0x98, 0xd4, 0xbd,
  0xe5, 0x27, 0xe3, 0xbd, 0x96, 0xd5, 0x92, 0xbd, 0x9d, 0xcd, 0x09, 0xbe,
  0x4c, 0x71, 0x92, 0xbd, 0x23, 0xa5, 0x60, 0x3e, 0xaa, 0x22, 0x36, 0xbd,
  0x31, 0x2a, 0x1b, 0x3e, 0x40, 0xf2, 0x9c, 0xbc, 0xdc, 0xbf, 0x2b, 0xbe,
  0x56, 0x01, 0x3c, 0xbe, 0x8b, 0xf3, 0x77, 0xbe, 0x45, 0x2a, 0xee, 0xbd,
  0xae, 0x49, 0x94, 0xbd, 0x08, 0x0f, 0x7b, 0xbe, 0x71, 0xa0, 0x58, 0xbd,
  0xe1, 0x78, 0x8d, 0xbd, 0x32, 0xcc, 0x6f, 0xbb, 0x41, 0xcb, 0xb4, 0xbd,
  0xb9, 0x39, 0xe6, 0xbd, 0x9a, 0x11, 0xa6, 0xbb, 0x9e, 0xbf, 0xdd, 0x3d,
  0xd5, 0xd6, 0x8c, 0x3d, 0xa1, 0x1b, 0x21, 0x3d, 0xbc, 0x59, 0x97, 0x3d,
  0x13, 0xaa, 0x1a, 0xbe, 0x88, 0xae, 0xf0, 0xbc, 0x84, 0x65, 0x27, 0x3d,
  0xb9, 0x5f, 0xb5, 0xbd, 0x6f, 0x87, 0x8f, 0xbd, 0x6e, 0x65, 0x9f, 0xbd,
  0x95, 0xbb, 0x95, 0xbc, 0xe2, 0x71, 0x33, 0xbe, 0x1c, 0x8c, 0x7c, 0xbe,
  0xcf, 0x17, 0x40, 0xbe, 0xc9, 0x90, 0x4f, 0x3c, 0xd3, 0xa9, 0xfe, 0xbd,
  0xa5, 0x25, 0x9e, 0xbd, 0xb6, 0xe5, 0x11, 0xbe, 0x38, 0x7c, 0x62, 0xbd,
  0x9b, 0x65, 0x85, 0xbd, 0x7d, 0x46, 0xe9, 0xbd, 0x49, 0x87, 0xd5, 0xbd,
  0x80, 0x98, 0x82, 0xbe, 0xc4, 0x2c, 0xd1, 0xbe, 0x15, 0xb8, 0x12, 0xbe,
  0x3f, 0xd5, 0xc9, 0xbb, 0x82, 0x71, 0x26, 0xbf, 0x0b, 0x2f, 0x89, 0xbd,
  0xc4, 0x45, 0x04, 0x3a, 0xa9, 0x49, 0xce, 0x3c, 0xff, 0x8a, 0x2f, 0xbe,
  0xac, 0x9a, 0x17, 0xbe, 0xc7, 0x71, 0x18, 0x3e, 0x79, 0x79, 0xb6, 0x3d,
  0x4b, 0x93, 0x06, 0x3e, 0x16, 0xe0, 0xc2, 0xbb, 0x8d, 0x02, 0x12, 0x3e,
  0xca, 0xde, 0x75, 0xbe, 0x6f, 0x91, 0x90, 0x3e, 0x2e, 0xf8, 0x6f, 0xbb,
  0x3d, 0x14, 0x37, 0xbe, 0x82, 0x57, 0x4c, 0x3e, 0xd2, 0xc2, 0x9b, 0xbe,
  0x01, 0x30, 0x0c, 0xbd, 0x7f, 0x9f, 0x29, 0x3e, 0xfd, 0x86, 0x8b, 0x3d,
  0xb3, 0x11, 0x93, 0xbd, 0x73, 0x56, 0x87, 0xbd, 0xed, 0x64, 0x9a, 0x3e,
  0x54, 0x08, 0x4e, 0xbe, 0x98, 0x19, 0x21, 0x3e, 0x91, 0xa1, 0x8f, 0x3d,
  0x2a, 0x49, 0x4e, 0x3d, 0x81, 0xf0, 0xac, 0xbe, 0x29, 0x37, 0x1d, 0x3d,
  0x8a, 0x97, 0x37, 0xbe, 0x3e, 0x21, 0x4c, 0xbe, 0xf6, 0xea, 0xdb, 0x3b,
  0x58, 0x50, 0xa9, 0xbd, 0x63, 0x80, 0x7e, 0xbe, 0xeb, 0x71, 0x01, 0x3e,
  0x07, 0xd8, 0x78, 0x3d, 0x0e, 0x8b, 0x9b, 0xbd, 0x8c, 0x28, 0x83, 0xbd,
  0xae, 0x8f, 0x29, 0x3e, 0x26, 0x08, 0xf1, 0xbd, 0xce, 0x7b, 0xe4, 0x3d,
  0x59, 0x7c, 0x22, 0xbd, 0xe6, 0x87, 0xf0, 0xbd, 0xe8, 0x00, 0xbf, 0xbe,
  0x6a, 0xcd, 0x07, 0x3d, 0x11, 0x2d, 0xce, 0x3c, 0x3d, 0x1c, 0x82, 0xbd,
  0x0d, 0x76, 0x92, 0x3d, 0x3a, 0xaa, 0x35, 0xbe, 0x89, 0xb0, 0xf9, 0xbd,
  0x34, 0xa5, 0x86, 0x3c, 0x39, 0x07, 0xb9, 0x3b, 0xe1, 0x61, 0xc5, 0x3d,
  0xe0, 0x86, 0x0c, 0xbe, 0x18, 0x6b, 0x92, 0x3d, 0xf6, 0x5b, 0x09, 0xbe,
  0x72, 0x08, 0x18, 0x3e, 0xa4, 0x61, 0xff, 0xba, 0x80, 0x64, 0x1e, 0xbe,
  0x80, 0xa9, 0x18, 0xbe, 0x3d, 0xb6, 0xb2, 0x3d, 0x6f, 0x35, 0xac, 0x3d,
  0x9d, 0x1f, 0xa3, 0xbc, 0xee, 0x36, 0x0d, 0x3d, 0xab, 0xe7, 0x30, 0xbe,
  0xbf, 0xb7, 0x8f, 0xbd, 0x6c, 0x45, 0xd2, 0x3a, 0xfd, 0xb9, 0x4d, 0x3d,
  0xce, 0xc8, 0x13, 0xbe, 0xd4, 0x65, 0xce, 0x3d, 0xa7, 0xa3, 0x8c, 0xbc,
  0xb3, 0xd6, 0x1b, 0xbe, 0x11, 0x57, 0x55, 0x3d, 0xfe, 0xb0, 0xe8, 0xbc,
  0xab, 0x54, 0x18, 0x3e, 0x6b, 0xfc, 0x3f, 0xbe, 0x70, 0xf4, 0x01, 0x3d,
  0x15, 0x3b, 0x6f, 0xbe, 0x7c, 0x58, 0x83, 0xbb, 0xc3, 0xd5, 0xa4, 0x3d,
  0xed, 0xfb, 0x28, 0x3e, 0x2a, 0x4b, 0x04, 0xbd, 0xb6, 0x5b, 0xa5, 0x3c,
  0xe3, 0xdb, 0xae, 0xbb, 0x8d, 0x14, 0xab, 0x3c, 0xd8, 0xd9, 0x14, 0x3e,
  0x56, 0xae, 0x46, 0x3d, 0x56, 0xd9, 0x10, 0xbe, 0xde, 0xa1, 0x97, 0x3e,
  0x81, 0xb5, 0x60, 0xbc, 0x16, 0x0d, 0x72, 0x3e, 0xbf, 0x97, 0x80, 0xbd,
  0x26, 0x91, 0x6e, 0x3d, 0x19, 0x2e, 0x42, 0xbd, 0x25, 0x98, 0x95, 0xbc,
  0x17, 0x29, 0x61, 0x3d, 0x0b, 0x1c, 0x16, 0xbe, 0xa0, 0x30, 0x99, 0x3a,
  0xa6, 0xc8, 0xda, 0xbb, 0x3b, 0x64, 0x09, 0x3d, 0x6b, 0x6e, 0x00, 0xbe,
  0x74, 0xa4, 0xbe, 0x3d, 0x04, 0xae, 0xae, 0x3d, 0x2f, 0x2f, 0xfb, 0xbd,
  0xcd, 0x6f, 0x01, 0x3e, 0x33, 0x4f, 0x30, 0xbc, 0x0d, 0xca, 0x0a, 0x3c,
  0x44, 0x95, 0x28, 0xbd, 0xe1, 0x01, 0x29, 0x3e, 0x07, 0x3b, 0xb9, 0xbd,
  0xd9, 0x3e, 0x0a, 0x3c, 0x60, 0xfa, 0x89, 0x3d, 0xec, 0xa0, 0x3d, 0x3d,
  0xde, 0xc8, 0xaf, 0x3a, 0x23, 0xda, 0x68, 0xbd, 0xf0, 0x2b, 0xda, 0x3c,
  0xf5, 0xc3, 0xa3, 0x3d, 0x4c, 0xed, 0x8b, 0x3e, 0x17, 0xe1, 0x74, 0x3d,
  0x4d, 0xaa, 0xb0, 0xbd, 0x57, 0xc0, 0x4b, 0x3d, 0x73, 0x2c, 0x28, 0x3e,
  0x9c, 0x15, 0xb3, 0x3d, 0xee, 0x60, 0x98, 0xbd, 0x2e, 0x99, 0x23, 0x3e,
  0xc1, 0xf8, 0x17, 0xbe, 0xd0, 0x13, 0x85, 0x3d, 0x57, 0x07, 0xac, 0x3c,
  0xce, 0x35, 0xaf, 0x3c, 0x21, 0x6f, 0xcf, 0x3d, 0x41, 0xff, 0xbe, 0x3c,
  0xd3, 0x15, 0xbb, 0xbc, 0xde, 0xd0, 0x28, 0xbe, 0xfc, 0x08, 0xb8, 0xbc,
  0x35, 0x13, 0x9a, 0x3d, 0xbc, 0xe4, 0x98, 0xbd, 0x88, 0x59, 0x79, 0xbb,
  0x65, 0xe2, 0x12, 0x3e, 0x24, 0x5d, 0x37, 0x3d, 0xb7, 0xf2, 0xfa, 0xbd,
  0x39, 0xf9, 0x8b, 0x3d, 0x95, 0x54, 0xb4, 0xbc, 0x47, 0xbc, 0xf9, 0xbd,
  0xbe, 0x98, 0xc1, 0xbd, 0xe4, 0x3e, 0x5b, 0x3d, 0x76, 0xf2, 0x3e, 0x3d,
  0xe2, 0x37, 0x1c, 0x3d, 0x31, 0x18, 0x45, 0x3d, 0xf1, 0xad, 0x67, 0x3d,
  0x99, 0xb7, 0x20, 0x3d, 0xa2, 0x81, 0x95, 0x3d, 0x72, 0xe5, 0xb2, 0xbd,
  0x6e, 0xdb, 0x13, 0x3e, 0x98, 0xd8, 0x86, 0x3d, 0x04, 0xbd, 0x20, 0x3d,
  0x2c, 0x66, 0x0a, 0xbe, 0x56, 0x1e, 0x64, 0x3e, 0xd2, 0xf8, 0x9f, 0x3c,
  0xc8, 0x4b, 0xc8, 0xbd, 0x45, 0xf6, 0x20, 0xbd, 0x39, 0xb6, 0x8a, 0xbd,
  0x1e, 0x6c, 0x8d, 0x3d, 0xbe, 0x9d, 0xa9, 0x3b, 0x04, 0xaa, 0x9b, 0x3d,
  0x42, 0x25, 0x8e, 0x3c, 0x3b, 0x51, 0x0b, 0xbd, 0x82, 0xf4, 0x5b, 0x3e,
  0xcc, 0x83, 0x15, 0xbe, 0x16, 0x23, 0xcf, 0xbc, 0x4e, 0x66, 0x40, 0x3e,
  0x48, 0xa9, 0x36, 0xbe, 0xe8, 0xd3, 0x82, 0xbe, 0x86, 0x28, 0x1e, 0x3d,
  0x3e, 0x9e, 0x81, 0x3c, 0xa6, 0xd9, 0x19, 0xbe, 0x57, 0xa3, 0x44, 0xbe,
  0x77, 0x39, 0x68, 0xbe, 0xee, 0x69, 0x23, 0xbe, 0x9a, 0xe3, 0x7f, 0x3c,
  0xd6, 0x3c, 0xc2, 0x3d, 0x3c, 0x50, 0x16, 0xbc, 0xd4, 0xbd, 0x3e, 0xbe,
  0x6b, 0x9d, 0x9d, 0x3e, 0x43, 0xe3, 0x91, 0x39, 0x53, 0x0c, 0xa2, 0x3c,
  0xb3, 0x7f, 0xa2, 0xbb, 0x48, 0x1a, 0x83, 0x3d, 0xdf, 0x48, 0x20, 0xbe,
  0xe2, 0xe1, 0x2b, 0x3e, 0x85, 0x0a, 0xbf, 0x3c, 0xe9, 0x67, 0x4e, 0x3c,
  0x42, 0xa2, 0x12, 0xbe, 0x12, 0xb7, 0xec, 0xbd, 0xde, 0xfe, 0x3e, 0xbe,
  0x89, 0x48, 0x19, 0x3e, 0x12, 0x8d, 0x23, 0x3e, 0xd2, 0xcb, 0x7f, 0xbe,
  0xaf, 0x50, 0x9f, 0xbc, 0xd3, 0x7c, 0x11, 0x3e, 0x97, 0x5e, 0xb8, 0x3c,
  0x8d, 0xad, 0x4b, 0x3e, 0x85, 0x89, 0x84, 0x3e, 0xc4, 0x5a, 0xa8, 0xbd,
  0xdb, 0x69, 0x4e, 0xbe, 0x53, 0xee, 0xf0, 0xbc, 0xb4, 0xc3, 0x00, 0xbd,
  0x06, 0xcc, 0xec, 0xbd, 0x51, 0x5d, 0x98, 0xbe, 0x9a, 0x3f, 0xc0, 0xbd,
  0x73, 0xea, 0xc0, 0xbe, 0x28, 0x3c, 0xdd, 0x3d, 0xdb, 0x1e, 0xfc, 0x3d,
  0xbd, 0x8c, 0x56, 0xbe, 0x4f, 0xfa, 0x41, 0xbe, 0xfc, 0x6a, 0xae, 0x3e,
  0xd3, 0x19, 0x00, 0xbe, 0xea, 0x9f, 0x9c, 0x3e, 0x56, 0xb2, 0xe1, 0x3d,
  0xf2, 0x22, 0xd0, 0xbd, 0x2a, 0x83, 0x2d, 0xbe, 0x74, 0xf5, 0x61, 0xbd,
  0x7e, 0xf1, 0xff, 0xff, 0x10, 0x00, 0x00, 0x00, 0x0d, 0x00, 0x00, 0x00,
  0x1c, 0x00, 0x00, 0x00, 0x48, 0x00, 0x00, 0x00, 0x04, 0x00, 0x00, 0x00,
  0x10, 0x00, 0x00, 0x00, 0x04, 0x00, 0x00, 0x00, 0x01, 0x00, 0x00, 0x00,
  0x08, 0x00, 0x00, 0x00, 0x29, 0x00, 0x00, 0x00, 0x73, 0x65, 0x71, 0x75,
  0x65, 0x6e, 0x74, 0x69, 0x61, 0x6c, 0x2f, 0x63, 0x6f, 0x6e, 0x76, 0x32,
  0x64, 0x5f, 0x31, 0x2f, 0x43, 0x6f, 0x6e, 0x76, 0x32, 0x44, 0x2f, 0x52,
  0x65, 0x61, 0x64, 0x56, 0x61, 0x72, 0x69, 0x61, 0x62, 0x6c, 0x65, 0x4f,
  0x70, 0x00, 0x00, 0x00, 0xd0, 0xf0, 0xff, 0xff, 0x00, 0x08, 0x00, 0x00,
  0xc5, 0xd1, 0xd5, 0xbe, 0x87, 0x3c, 0x3c, 0xbe, 0xe0, 0xc1, 0xb5, 0x3b,
  0x74, 0xb6, 0xa4, 0xbe, 0xbe, 0xfd, 0x27, 0xbe, 0x57, 0x77, 0x84, 0x3e,
  0x37, 0x8e, 0x76, 0xbd, 0xc5, 0x67, 0xc7, 0xbd, 0xad, 0x6c, 0x8c, 0xbd,
  0x0e, 0xfa, 0x11, 0xbe, 0x99, 0x6b, 0x56, 0x3d, 0xef, 0x8c, 0x95, 0xbd,
  0x01, 0x89, 0x9f, 0xbd, 0x35, 0xb4, 0xd5, 0x3d, 0x64, 0x9a, 0x6e, 0xbe,
  0xca, 0x53, 0x97, 0x3e, 0xb4, 0x8f, 0x65, 0x3d, 0x92, 0x7d, 0xa4, 0xbd,
  0x4d, 0x3c, 0xc4, 0xbd, 0x58, 0xaf, 0x94, 0xbe, 0x7f, 0x0f, 0x34, 0xbd,
  0xff, 0x3a, 0x04, 0xbe, 0x06, 0x66, 0xe8, 0xbd, 0x3c, 0x6e, 0xca, 0xbe,
  0x18, 0xf7, 0x97, 0x3e, 0xf9, 0xbf, 0x15, 0xbe, 0x0a, 0xeb, 0x10, 0xbd,
  0xa5, 0xe0, 0x65, 0xbe, 0x07, 0x9e, 0x0d, 0xbe, 0x7c, 0x40, 0x5c, 0x3d,
  0xbf, 0x9d, 0x1f, 0xbe, 0xfe, 0xc8, 0xc2, 0xbc, 0xa9, 0x3a, 0xbd, 0x3d,
  0x63, 0x7d, 0x3c, 0xbd, 0xe6, 0x5c, 0x50, 0xbe, 0x9e, 0x3d, 0xa7, 0x3e,
  0xe6, 0xfd, 0x00, 0x3e, 0x37, 0xab, 0xb5, 0xbd, 0x98, 0x1c, 0xce, 0x3e,
  0x52, 0xfb, 0x9e, 0x3e, 0x2a, 0xf8, 0xb9, 0x3c, 0x11, 0xc8, 0x39, 0x3d,
  0x44, 0xf0, 0xb2, 0xbe, 0xbe, 0x8f, 0xaf, 0xbc, 0x94, 0x66, 0x17, 0x3e,
  0x3c, 0x28, 0xa7, 0xbd, 0x39, 0x2e, 0x81, 0xbd, 0xd3, 0x23, 0xc5, 0x3d,
  0x5c, 0xe8, 0x99, 0xbd, 0x85, 0x11, 0xc1, 0xbc, 0x93, 0x4e, 0x85, 0xbe,
  0xe1, 0xb2, 0x3c, 0xbe, 0x3c, 0x5a, 0xc7, 0xbb, 0x04, 0x36, 0xe1, 0xbd,
  0xc7, 0xb5, 0xa5, 0xbd, 0x8a, 0xb9, 0xa4, 0xbd, 0x33, 0x64, 0x1f, 0xbd,
  0x84, 0xfe, 0x3b, 0xbd, 0xac, 0x00, 0xf7, 0xbd, 0xf8, 0xed, 0x8c, 0xbe,
  0x93, 0x3a, 0x85, 0xbc, 0x2f, 0x3e, 0xcb, 0xbd, 0x3f, 0xce, 0x41, 0xbe,
  0xd4, 0xf7, 0x60, 0xbd, 0x71, 0x9b, 0xae, 0x3c, 0xb2, 0x36, 0x0f, 0xbe,
  0x37, 0xcf, 0x3b, 0xbd, 0xaf, 0x5e, 0x82, 0xbe, 0x90, 0x4c, 0x3d, 0x3e,
  0x6b, 0x7d, 0xd8, 0xbd, 0xdf, 0x48, 0x38, 0xbe, 0xf9, 0xd5, 0x43, 0xbe,
  0x3e, 0xb8, 0xdb, 0x3e, 0x08, 0x00, 0x90, 0xbe, 0xf1, 0x58, 0x88, 0xbd,
  0x4e, 0x31, 0x9b, 0xbe, 0x3d, 0x1d, 0x14, 0xbe, 0x4b, 0x82, 0xed, 0xbd,
  0x22, 0x46, 0xaa, 0x3e, 0x94, 0x89, 0x6e, 0x3d, 0xde, 0x7b, 0x1a, 0x3e,
  0x91, 0x8e, 0xde, 0xbe, 0x61, 0xf4, 0x85, 0xbb, 0xd6, 0x9a, 0x15, 0xbe,
  0xc9, 0x47, 0x25, 0xbd, 0x35, 0xbd, 0xf7, 0xbd, 0x89, 0x13, 0x33, 0x3e,
  0xe4, 0x65, 0xe3, 0x3d, 0x42, 0x46, 0x29, 0x3e, 0x02, 0x78, 0x3b, 0xbe,
  0x68, 0xaa, 0x88, 0x3d, 0xda, 0x1a, 0xa4, 0xbe, 0x1b, 0xc1, 0x92, 0xbd,
  0x03, 0xd3, 0xbc, 0xbc, 0x4f, 0x7f, 0x7a, 0x3e, 0x54, 0x78, 0xc2, 0x3d,
  0xa3, 0xd7, 0x38, 0x3e, 0x0a, 0xb1, 0xd4, 0xbe, 0x73, 0xe4, 0x95, 0x3d,
  0xf8, 0x0b, 0x2d, 0xbe, 0xa5, 0xa0, 0xcf, 0xbd, 0x11, 0x9e, 0x0d, 0xbe,
  0x52, 0x92, 0x8f, 0xbe, 0x3f, 0xf3, 0x5e, 0xbe, 0x6e, 0xb7, 0x4b, 0x3d,
  0x59, 0xba, 0xb7, 0xbe, 0x23, 0x5a, 0xbf, 0xbc, 0x22, 0x6f, 0xe3, 0xbe,
  0xb9, 0xb5, 0x47, 0xbe, 0xb2, 0x82, 0x36, 0xbe, 0x32, 0x22, 0xbb, 0xbe,
  0x72, 0xee, 0x6c, 0xbe, 0x15, 0x01, 0x50, 0x3e, 0x08, 0xbc, 0x1e, 0xbd,
  0x08, 0x1a, 0xc4, 0xbd, 0x62, 0xc6, 0x5f, 0x3d, 0x7c, 0x95, 0x0a, 0xbe,
  0x40, 0xcc, 0x8e, 0x3c, 0xa1, 0xad, 0xf5, 0x3d, 0x3b, 0xaf, 0xc6, 0x3e,
  0x89, 0xa1, 0x71, 0xbd, 0x12, 0xb1, 0xe6, 0x3c, 0xe3, 0xba, 0x32, 0xbe,
  0x42, 0x67, 0xb6, 0x3e, 0xaf, 0xf1, 0xac, 0x3d, 0xd1, 0x28, 0x05, 0x3e,
  0xa6, 0x79, 0xc0, 0x3e, 0xf1, 0xcb, 0xc4, 0x3d, 0x77, 0x96, 0x71, 0x3e,
  0xd7, 0xc9, 0xc2, 0x3e, 0x4c, 0xee, 0x32, 0xbe, 0x0a, 0x51, 0x61, 0xbe,
  0x86, 0x97, 0xb1, 0x3d, 0xad, 0xb8, 0xa7, 0x3d, 0xa5, 0xb8, 0x81, 0xbe,
  0xba, 0xf8, 0xd6, 0xbc, 0x6f, 0xf4, 0xa0, 0x3e, 0x87, 0x43, 0xd6, 0x3c,
  0xae, 0xda, 0x01, 0xbe, 0x4c, 0xf2, 0xb6, 0xbe, 0x54, 0x9e, 0x49, 0x3e,
  0x7c, 0xdd, 0x1b, 0xbd, 0x30, 0x68, 0xe1, 0xbd, 0x05, 0x6e, 0xea, 0xbd,
  0xd3, 0x47, 0xc6, 0x3d, 0xa5, 0x61, 0x62, 0xbe, 0x62, 0x77, 0x95, 0x3c,
  0xc5, 0xb3, 0x91, 0xbe, 0xcd, 0xae, 0x96, 0xbb, 0x6c, 0xcc, 0xbb, 0xbd,
  0x81, 0xe4, 0xb9, 0xbd, 0xbf, 0x6f, 0x19, 0x3d, 0x29, 0x59, 0x98, 0x3d,
  0x8a, 0xc7, 0x7b, 0xbe, 0x1c, 0x10, 0x10, 0x3e, 0x78, 0xe6, 0x16, 0x3d,
  0x8a, 0xc1, 0x1c, 0xbe, 0x48, 0x19, 0xf3, 0xbd, 0x21, 0xfe, 0xc2, 0x3d,
  0x9b, 0xb3, 0x33, 0xbd, 0x42, 0xa6, 0xdf, 0x3d, 0x9a, 0x66, 0x9e, 0xbd,
  0xf5, 0x4c, 0xba, 0xbd, 0xac, 0x45, 0x2a, 0xbe, 0xee, 0xe8, 0x4c, 0x3d,
  0x9a, 0x38, 0xa1, 0xbe, 0x6d, 0x74, 0x00, 0x3e, 0x4e, 0x7f, 0x81, 0xbd,
  0x98, 0xb9, 0x14, 0x3e, 0x0c, 0xe0, 0x80, 0xbe, 0xbe, 0x44, 0x6d, 0x3e,
  0x0d, 0xe4, 0x92, 0x3d, 0xb8, 0xfc, 0x93, 0x3d, 0xd1, 0xcf, 0xa8, 0xbe,
  0x32, 0xdf, 0x7c, 0x3e, 0x73, 0x16, 0x20, 0x3d, 0x9e, 0x40, 0x9f, 0x3d,
  0x0a, 0x62, 0xc3, 0x3d, 0x81, 0x47, 0x82, 0xbd, 0x65, 0x4a, 0x97, 0x3d,
  0xa2, 0xda, 0x79, 0xbd, 0xee, 0xe5, 0xc6, 0xbe, 0xe7, 0xa5, 0x6f, 0x3e,
  0x87, 0x10, 0x30, 0xbe, 0x42, 0xce, 0x74, 0x3e, 0xc4, 0x72, 0xbb, 0xbd,
  0x17, 0x45, 0xe0, 0xbd, 0x00, 0x3f, 0x28, 0x3e, 0xa3, 0x98, 0x61, 0x3c,
  0xab, 0x40, 0x60, 0xbe, 0xcf, 0xbe, 0x9e, 0x3e, 0xfe, 0x8c, 0x0e, 0xbd,
  0xd2, 0xa1, 0x49, 0xbd, 0x64, 0x54, 0x81, 0xbe, 0x84, 0xfb, 0x35, 0x3d,
  0xa1, 0x7e, 0x3a, 0x3e, 0x9d, 0x24, 0xe2, 0xbc, 0x30, 0x40, 0x1a, 0xbe,
  0xbf, 0x08, 0x84, 0x3d, 0x39, 0xab, 0x99, 0x3e, 0x7b, 0x91, 0x56, 0x3e,
  0xfb, 0xa1, 0x22, 0xbe, 0x3c, 0xb3, 0x0f, 0xbd, 0xe3, 0x82, 0x02, 0xbd,
  0x04, 0xb9, 0x04, 0x3d, 0x74, 0x45, 0x27, 0xbe, 0x15, 0xe2, 0xc1, 0x3d,
  0x7a, 0x25, 0x31, 0x3c, 0x0a, 0xca, 0x1c, 0x3e, 0x8a, 0x89, 0xe0, 0xbd,
  0xd1, 0xb8, 0x26, 0xbd, 0xd4, 0xd2, 0x31, 0xbe, 0xa3, 0xc3, 0xac, 0x3d,
  0x4b, 0x40, 0x0f, 0xbc, 0x8d, 0x30, 0x2d, 0xbe, 0xdc, 0xea, 0x41, 0x3b,
  0xc8, 0x2a, 0x82, 0x3d, 0x59, 0x0b, 0x00, 0x3d, 0xef, 0xe4, 0xa0, 0x3e,
  0x5d, 0x8a, 0x29, 0xbe, 0x47, 0x86, 0xba, 0xbb, 0x13, 0x9b, 0x16, 0x3d,
  0xb9, 0xd2, 0x7d, 0xbe, 0x3b, 0xec, 0x09, 0x3c, 0x55, 0x8e, 0xc9, 0x3e,
  0xcd, 0x18, 0x8d, 0xbd, 0xa4, 0x6c, 0x27, 0xbe, 0x4e, 0x83, 0xb4, 0xbe,
  0xe3, 0xae, 0x58, 0xbe, 0xe2, 0x46, 0xb7, 0xbd, 0xf0, 0x7f, 0x4c, 0xbe,
  0x1c, 0x4e, 0xe4, 0xbc, 0x7f, 0xcb, 0x7d, 0x3d, 0x94, 0x07, 0x77, 0xbd,
  0x88, 0x1c, 0x26, 0xbe, 0x99, 0xf9, 0xa7, 0xbe, 0xd1, 0xe3, 0x55, 0xbe,
  0x9c, 0x69, 0x63, 0x3c, 0x09, 0x38, 0x94, 0xbe, 0x3e, 0x80, 0xcb, 0xbd,
  0xc7, 0x30, 0xc2, 0x3e, 0xb0, 0x3f, 0xb1, 0x3e, 0x5e, 0x35, 0x26, 0xbe,
  0xce, 0x58, 0xf8, 0x3b, 0x3a, 0x9a, 0x0e, 0xbe, 0xf1, 0x14, 0x35, 0x3e,
  0xed, 0x38, 0x47, 0xbe, 0x31, 0x93, 0x40, 0xbc, 0xa8, 0xdf, 0x94, 0x3d,
  0xe1, 0x61, 0x89, 0x3e, 0x8d, 0xd9, 0xa8, 0xbd, 0x6a, 0xbc, 0x41, 0xbc,
