/* Copyright 2019 The TensorFlow Authors. All Rights Reserved.

Licensed under the Apache License, Version 2.0 (the "License");
you may not use this file except in compliance with the License.
You may obtain a copy of the License at

    http://www.apache.org/licenses/LICENSE-2.0

Unless required by applicable law or agreed to in writing, software
distributed under the License is distributed on an "AS IS" BASIS,
WITHOUT WARRANTIES OR CONDITIONS OF ANY KIND, either express or implied.
See the License for the specific language governing permissions and
limitations under the License.
==============================================================================*/

// Automatically created from a TensorFlow Lite flatbuffer using the command:
// xxd -i magic_wand_model.tflite > magic_wand_model_data.cc
// See the README for a full description of the creation process.

#include "tensorflow/lite/micro/examples/magic_wand/magic_wand_model_data.h"

// We need to keep the data array aligned on some architectures.
#ifdef __has_attribute
#define HAVE_ATTRIBUTE(x) __has_attribute(x)
#else
#define HAVE_ATTRIBUTE(x) 0
#endif
#if HAVE_ATTRIBUTE(aligned) || (defined(__GNUC__) && !defined(__clang__))
#define DATA_ALIGN_ATTRIBUTE __attribute__((aligned(4)))
#else
#define DATA_ALIGN_ATTRIBUTE
#endif

const unsigned char g_magic_wand_model_data[] DATA_ALIGN_ATTRIBUTE = {
    0x1c, 0x00, 0x00, 0x00, 0x54, 0x46, 0x4c, 0x33, 0x00, 0x00, 0x12, 0x00,
    0x1c, 0x00, 0x04, 0x00, 0x08, 0x00, 0x0c, 0x00, 0x10, 0x00, 0x14, 0x00,
    0x00, 0x00, 0x18, 0x00, 0x12, 0x00, 0x00, 0x00, 0x03, 0x00, 0x00, 0x00,
    0x68, 0x4c, 0x00, 0x00, 0x10, 0x00, 0x00, 0x00, 0x1c, 0x00, 0x00, 0x00,
    0x2c, 0x00, 0x00, 0x00, 0x0c, 0x00, 0x00, 0x00, 0x01, 0x00, 0x00, 0x00,
    0x14, 0x01, 0x00, 0x00, 0x01, 0x00, 0x00, 0x00, 0xdc, 0x00, 0x00, 0x00,
    0x0f, 0x00, 0x00, 0x00, 0x54, 0x4f, 0x43, 0x4f, 0x20, 0x43, 0x6f, 0x6e,
    0x76, 0x65, 0x72, 0x74, 0x65, 0x64, 0x2e, 0x00, 0x12, 0x00, 0x00, 0x00,
    0xb0, 0x00, 0x00, 0x00, 0xa8, 0x00, 0x00, 0x00, 0x9c, 0x00, 0x00, 0x00,
    0x94, 0x00, 0x00, 0x00, 0x8c, 0x00, 0x00, 0x00, 0x80, 0x00, 0x00, 0x00,
    0x74, 0x00, 0x00, 0x00, 0x6c, 0x00, 0x00, 0x00, 0x64, 0x00, 0x00, 0x00,
    0x5c, 0x00, 0x00, 0x00, 0x54, 0x00, 0x00, 0x00, 0x4c, 0x00, 0x00, 0x00,
    0x40, 0x00, 0x00, 0x00, 0x34, 0x00, 0x00, 0x00, 0x28, 0x00, 0x00, 0x00,
    0x1c, 0x00, 0x00, 0x00, 0x10, 0x00, 0x00, 0x00, 0x04, 0x00, 0x00, 0x00,
    0x2a, 0xb6, 0xff, 0xff, 0x68, 0x00, 0x00, 0x00, 0x32, 0xb6, 0xff, 0xff,
    0x48, 0x01, 0x00, 0x00, 0x3a, 0xb6, 0xff, 0xff, 0xc8, 0x01, 0x00, 0x00,
    0x42, 0xb6, 0xff, 0xff, 0x34, 0x02, 0x00, 0x00, 0x4a, 0xb6, 0xff, 0xff,
    0x8c, 0x3a, 0x00, 0x00, 0x52, 0xb6, 0xff, 0xff, 0xe0, 0x42, 0x00, 0x00,
    0x14, 0xb6, 0xff, 0xff, 0x18, 0xb6, 0xff, 0xff, 0x1c, 0xb6, 0xff, 0xff,
    0x20, 0xb6, 0xff, 0xff, 0x24, 0xb6, 0xff, 0xff, 0x6e, 0xb6, 0xff, 0xff,
    0xe4, 0x45, 0x00, 0x00, 0x76, 0xb6, 0xff, 0xff, 0x64, 0x46, 0x00, 0x00,
    0x38, 0xb6, 0xff, 0xff, 0x3c, 0xb6, 0xff, 0xff, 0x86, 0xb6, 0xff, 0xff,
    0x70, 0x47, 0x00, 0x00, 0x48, 0xb6, 0xff, 0xff, 0x4c, 0xb6, 0xff, 0xff,
    0x05, 0x00, 0x00, 0x00, 0x31, 0x2e, 0x35, 0x2e, 0x30, 0x00, 0x00, 0x00,
    0x18, 0xb7, 0xff, 0xff, 0x08, 0x00, 0x00, 0x00, 0x11, 0x00, 0x00, 0x00,
    0x13, 0x00, 0x00, 0x00, 0x6d, 0x69, 0x6e, 0x5f, 0x72, 0x75, 0x6e, 0x74,
    0x69, 0x6d, 0x65, 0x5f, 0x76, 0x65, 0x72, 0x73, 0x69, 0x6f, 0x6e, 0x00,
    0x0c, 0x00, 0x14, 0x00, 0x04, 0x00, 0x08, 0x00, 0x0c, 0x00, 0x10, 0x00,
    0x0c, 0x00, 0x00, 0x00, 0x20, 0x00, 0x00, 0x00, 0x14, 0x00, 0x00, 0x00,
    0x08, 0x00, 0x00, 0x00, 0xcc, 0x48, 0x00, 0x00, 0x01, 0x00, 0x00, 0x00,
    0x00, 0x00, 0x00, 0x00, 0x01, 0x00, 0x00, 0x00, 0x01, 0x00, 0x00, 0x00,
    0x10, 0x00, 0x00, 0x00, 0xc0, 0x43, 0x00, 0x00, 0x50, 0x48, 0x00, 0x00,
    0xdc, 0x41, 0x00, 0x00, 0x94, 0x45, 0x00, 0x00, 0x4c, 0x46, 0x00, 0x00,
    0x70, 0x39, 0x00, 0x00, 0x00, 0x45, 0x00, 0x00, 0xb0, 0x44, 0x00, 0x00,
    0x04, 0x01, 0x00, 0x00, 0x1c, 0x00, 0x00, 0x00, 0x10, 0x44, 0x00, 0x00,
    0xc8, 0x43, 0x00, 0x00, 0x74, 0x46, 0x00, 0x00, 0x94, 0x00, 0x00, 0x00,
    0xd0, 0x45, 0x00, 0x00, 0x3c, 0x44, 0x00, 0x00, 0xfa, 0xb7, 0xff, 0xff,
    0x10, 0x00, 0x00, 0x00, 0x10, 0x00, 0x00, 0x00, 0x10, 0x00, 0x00, 0x00,
    0x30, 0x00, 0x00, 0x00, 0x01, 0x00, 0x00, 0x00, 0x10, 0x00, 0x00, 0x00,
    0x1c, 0x00, 0x00, 0x00, 0x73, 0x65, 0x71, 0x75, 0x65, 0x6e, 0x74, 0x69,
    0x61, 0x6c, 0x2f, 0x64, 0x65, 0x6e, 0x73, 0x65, 0x2f, 0x4d, 0x61, 0x74,
    0x4d, 0x75, 0x6c, 0x5f, 0x62, 0x69, 0x61, 0x73, 0x00, 0x00, 0x00, 0x00,
    0x34, 0xb7, 0xff, 0xff, 0x40, 0x00, 0x00, 0x00, 0xd7, 0xad, 0x00, 0x40,
    0x34, 0x42, 0xf3, 0x40, 0xf5, 0x0a, 0x73, 0xbf, 0xe3, 0xaf, 0x99, 0x40,
    0x44, 0x12, 0xe6, 0xbf, 0xea, 0xd0, 0x96, 0x40, 0x9f, 0x36, 0x50, 0x3f,
    0x8e, 0x23, 0xc5, 0x40, 0xe4, 0x70, 0xb5, 0x3f, 0x66, 0x0f, 0x4e, 0x3e,
    0x7f, 0x22, 0xc8, 0xc0, 0xbd, 0xad, 0x19, 0x40, 0x63, 0xe7, 0xb1, 0x40,
    0xf2, 0xc0, 0xdc, 0x40, 0x5e, 0x39, 0x3f, 0xbf, 0xd7, 0x46, 0x0f, 0x40,
    0x82, 0xb8, 0xff, 0xff, 0x10, 0x00, 0x00, 0x00, 0x0f, 0x00, 0x00, 0x00,
    0x10, 0x00, 0x00, 0x00, 0x30, 0x00, 0x00, 0x00, 0x01, 0x00, 0x00, 0x00,
    0x05, 0x00, 0x00, 0x00, 0x1e, 0x00, 0x00, 0x00, 0x73, 0x65, 0x71, 0x75,
    0x65, 0x6e, 0x74, 0x69, 0x61, 0x6c, 0x2f, 0x64, 0x65, 0x6e, 0x73, 0x65,
    0x5f, 0x31, 0x2f, 0x4d, 0x61, 0x74, 0x4d, 0x75, 0x6c, 0x5f, 0x62, 0x69,
    0x61, 0x73, 0x00, 0x00, 0xbc, 0xb7, 0xff, 0xff, 0x14, 0x00, 0x00, 0x00,
    0x5b, 0xbf, 0xbe, 0xbe, 0x76, 0x56, 0x7d, 0xbf, 0xc2, 0x98, 0x48, 0xbf,
    0x85, 0x80, 0x1b, 0x40, 0x7a, 0x67, 0x0e, 0xc0, 0xde, 0xb8, 0xff, 0xff,
    0x10, 0x00, 0x00, 0x00, 0x0e, 0x00, 0x00, 0x00, 0x14, 0x00, 0x00, 0x00,
    0x48, 0x00, 0x00, 0x00, 0x02, 0x00, 0x00, 0x00, 0x10, 0x00, 0x00, 0x00,
    0xe0, 0x00, 0x00, 0x00, 0x30, 0x00, 0x00, 0x00, 0x73, 0x65, 0x71, 0x75,
    0x65, 0x6e, 0x74, 0x69, 0x61, 0x6c, 0x2f, 0x64, 0x65, 0x6e, 0x73, 0x65,
    0x2f, 0x4d, 0x61, 0x74, 0x4d, 0x75, 0x6c, 0x2f, 0x52, 0x65, 0x61, 0x64,
    0x56, 0x61, 0x72, 0x69, 0x61, 0x62, 0x6c, 0x65, 0x4f, 0x70, 0x2f, 0x74,
    0x72, 0x61, 0x6e, 0x73, 0x70, 0x6f, 0x73, 0x65, 0x00, 0x00, 0x00, 0x00,
    0x30, 0xb8, 0xff, 0xff, 0x00, 0x38, 0x00, 0x00, 0x00, 0x3f, 0x66, 0x3f,
    0x1b, 0x59, 0xc0, 0x3d, 0x95, 0x0e, 0x87, 0x3e, 0x4b, 0x82, 0xa3, 0xbe,
    0x50, 0x0f, 0xd6, 0x3e, 0x5e, 0x08, 0x5e, 0xbe, 0x69, 0xff, 0x0f, 0xbd,
    0xf9, 0x73, 0xdd, 0xbe, 0x3b, 0x1a, 0xbb, 0xbe, 0x19, 0xa5, 0xb7, 0xbd,
    0x76, 0xc0, 0xcf, 0xbd, 0x78, 0x12, 0x74, 0x3e, 0xb7, 0xf8, 0xb7, 0xbe,
    0x62, 0xcf, 0x41, 0x3c, 0x88, 0x66, 0x8e, 0xbc, 0x1b, 0x76, 0xf3, 0xbe,
    0x17, 0x84, 0x13, 0xbe, 0xdd, 0x9a, 0xb8, 0x39, 0x84, 0x20, 0xca, 0x3e,
    0x5d, 0x08, 0xe7, 0xbd, 0xd6, 0xa5, 0x55, 0x3e, 0x87, 0x48, 0x05, 0xbe,
    0xe0, 0xe5, 0xe4, 0x3c, 0xbe, 0x9e, 0x19, 0x3d, 0xad, 0xd4, 0x50, 0xbd,
    0xc4, 0xfb, 0x24, 0x3d, 0xb5, 0x24, 0x6f, 0x3e, 0xf0, 0x47, 0x3c, 0x3e,
    0x61, 0xc7, 0x20, 0xbe, 0xf5, 0xe1, 0x4c, 0x3d, 0xa8, 0xf6, 0xdf, 0x3d,
    0x63, 0x92, 0xa6, 0xbe, 0x39, 0xfb, 0x14, 0xbe, 0x9f, 0x66, 0xa0, 0xbd,
    0x71, 0x37, 0x39, 0x3e, 0xe4, 0xa1, 0xb4, 0xbd, 0xe2, 0x8f, 0x44, 0x3e,
    0x19, 0x94, 0x92, 0xbe, 0x81, 0x4a, 0x86, 0xbd, 0x36, 0xa9, 0x9b, 0x3e,
    0x0a, 0xc7, 0x00, 0xbe, 0x5e, 0xc8, 0x00, 0x3c, 0xd9, 0xa1, 0x7e, 0x3d,
    0xf1, 0x7a, 0x56, 0x3e, 0x37, 0xad, 0x79, 0xbe, 0x9b, 0x68, 0x2e, 0x3c,
    0x17, 0xcf, 0x10, 0x3d, 0x35, 0x15, 0xd5, 0xbe, 0x91, 0xab, 0x02, 0xbe,
    0xf4, 0xf2, 0x79, 0xbe, 0x63, 0x53, 0xbe, 0xbd, 0xe9, 0x86, 0xa2, 0x3d,
    0xb2, 0x77, 0x3a, 0x3e, 0x71, 0xd0, 0x90, 0x3c, 0xbe, 0xc8, 0xc5, 0x3d,
    0x07, 0x34, 0x5a, 0x3e, 0xe8, 0xeb, 0x86, 0xbe, 0xcd, 0xd8, 0x46, 0x3d,
    0xbd, 0x5d, 0xa8, 0x3e, 0x8e, 0x3c, 0x09, 0x3e, 0x4a, 0xd0, 0x20, 0xbf,
    0xa9, 0xe0, 0x02, 0x3e, 0xa1, 0x11, 0xc5, 0x3c, 0x4e, 0x4a, 0x0b, 0xbf,
    0x8e, 0xa8, 0x18, 0x3e, 0x51, 0x90, 0xd2, 0xbd, 0x1a, 0xb5, 0x84, 0xbe,
    0x6c, 0x84, 0xad, 0x3e, 0x69, 0x7a, 0x9d, 0x3e, 0x1d, 0x44, 0xa8, 0xbe,
    0x9c, 0xf5, 0xcb, 0x3d, 0x89, 0x2d, 0x8a, 0x3e, 0x43, 0x24, 0x0f, 0xbf,
    0x74, 0x3f, 0xf1, 0x3d, 0x7a, 0x0e, 0xe4, 0xbe, 0x4f, 0xea, 0x39, 0x3e,
    0x1e, 0x9e, 0x2e, 0xbf, 0xe4, 0x5c, 0xef, 0xbc, 0xbc, 0x47, 0x91, 0x3b,
    0x02, 0x9f, 0x04, 0xbf, 0x29, 0x15, 0xa8, 0xbd, 0x7c, 0x9a, 0x5f, 0xbe,
    0x4c, 0x88, 0x31, 0xbe, 0xf6, 0xc5, 0x64, 0x3e, 0x5a, 0x86, 0xa9, 0x3e,
    0xb1, 0x74, 0xd3, 0x3c, 0xae, 0x2f, 0x04, 0xbe, 0x94, 0x44, 0x98, 0x3e,
    0xb4, 0x20, 0xaf, 0xbe, 0x52, 0x95, 0xa0, 0xbb, 0x8b, 0x43, 0xcd, 0xbe,
    0x25, 0x12, 0x98, 0xbf, 0xd6, 0x07, 0xb6, 0xbe, 0xe6, 0x4d, 0x63, 0xbd,
    0xb3, 0x22, 0x83, 0x3d, 0x9b, 0xf5, 0x2c, 0xbd, 0x7d, 0xe8, 0x22, 0x3e,
    0xba, 0xe3, 0x4f, 0xbe, 0x12, 0x7e, 0x08, 0xbf, 0xa9, 0x52, 0x55, 0xbc,
    0x9a, 0xe9, 0xb0, 0x3e, 0x71, 0xeb, 0x5f, 0x3d, 0xf5, 0xdc, 0xc8, 0xbd,
    0x5b, 0xa6, 0x10, 0x3e, 0xa7, 0x58, 0x2c, 0x3e, 0x79, 0x7c, 0x80, 0xbd,
    0x5e, 0xa3, 0x0a, 0xbf, 0x23, 0xd0, 0xe7, 0xbe, 0xd3, 0xdd, 0x8f, 0xbe,
    0x14, 0xc9, 0xf4, 0x3c, 0xb5, 0x60, 0xe6, 0x3d, 0x40, 0xa8, 0x09, 0xbe,
    0x1b, 0x17, 0x58, 0x3e, 0xa6, 0xaf, 0x83, 0x3d, 0x45, 0x08, 0x8d, 0x3e,
    0x86, 0xa8, 0x93, 0xbe, 0xeb, 0x97, 0x7c, 0x3e, 0x38, 0xca, 0x0f, 0xbe,
    0x11, 0x9e, 0x94, 0xbb, 0x64, 0xab, 0x0e, 0xbe, 0xd2, 0x31, 0x07, 0xbf,
    0x3a, 0x63, 0xbe, 0x3d, 0x02, 0xc9, 0x9d, 0xbe, 0x4e, 0xe5, 0x51, 0x3e,
    0xbb, 0x35, 0xff, 0xbe, 0x58, 0x16, 0x78, 0x3d, 0x38, 0xa8, 0x0f, 0xbe,
    0x34, 0x9b, 0xca, 0xbe, 0x79, 0x1a, 0xe8, 0x3d, 0xc5, 0xe5, 0x14, 0x3d,
    0x02, 0xc8, 0x17, 0x3e, 0x0c, 0xa2, 0xed, 0xbe, 0x9b, 0xe0, 0x90, 0x3e,
    0xe0, 0x34, 0x48, 0xbd, 0x8f, 0x4e, 0x34, 0x3d, 0xa4, 0x3e, 0x77, 0xbe,
    0x9c, 0x63, 0x9e, 0xbe, 0x03, 0x7d, 0xda, 0xbd, 0xd0, 0x33, 0x53, 0x3d,
    0x05, 0x86, 0x3a, 0x3e, 0x66, 0x9f, 0x12, 0xbf, 0x36, 0xcb, 0x2d, 0x3c,
    0x8e, 0xda, 0x7a, 0xbd, 0x85, 0x41, 0x17, 0xbf, 0x9c, 0x24, 0x72, 0xbd,
    0xf5, 0xfb, 0x40, 0x3d, 0x64, 0x89, 0x3b, 0x3e, 0x11, 0x81, 0x97, 0xbd,
    0xce, 0x7a, 0x95, 0x3e, 0xc0, 0xd5, 0x9a, 0xbe, 0xa6, 0xff, 0x5c, 0x3d,
    0x01, 0x4c, 0xa1, 0xbd, 0xf5, 0xbf, 0x31, 0xbf, 0x4c, 0x7e, 0x82, 0xbd,
    0xa6, 0x30, 0xc3, 0x3d, 0xbd, 0x6f, 0x5f, 0x3e, 0x07, 0x53, 0x21, 0xbf,
    0x57, 0x6f, 0xc5, 0x3d, 0x0a, 0x3e, 0x46, 0x3d, 0x77, 0x95, 0x1f, 0xbf,
    0xac, 0x54, 0x3d, 0x3d, 0x8d, 0x68, 0x6a, 0x3d, 0xc5, 0x21, 0xa5, 0x3e,
    0x01, 0x36, 0xe4, 0xbe, 0x1e, 0x6c, 0x8b, 0x3e, 0x96, 0xa6, 0xec, 0xbc,
    0xba, 0x05, 0xb1, 0x3d, 0xdc, 0x6a, 0x46, 0xbe, 0x4c, 0x4c, 0x05, 0xbf,
    0x51, 0xe3, 0x87, 0xbd, 0xa5, 0x26, 0x77, 0x3d, 0x67, 0x6f, 0x01, 0x3e,
    0x7b, 0x46, 0x27, 0xbf, 0x8f, 0x82, 0xf2, 0xbc, 0xc6, 0x3e, 0x0b, 0xbe,
    0x3e, 0x20, 0x22, 0xbf, 0x04, 0x9e, 0x15, 0xbe, 0x8e, 0x91, 0xe6, 0x3c,
    0x69, 0xa6, 0x88, 0x3e, 0xfc, 0x35, 0xff, 0xbd, 0xf5, 0xcb, 0x0c, 0x3f,
    0x1e, 0x45, 0xd2, 0xbd, 0x09, 0x29, 0xcf, 0xbc, 0x12, 0x13, 0x36, 0xbd,
    0x8d, 0xfc, 0x0b, 0x3e, 0xb5, 0xd4, 0x93, 0xbd, 0x29, 0xf0, 0x85, 0xbe,
    0xb6, 0xd8, 0x36, 0x3e, 0x8b, 0xcf, 0x13, 0xbf, 0x9e, 0xad, 0x25, 0x3d,
    0x38, 0x68, 0xf4, 0xbd, 0x62, 0x78, 0x02, 0xbf, 0x40, 0x76, 0x34, 0xbe,
    0x45, 0x56, 0x50, 0xbd, 0xed, 0x67, 0xd8, 0x3e, 0xfa, 0x77, 0xde, 0xbd,
    0x3b, 0xd5, 0xf1, 0x3e, 0x80, 0x5c, 0xc2, 0xbe, 0x9d, 0x93, 0x31, 0x3d,
    0x62, 0x3c, 0x34, 0xbe, 0x9b, 0x20, 0x92, 0xbc, 0x24, 0x9f, 0x27, 0x3d,
    0x3a, 0x9b, 0x42, 0xbe, 0xdf, 0xe9, 0x63, 0x3e, 0x1e, 0x14, 0x86, 0xbe,
    0x1b, 0xb6, 0xc9, 0xbb, 0xd5, 0xe9, 0x0f, 0x3d, 0x32, 0xe7, 0x4e, 0xbe,
    0x1e, 0xe1, 0xeb, 0xbd, 0xba, 0xeb, 0x32, 0xbe, 0x2f, 0xda, 0x3c, 0x3f,
    0xb3, 0xa4, 0x4a, 0x3e, 0x93, 0x5d, 0x14, 0xbd, 0x2d, 0x16, 0x0a, 0xbe,
    0x4b, 0x44, 0xb1, 0xbc, 0x64, 0xf9, 0x60, 0x3e, 0xd4, 0xc2, 0xd1, 0xbe,
    0x53, 0xa8, 0x24, 0x3d, 0x97, 0xae, 0x01, 0xbf, 0xf2, 0xbd, 0x07, 0x3e,
    0x24, 0x65, 0x83, 0x3c, 0xb6, 0xdd, 0xe1, 0xbd, 0xd8, 0xc9, 0x0f, 0xbd,
    0xf7, 0x37, 0x42, 0xbe, 0xe5, 0xd2, 0x7b, 0x3e, 0x7d, 0x26, 0x29, 0x3c,
    0x01, 0x9e, 0x8f, 0x3d, 0x60, 0x40, 0xb5, 0xbd, 0x98, 0x17, 0x72, 0xbe,
    0x3c, 0x2f, 0xce, 0xba, 0xbb, 0xa0, 0xbd, 0xbd, 0x84, 0xea, 0xdb, 0x3d,
    0x48, 0xe4, 0xd9, 0xbc, 0xd1, 0x51, 0xc4, 0x3c, 0x26, 0xa2, 0x20, 0xbe,
    0x1d, 0xa4, 0x8a, 0xbd, 0xd2, 0x2b, 0x54, 0x3d, 0xd3, 0x01, 0x9a, 0x3d,
    0x5c, 0x7f, 0xc2, 0xbc, 0x6f, 0xb3, 0x13, 0xbe, 0x87, 0x78, 0x82, 0x3e,
    0x4f, 0xbf, 0x3a, 0x3d, 0xaf, 0x6c, 0x9f, 0x3d, 0x21, 0x08, 0x9d, 0x3e,
    0x82, 0xb4, 0xdd, 0xbd, 0x20, 0x07, 0x17, 0xbe, 0x5d, 0xba, 0x32, 0x3d,
    0x3a, 0x12, 0x66, 0x3b, 0x7a, 0x11, 0xba, 0xbe, 0xf1, 0x4d, 0x72, 0x3c,
    0x27, 0xec, 0x0c, 0xbd, 0x4b, 0x5c, 0x71, 0xbd, 0x5a, 0x11, 0x48, 0xbe,
    0xcd, 0xa4, 0x30, 0x3d, 0xc2, 0xcc, 0x99, 0xbc, 0x0f, 0xf3, 0x4e, 0xbe,
    0x65, 0xd7, 0xab, 0x3d, 0x1f, 0x06, 0xa9, 0x3c, 0x31, 0x48, 0x5e, 0xbe,
    0x1b, 0x81, 0xa9, 0x3e, 0xc6, 0x35, 0x9c, 0x3e, 0x8b, 0x12, 0xaa, 0xbd,
    0x49, 0x83, 0x12, 0xbe, 0xb2, 0xa7, 0xd4, 0xbd, 0xa8, 0x11, 0x2d, 0xbe,
    0x87, 0x7a, 0x8f, 0x3c, 0xc5, 0x33, 0x74, 0xbe, 0x98, 0xf9, 0x25, 0x3d,
    0xc8, 0x3a, 0x41, 0xbe, 0xf8, 0xc6, 0xe0, 0x3b, 0xee, 0x0b, 0x4f, 0xbd,
    0x89, 0x5b, 0x96, 0xbe, 0xb9, 0xfd, 0x9b, 0x3c, 0x8c, 0x81, 0x7c, 0x3c,
    0xb5, 0x22, 0x7e, 0xbe, 0xfe, 0x5a, 0x35, 0xbe, 0xd2, 0x3b, 0x47, 0x3e,
    0xe7, 0x84, 0x9f, 0xbc, 0x80, 0x42, 0x8b, 0xbd, 0x7b, 0x1e, 0x7b, 0xba,
    0x1d, 0xac, 0x0b, 0xbe, 0x9a, 0x79, 0xea, 0xbb, 0xfa, 0x7c, 0xa9, 0xbd,
    0xd2, 0xf6, 0x93, 0x3c, 0xa0, 0xf9, 0x86, 0xbd, 0xdd, 0x52, 0x43, 0x3d,
    0x85, 0x2d, 0xa4, 0xbd, 0xf1, 0xe2, 0x3a, 0xbe, 0x3b, 0x90, 0x75, 0x3d,
    0x84, 0x11, 0xcd, 0x3d, 0x1a, 0xe1, 0x1a, 0xbe, 0x1d, 0x4c, 0xe2, 0xbd,
    0x4c, 0x98, 0xc9, 0x3d, 0x25, 0x40, 0x15, 0x3e, 0xa5, 0xd2, 0x9b, 0xbb,
    0xfb, 0x3e, 0xfe, 0xba, 0xc0, 0x29, 0xc3, 0xbe, 0x06, 0x69, 0x16, 0xbd,
    0xb9, 0xaf, 0xb0, 0x3d, 0x04, 0x9b, 0xa1, 0x3c, 0x3a, 0xfd, 0x40, 0xbe,
    0x97, 0xca, 0x75, 0xbc, 0x11, 0x26, 0x53, 0x3d, 0xb8, 0x8b, 0xa4, 0xbe,
    0x8c, 0xf5, 0x94, 0x3c, 0xd3, 0xa8, 0x87, 0xbc, 0x0d, 0x5c, 0xa5, 0xbe,
    0x4d, 0x94, 0x2a, 0xbe, 0xe6, 0xc5, 0x10, 0x3c, 0x92, 0x84, 0x1c, 0x3e,
    0x5b, 0x47, 0x7a, 0xbd, 0x4c, 0x1a, 0x38, 0xbe, 0x2d, 0x76, 0x8d, 0xbe,
    0x0f, 0x91, 0x6a, 0xbc, 0x82, 0xc4, 0x95, 0x3e, 0x73, 0xfd, 0x6f, 0xbd,
    0xe5, 0xa1, 0x87, 0xbe, 0xb1, 0x2e, 0x61, 0x3c, 0x14, 0xec, 0x21, 0x3e,
    0x9a, 0x22, 0x8e, 0xbe, 0xca, 0xde, 0xcb, 0xbc, 0x77, 0xeb, 0x3b, 0xbe,
    0x6b, 0xfb, 0x05, 0xbf, 0xd0, 0x2d, 0xe0, 0x3c, 0x8c, 0xcf, 0xe1, 0x3e,
    0x2d, 0x87, 0xc6, 0x3d, 0xbb, 0x0b, 0x9c, 0xbd, 0x7b, 0xbd, 0x8e, 0xbe,
    0xdc, 0x28, 0xde, 0xbd, 0x5a, 0x6e, 0x6a, 0xbd, 0x03, 0x0d, 0x5a, 0x3e,
    0xdc, 0x39, 0x24, 0xbe, 0x91, 0xbc, 0x8f, 0xbe, 0xf6, 0xb0, 0x10, 0xbd,
    0xf5, 0x33, 0x42, 0x3e, 0x42, 0x18, 0x6c, 0xbe, 0x82, 0x20, 0x1c, 0xbd,
    0x5c, 0x31, 0x23, 0xbe, 0xeb, 0xde, 0x50, 0xbe, 0x4b, 0xb7, 0xb5, 0x3c,
    0xf3, 0x7c, 0xc4, 0x3e, 0x24, 0xeb, 0x3e, 0x3e, 0x7b, 0x1e, 0x78, 0xbd,
    0x5a, 0x40, 0x17, 0x3e, 0xa5, 0x50, 0x77, 0x3e, 0x16, 0xbc, 0xbd, 0xbd,
    0xca, 0x2f, 0xf3, 0x3c, 0x95, 0x80, 0x5d, 0xbe, 0x4c, 0x07, 0xbf, 0xbe,
    0xd3, 0x9f, 0x26, 0x3d, 0x17, 0xa5, 0x18, 0xbd, 0xa3, 0x6b, 0x37, 0xbe,
    0xac, 0x35, 0x19, 0xbd, 0x16, 0x09, 0x39, 0x3d, 0x4c, 0xc0, 0xd2, 0xbd,
    0xd8, 0x68, 0x97, 0x3d, 0xf8, 0xc7, 0x0e, 0xbe, 0x51, 0x45, 0x7e, 0x3d,
    0x54, 0xfd, 0x96, 0xbd, 0x15, 0x32, 0x88, 0x3d, 0x29, 0x30, 0x26, 0xbd,
    0xcd, 0xd3, 0xde, 0xbd, 0xb7, 0x69, 0x57, 0x3d, 0x2e, 0xf3, 0x1d, 0x3c,
    0x31, 0x8a, 0xb4, 0xbe, 0x3b, 0x1b, 0x55, 0x3d, 0x73, 0xa2, 0x2e, 0xbd,
    0x29, 0x9f, 0xda, 0xbb, 0x33, 0x3d, 0x87, 0x3d, 0xf9, 0x28, 0xa6, 0x3c,
    0x7f, 0x76, 0x93, 0xbc, 0x49, 0xf9, 0x22, 0x3d, 0x80, 0x8b, 0xbc, 0x3d,
    0x78, 0x8d, 0xf3, 0xbc, 0x9c, 0xa4, 0x30, 0xbd, 0xc5, 0x5c, 0xe9, 0x3d,
    0xd1, 0x31, 0xc5, 0xbd, 0x5c, 0xc0, 0x53, 0xbc, 0x0f, 0x26, 0x96, 0x3d,
    0x28, 0xd6, 0xf6, 0x3b, 0xfe, 0xd1, 0x17, 0xbe, 0x5a, 0x90, 0x7f, 0x3d,
    0x6f, 0x5c, 0x12, 0x3e, 0x69, 0xfd, 0x97, 0xbd, 0x42, 0x5f, 0x06, 0x3e,
    0x4d, 0x29, 0x67, 0x3c, 0x06, 0xa4, 0x18, 0xbd, 0x0a, 0xaa, 0x83, 0x3a,
    0x36, 0x2e, 0xc1, 0x3d, 0x52, 0x43, 0x66, 0xbd, 0x1f, 0x9c, 0xef, 0x3c,
    0x93, 0x40, 0xf7, 0x3c, 0x90, 0x7f, 0xeb, 0xbc, 0xc6, 0x61, 0x51, 0x3c,
    0x0a, 0x19, 0xdb, 0x3d, 0xe3, 0x53, 0x8b, 0xbb, 0xe9, 0x7e, 0x26, 0xbe,
    0x00, 0x48, 0x0c, 0xbd, 0xcc, 0x8c, 0x5e, 0xbd, 0x9f, 0x58, 0xe9, 0xbd,
    0x85, 0xad, 0xcd, 0x3d, 0x15, 0xa0, 0xa4, 0x3c, 0xd1, 0x21, 0x51, 0xbd,
    0x1a, 0x2b, 0x93, 0xbd, 0xa2, 0x95, 0xd6, 0x3d, 0xea, 0xf2, 0xe4, 0xbd,
    0xaa, 0xeb, 0xab, 0xbd, 0x95, 0x31, 0x6c, 0x3c, 0x49, 0xa7, 0x3c, 0xbd,
    0xdf, 0x2f, 0xfb, 0x3c, 0xed, 0xd3, 0x75, 0xbd, 0xf6, 0x2f, 0xe6, 0xbc,
    0x6d, 0xd2, 0x71, 0xbe, 0x60, 0x9f, 0x19, 0xbb, 0x56, 0xf7, 0x28, 0xbd,
    0xc3, 0x5a, 0x6f, 0xbe, 0x75, 0xf0, 0x17, 0x3d, 0x4e, 0xdb, 0x28, 0x3d,
    0x5c, 0x89, 0xa1, 0xbb, 0xd2, 0x47, 0xfa, 0x3d, 0x5f, 0xaa, 0x9c, 0x3d,
    0xe8, 0x52, 0xa9, 0xbd, 0xb2, 0xd9, 0xb5, 0xbc, 0xc7, 0xa4, 0x40, 0x3d,
    0x87, 0x6c, 0xa3, 0xbe, 0xc8, 0x9a, 0x5f, 0x3d, 0x74, 0x09, 0x91, 0xbd,
    0x59, 0x04, 0x4e, 0x3c, 0x66, 0xd8, 0x1b, 0xbe, 0x46, 0xc5, 0x6f, 0x3d,
    0x8f, 0x07, 0x16, 0x3b, 0x6d, 0x74, 0x17, 0xbe, 0x5f, 0x0b, 0xff, 0x3b,
    0x04, 0x54, 0x46, 0x3d, 0x41, 0x52, 0x29, 0x3e, 0x56, 0x49, 0x16, 0x3e,
    0x7f, 0xeb, 0x11, 0xbd, 0x00, 0xfb, 0xbe, 0xbd, 0x8a, 0x97, 0x1c, 0xbd,
    0x2b, 0x3c, 0x96, 0x3d, 0x5a, 0x6b, 0x80, 0xbe, 0x7a, 0x85, 0x00, 0x3d,
    0x9b, 0x86, 0x2b, 0x3e, 0x73, 0x32, 0x30, 0x3d, 0x1e, 0x8e, 0xa0, 0x3c,
    0x98, 0xb1, 0xdc, 0x3c, 0x9d, 0x42, 0x25, 0x3c, 0x20, 0x3a, 0x39, 0xbd,
    0xcc, 0x29, 0x8c, 0x3d, 0x65, 0x3f, 0x49, 0xbe, 0x93, 0xe1, 0xb2, 0x3d,
    0x18, 0x73, 0x2c, 0xbf, 0xe9, 0xde, 0x6a, 0x3e, 0x83, 0x02, 0x00, 0x3f,
    0xf4, 0xa8, 0xa4, 0xbe, 0x85, 0x2e, 0x29, 0x3d, 0xa0, 0x00, 0x20, 0xbf,
    0x21, 0xa3, 0x10, 0x3b, 0x86, 0x40, 0xb1, 0xbe, 0x1c, 0xe5, 0x52, 0x3d,
    0x4a, 0xf9, 0x6c, 0x3e, 0x70, 0x76, 0x8b, 0xbe, 0x6c, 0x3a, 0xc2, 0x3d,
    0xd4, 0xb4, 0x8a, 0x3d, 0x08, 0xe6, 0xd2, 0x3d, 0xeb, 0x99, 0x39, 0xbe,
    0x87, 0x4f, 0xa7, 0x3e, 0xb0, 0xfc, 0x2b, 0xbd, 0x60, 0x9c, 0x9a, 0x3d,
    0x73, 0xf9, 0xd0, 0x3d, 0xfa, 0x3d, 0xcd, 0xbe, 0xd8, 0x18, 0x17, 0xbe,
    0x20, 0xef, 0x24, 0x3f, 0xae, 0x98, 0x85, 0xbd, 0x50, 0xee, 0x6d, 0xbd,
    0x5a, 0x1a, 0x31, 0x3d, 0xe6, 0xac, 0xd4, 0x3d, 0x3d, 0xd2, 0x04, 0xbe,
    0x11, 0x17, 0xb3, 0x3b, 0xf2, 0x93, 0xdd, 0x3d, 0xab, 0xea, 0xcb, 0xbe,
    0xfe, 0x23, 0x01, 0xbd, 0xee, 0xac, 0xaa, 0x3d, 0xea, 0xa0, 0xa8, 0x3e,
    0xdb, 0x19, 0xff, 0x3a, 0x7b, 0x6b, 0xa8, 0x3d, 0x99, 0x5f, 0xa4, 0xbe,
    0x95, 0x56, 0x4a, 0x3d, 0x78, 0x16, 0xc8, 0x3e, 0x5b, 0xc3, 0x3b, 0xbe,
    0x96, 0x8b, 0x73, 0xba, 0x2f, 0x40, 0x09, 0x3d, 0xca, 0xc5, 0x21, 0xbc,
    0x1e, 0x42, 0x28, 0xbe, 0xee, 0x1a, 0xe1, 0xbd, 0x6b, 0x7f, 0x2f, 0xbc,
    0x5c, 0xb7, 0x62, 0xbf, 0xb8, 0x40, 0x38, 0xbd, 0x4a, 0xdf, 0xb7, 0x3d,
    0xd4, 0x39, 0xa2, 0x3d, 0xa7, 0x32, 0x79, 0x3d, 0x20, 0xdf, 0x3d, 0x3e,
    0xeb, 0x9b, 0xb7, 0x3d, 0x35, 0xda, 0x30, 0x3e, 0xc3, 0xfe, 0x18, 0x3f,
    0xf3, 0x02, 0x1f, 0xbe, 0x9c, 0xa7, 0xf3, 0x3e, 0x6f, 0x90, 0x12, 0x3e,
    0xe0, 0xeb, 0x21, 0x3d, 0x8f, 0xf5, 0xcd, 0x3c, 0xd0, 0x0b, 0xc3, 0xbd,
    0x9a, 0x72, 0xfe, 0x3c, 0x31, 0x22, 0x27, 0xbf, 0x06, 0x93, 0x7a, 0xbe,
    0x9a, 0x83, 0x78, 0x3d, 0xbc, 0xb1, 0x03, 0x3c, 0x6c, 0x49, 0x2a, 0x3e,
    0x10, 0x0e, 0x46, 0x3e, 0x09, 0xbc, 0x0a, 0xbe, 0x53, 0x27, 0x22, 0x3e,
    0x2f, 0x06, 0x06, 0x3f, 0xc6, 0x74, 0x6a, 0xbe, 0x0d, 0x8c, 0xe8, 0x3e,
    0x3c, 0x52, 0x4f, 0x3e, 0xb9, 0xbf, 0x89, 0x3d, 0x6f, 0xd8, 0x0c, 0xbe,
    0xc5, 0x41, 0x31, 0xbd, 0xe7, 0x10, 0xf2, 0x3d, 0x5e, 0xbd, 0x15, 0xbf,
    0x86, 0x47, 0xdc, 0xbe, 0x7c, 0xda, 0xc4, 0xbd, 0xed, 0x10, 0x98, 0x3e,
    0x96, 0x51, 0x7f, 0xbc, 0x3c, 0x13, 0xf0, 0x3d, 0x4e, 0x06, 0xaf, 0xbe,
    0x59, 0x34, 0x59, 0x3e, 0xc3, 0xa3, 0x2c, 0x3e, 0x72, 0x31, 0x70, 0xbe,
    0x4c, 0x6d, 0xf6, 0x3e, 0x73, 0x50, 0x35, 0x3b, 0x89, 0xd6, 0x81, 0x3d,
    0xa3, 0xc1, 0x88, 0xbd, 0xd9, 0xb0, 0x5d, 0x3d, 0xaa, 0x7b, 0xf9, 0x3d,
    0xab, 0xa9, 0x3c, 0xbf, 0xe9, 0x7b, 0x4c, 0xbf, 0xa8, 0xd6, 0x66, 0x3e,
    0x53, 0x6c, 0x0f, 0x3e, 0x07, 0xf3, 0x73, 0x3e, 0x73, 0x62, 0x44, 0xbd,
    0x2b, 0x91, 0x1a, 0x3e, 0xb4, 0xc5, 0x86, 0x3e, 0xfb, 0x9a, 0x41, 0x3f,
    0x3a, 0x80, 0xfc, 0xbe, 0x41, 0xb3, 0xa1, 0x3e, 0xae, 0xbf, 0x61, 0x3d,
    0x7b, 0x0d, 0x14, 0x3e, 0x4f, 0x5f, 0x64, 0xbd, 0x40, 0x32, 0xed, 0x3c,
    0x86, 0xa0, 0x3c, 0x3e, 0x26, 0xc9, 0x7c, 0xbf, 0xf1, 0x49, 0xf1, 0xbe,
    0xf2, 0x60, 0xca, 0x3e, 0x83, 0xd8, 0x82, 0xbe, 0x3e, 0xb5, 0xd9, 0x3d,
    0x57, 0x29, 0x88, 0xbe, 0x6f, 0xf0, 0x44, 0x3e, 0x49, 0x3f, 0x88, 0xbe,
    0xf1, 0x9f, 0x06, 0x3f, 0x1b, 0xf6, 0xb3, 0xbe, 0x2b, 0xc2, 0x31, 0x3f,
    0x02, 0xc1, 0x35, 0x3d, 0x16, 0xe8, 0xb8, 0x3b, 0xf6, 0xa8, 0x95, 0xbc,
    0x70, 0x51, 0x89, 0x3d, 0x17, 0xa8, 0x0f, 0xbe, 0xee, 0xb2, 0xad, 0xbe,
    0xaa, 0xaa, 0x44, 0xbe, 0xa5, 0xf9, 0x85, 0x3e, 0xb8, 0x39, 0x83, 0xbe,
    0x53, 0x48, 0x4a, 0x3e, 0xfd, 0xdd, 0xe7, 0xbd, 0x2f, 0xdf, 0x24, 0x3e,
    0x6e, 0x56, 0x7b, 0xbd, 0xa3, 0x61, 0xec, 0xbe, 0xf3, 0x92, 0x0e, 0xbf,
    0xab, 0x79, 0xf0, 0x3e, 0xc8, 0x9f, 0x8a, 0x3e, 0x11, 0x0d, 0x9a, 0xbd,
    0x9d, 0x00, 0xd7, 0xbd, 0xd6, 0x99, 0xe1, 0x3c, 0x5c, 0xaa, 0x8e, 0x3c,
    0x9c, 0x94, 0xd2, 0xbd, 0x9a, 0x8d, 0xb0, 0xbd, 0x1e, 0xb0, 0x79, 0x3e,
    0x97, 0xe8, 0xbc, 0xbe, 0x94, 0xb2, 0x3b, 0x3e, 0xd2, 0xae, 0x09, 0x3e,
    0x59, 0xb7, 0x8e, 0xbd, 0x2b, 0x2f, 0x93, 0xbd, 0xef, 0x3f, 0x2e, 0x3f,
    0xdd, 0x81, 0x1e, 0xbe, 0x1b, 0x9b, 0x98, 0x3e, 0x95, 0x1f, 0x00, 0x3e,
    0x46, 0x91, 0xcb, 0x3c, 0xbc, 0x5e, 0x39, 0xbe, 0xe7, 0xee, 0xdb, 0x3d,
    0x73, 0x85, 0xc6, 0x3b, 0x9c, 0x75, 0x86, 0x3e, 0x55, 0x91, 0x04, 0xbd,
    0x40, 0x31, 0xda, 0xbc, 0x54, 0x42, 0xf9, 0xbe, 0x27, 0x55, 0xac, 0x3d,
    0x89, 0x07, 0xc6, 0x3d, 0x4c, 0x80, 0x98, 0xbd, 0x66, 0xa7, 0x03, 0xbd,
    0x76, 0xd1, 0x27, 0x3f, 0xd7, 0xf0, 0x28, 0xbe, 0x4c, 0x9f, 0xb5, 0x3e,
    0x4b, 0x3d, 0x9e, 0x3d, 0xc9, 0x0b, 0xab, 0x3d, 0x60, 0xe0, 0xb3, 0xbd,
    0x02, 0x46, 0x95, 0xbc, 0x89, 0x24, 0xef, 0x3d, 0x95, 0xa2, 0xac, 0xbe,
    0xc8, 0x92, 0x70, 0xbe, 0xe8, 0x85, 0x74, 0x3e, 0x8a, 0xad, 0x66, 0xbf,
    0x71, 0xd0, 0xb9, 0x3d, 0xe8, 0xc8, 0x83, 0x3e, 0xb6, 0x5b, 0x0d, 0xbe,
    0x55, 0x47, 0xb0, 0xbb, 0x01, 0xd0, 0x99, 0x3e, 0x71, 0x55, 0x6d, 0xbe,
    0x08, 0x5c, 0x0a, 0x3f, 0x13, 0xa5, 0x1f, 0x3e, 0xce, 0xc9, 0x1d, 0x3d,
    0xfa, 0x04, 0x75, 0xbe, 0xa1, 0x10, 0xb1, 0xbd, 0x5a, 0x49, 0x94, 0x3d,
    0x54, 0xdf, 0xc6, 0xbe, 0x04, 0xc0, 0x52, 0xbe, 0xa2, 0xcb, 0x64, 0x3e,
    0xb9, 0x16, 0xd8, 0x3e, 0x48, 0xb4, 0x18, 0x3e, 0xbf, 0xb9, 0x59, 0x3e,
    0x8a, 0x04, 0x4d, 0xbe, 0x20, 0x3b, 0xda, 0xbd, 0xb9, 0x7e, 0x6b, 0x3f,
    0xcb, 0x85, 0xbb, 0xbe, 0x8a, 0x79, 0xbf, 0x3e, 0xd3, 0x51, 0xa7, 0x3d,
    0x6c, 0x64, 0x4c, 0x3d, 0x9d, 0x4f, 0xa8, 0xbd, 0x02, 0x9d, 0x00, 0xbe,
    0x25, 0xfc, 0x9a, 0x3d, 0xbe, 0x8c, 0x3e, 0xbf, 0x02, 0x7f, 0xdc, 0xbe,
    0x30, 0x6d, 0xbd, 0x3e, 0x51, 0xc6, 0x46, 0xbd, 0x12, 0x45, 0x7f, 0x3e,
    0xfe, 0x52, 0x3c, 0x3e, 0xd9, 0xd6, 0xd6, 0xbe, 0x53, 0x85, 0x0d, 0xbd,
    0x4b, 0x71, 0x42, 0x3e, 0xcc, 0x09, 0x27, 0xbe, 0x12, 0x23, 0x01, 0x3f,
    0x39, 0x11, 0x83, 0x3d, 0xe8, 0x0a, 0x67, 0x3d, 0x95, 0xe3, 0x87, 0xbe,
    0xf8, 0xf7, 0x1a, 0xbe, 0x73, 0x6c, 0x1c, 0x3e, 0x86, 0x72, 0x66, 0x3f,
    0x97, 0x97, 0x25, 0xbe, 0x62, 0x48, 0x3f, 0xbc, 0x6c, 0x21, 0x89, 0xbf,
    0xc6, 0x48, 0xbc, 0x3e, 0x66, 0xfb, 0x24, 0xbf, 0xca, 0x15, 0x19, 0x3f,
    0x4e, 0x61, 0x1b, 0xbf, 0xe2, 0x79, 0x18, 0x3f, 0xad, 0x38, 0x3b, 0xbe,
    0xcc, 0x00, 0x4e, 0x3f, 0x82, 0x3c, 0x17, 0xbf, 0x2b, 0xb1, 0xb4, 0x3d,
    0xbe, 0xf2, 0xa6, 0x3c, 0x38, 0x40, 0x07, 0xbd, 0x1a, 0x22, 0xbb, 0x3d,
    0xdf, 0xfd, 0xe0, 0x3d, 0x41, 0xb8, 0x15, 0xbe, 0x3a, 0xaa, 0x75, 0xbd,
    0x73, 0x41, 0xc5, 0xbe, 0x62, 0x15, 0x0f, 0x3f, 0x13, 0xcd, 0x6e, 0xbe,
    0x85, 0x3f, 0x57, 0x3e, 0x76, 0xd9, 0x47, 0xbe, 0xcb, 0x87, 0x56, 0x3f,
    0x83, 0x6f, 0xdc, 0xbe, 0xee, 0xf2, 0x20, 0x3f, 0xbe, 0xb5, 0x80, 0xbe,
    0x3a, 0x1c, 0x80, 0xbe, 0xea, 0x54, 0x07, 0xbf, 0xa0, 0x01, 0x43, 0x3c,
    0x2a, 0x7c, 0x04, 0xbe, 0x11, 0xef, 0xb4, 0xbd, 0x13, 0xf3, 0x37, 0x3e,
    0xcf, 0x09, 0xe9, 0xbd, 0xd1, 0xab, 0xe9, 0xbe, 0xf7, 0x6a, 0xa5, 0x3e,
    0x7a, 0x13, 0x18, 0xbe, 0x39, 0xf7, 0x93, 0x3e, 0x45, 0x7a, 0xaf, 0x3e,
    0xf8, 0xa0, 0x01, 0x3f, 0xbf, 0x71, 0x1a, 0xbe, 0x55, 0x83, 0xfc, 0x3e,
    0xaa, 0x6d, 0x65, 0xbe, 0x7d, 0x0c, 0x6e, 0xbe, 0xfd, 0x13, 0x3c, 0xbe,
    0x5b, 0x2b, 0x2e, 0xbd, 0x7c, 0x65, 0x10, 0xbe, 0xdc, 0x8e, 0xd5, 0x3d,
    0x73, 0xfb, 0x84, 0x3c, 0x89, 0xaf, 0x23, 0x3e, 0x0d, 0x36, 0x16, 0x3e,
    0xc0, 0x51, 0xb7, 0x3e, 0x8c, 0x3c, 0x92, 0xbe, 0xaa, 0xba, 0xb4, 0x3e,
    0x13, 0xbb, 0x97, 0x3e, 0x70, 0xdd, 0xc7, 0x3e, 0x16, 0x12, 0xc9, 0xbd,
    0xd9, 0xee, 0xc4, 0x3e, 0xc0, 0x9d, 0xb2, 0xbb, 0xa7, 0x73, 0x5d, 0xbe,
    0x72, 0x4a, 0x67, 0xbe, 0x60, 0x0e, 0x94, 0x3c, 0xa6, 0x05, 0x27, 0xbe,
    0x47, 0xa6, 0xc3, 0xbd, 0x30, 0x11, 0x51, 0x3e, 0x55, 0x4b, 0xa4, 0x3d,
    0x2d, 0x59, 0x0d, 0x3e, 0x26, 0xc9, 0xe9, 0x3e, 0xbc, 0x9b, 0xf2, 0xbe,
    0xdd, 0x1b, 0x09, 0x3e, 0xa7, 0xa8, 0xcd, 0x3e, 0x18, 0xd0, 0xc0, 0x3e,
    0x54, 0x3d, 0x22, 0xbe, 0x05, 0x32, 0xfb, 0x3e, 0x32, 0xa0, 0xe6, 0xbd,
    0xd0, 0xeb, 0xe4, 0xbd, 0x30, 0x60, 0xe6, 0xbd, 0x4b, 0x51, 0x54, 0x3d,
    0xae, 0xd7, 0x15, 0xbe, 0xde, 0xfd, 0x6c, 0xbe, 0xd6, 0xce, 0x70, 0x3e,
    0x38, 0x99, 0x6e, 0x3e, 0xb3, 0x32, 0x2a, 0xbc, 0xc6, 0xe1, 0xab, 0x3e,
    0x39, 0x2d, 0x04, 0xbe, 0x03, 0xcc, 0x2e, 0x3e, 0x2e, 0x5e, 0x19, 0x3f,
    0x1b, 0x2c, 0x59, 0x3e, 0x3d, 0x18, 0x8c, 0x3d, 0xcf, 0xfa, 0x17, 0x3f,
    0x19, 0xdb, 0xa0, 0x3e, 0xc9, 0x2e, 0xce, 0xbd, 0x8c, 0xde, 0x1e, 0xbe,
    0xc3, 0x4d, 0x5e, 0x3c, 0x3d, 0x56, 0x90, 0xbe, 0x0b, 0x24, 0x04, 0xbe,
    0x27, 0xb0, 0x2b, 0x3e, 0x9a, 0x90, 0x89, 0x3e, 0xa6, 0x0a, 0x0a, 0x3e,
    0x6a, 0xc8, 0x8a, 0x3e, 0x17, 0x2f, 0xc9, 0xbe, 0xa3, 0xea, 0x79, 0x3e,
    0x1a, 0xf5, 0x9f, 0x3a, 0x28, 0x2d, 0xc3, 0x3e, 0xb3, 0x1c, 0x8e, 0x3d,
    0x95, 0xf2, 0x0a, 0x3f, 0x1f, 0x4b, 0x14, 0x3e, 0xc8, 0xc2, 0x56, 0xbe,
    0x47, 0x5c, 0x7b, 0xbc, 0x35, 0x89, 0x4f, 0x3d, 0x87, 0x24, 0xb3, 0xbe,
    0x1f, 0xe2, 0x37, 0xbe, 0xa5, 0x30, 0x94, 0x3d, 0x2f, 0x73, 0x02, 0x3e,
    0x4b, 0x9a, 0x5e, 0x3e, 0xb7, 0xf6, 0xb9, 0x3e, 0x60, 0xe8, 0x03, 0xbf,
    0xf0, 0x3c, 0x58, 0x3e, 0xac, 0xb3, 0x98, 0xbd, 0xc8, 0xf7, 0xd6, 0x3e,
    0x98, 0x0e, 0x30, 0xbd, 0x6a, 0x0e, 0xe7, 0x3e, 0xbb, 0x0c, 0x69, 0xbd,
    0xdb, 0x51, 0x27, 0xbe, 0x93, 0xcd, 0x41, 0xbe, 0x6b, 0x21, 0xf7, 0xbd,
    0x25, 0x95, 0xb3, 0xbd, 0x15, 0xe6, 0x9e, 0xbd, 0xd3, 0xc5, 0xa5, 0x3d,
    0xde, 0x1e, 0x6e, 0x3d, 0xce, 0x5e, 0xd8, 0x3c, 0x86, 0x54, 0x1a, 0x3e,
    0x13, 0x8c, 0xcc, 0xbe, 0x38, 0x83, 0x49, 0x3c, 0x5d, 0x68, 0x80, 0xbd,
    0xff, 0x2b, 0xc3, 0x3e, 0x1b, 0xb2, 0x75, 0xbe, 0x79, 0x41, 0xe2, 0x3e,
    0x62, 0xde, 0xe8, 0x3c, 0xa4, 0x3a, 0xcf, 0xbd, 0x52, 0x55, 0x6e, 0xbd,
    0x99, 0x8a, 0xc1, 0xbd, 0x81, 0x01, 0x8c, 0xbe, 0x86, 0x9e, 0xda, 0x3b,
    0xe1, 0x91, 0x4c, 0x3c, 0xb7, 0x4b, 0xa2, 0x3d, 0xa6, 0xee, 0x47, 0x3e,
    0x4b, 0x99, 0xde, 0x3e, 0xdd, 0x43, 0x08, 0xbf, 0x00, 0x43, 0xbf, 0x3d,
    0x83, 0x73, 0x49, 0xbe, 0x0c, 0x1b, 0xc9, 0x3e, 0x41, 0xbf, 0xb3, 0x3b,
    0x15, 0x44, 0x05, 0x3f, 0x47, 0x48, 0x51, 0xbe, 0x4a, 0x9b, 0x76, 0xbe,
    0x9d, 0xb1, 0x36, 0xbe, 0xd8, 0xe8, 0xd3, 0xbd, 0x05, 0x93, 0x3d, 0xbe,
    0x23, 0x6b, 0xd2, 0xbd, 0xab, 0xf9, 0x50, 0xbd, 0xfc, 0xde, 0x26, 0x3d,
    0x75, 0xb5, 0xa4, 0xbc, 0x46, 0xaf, 0xce, 0x3e, 0x2a, 0x52, 0x02, 0xbf,
    0xcb, 0xa8, 0x90, 0x3e, 0x66, 0xc6, 0x65, 0xbd, 0xdc, 0xb8, 0x4c, 0x3f,
    0x25, 0x2c, 0xfc, 0xbd, 0x6a, 0x36, 0x8a, 0x3e, 0xb1, 0x57, 0xfe, 0xbc,
    0x62, 0x69, 0x08, 0xbe, 0x08, 0xef, 0x30, 0xbe, 0x34, 0xc2, 0xa0, 0x3d,
    0xff, 0xc1, 0x31, 0xbe, 0xf1, 0x4e, 0x90, 0x3d, 0x78, 0xde, 0x34, 0xbe,
    0xc2, 0x63, 0x4d, 0x3e, 0x1e, 0xa1, 0x59, 0x3e, 0xb7, 0xab, 0x86, 0x3e,
    0xce, 0x47, 0x2c, 0xbf, 0x1b, 0xa0, 0xf3, 0x3d, 0xd4, 0xb3, 0x02, 0xbf,
    0x2a, 0xac, 0x2e, 0x3f, 0xcc, 0x1a, 0x68, 0xbe, 0x66, 0x5e, 0x22, 0x3f,
    0x1e, 0xd8, 0xb0, 0xbe, 0x4f, 0x07, 0x3d, 0xbe, 0x7c, 0xe1, 0x38, 0xbe,
    0xb1, 0x60, 0xb6, 0x3d, 0xeb, 0x84, 0x2e, 0xbd, 0xba, 0x7e, 0xd3, 0x3d,
    0x95, 0x43, 0xb9, 0xbc, 0x1c, 0xce, 0x94, 0x3c, 0x69, 0x1b, 0xa1, 0x3b,
    0x89, 0x96, 0xa3, 0x3e, 0x70, 0xd3, 0xe2, 0xbe, 0xe6, 0x47, 0xa7, 0x3e,
    0x5b, 0xc6, 0x2d, 0xbf, 0x59, 0x5d, 0xd5, 0x3e, 0xbc, 0x9e, 0x77, 0xbe,
    0x3a, 0x48, 0xf4, 0x3e, 0x04, 0xf1, 0xbd, 0xbe, 0xd2, 0x8f, 0xcc, 0xbe,
    0x0f, 0xd3, 0x0b, 0xbe, 0xe2, 0x01, 0x3e, 0x3d, 0xc2, 0xfa, 0xda, 0xbd,
    0xef, 0xff, 0xee, 0x3d, 0x4e, 0xb6, 0x4d, 0xbd, 0x48, 0x6c, 0x94, 0xbe,
    0x54, 0xb6, 0x36, 0x3c, 0xfb, 0x7b, 0x9e, 0x3e, 0x5b, 0x5a, 0x18, 0xbd,
    0x5f, 0xe4, 0x4b, 0x3e, 0xcd, 0x29, 0xda, 0x3d, 0xdd, 0xb2, 0xbc, 0x3e,
    0x13, 0x66, 0x1d, 0xbe, 0x58, 0xc8, 0x0d, 0xbe, 0xd9, 0xe3, 0x12, 0xbd,
    0xae, 0x8a, 0xe9, 0xbe, 0x5f, 0x25, 0x39, 0xbc, 0x23, 0x68, 0x76, 0xbd,
    0x0c, 0x66, 0x23, 0xbe, 0x5f, 0xfa, 0xb8, 0xbe, 0x5e, 0x00, 0x87, 0xbe,
    0xe6, 0x32, 0x88, 0x3e, 0x8d, 0xb9, 0x43, 0xbf, 0x17, 0x98, 0x91, 0xbd,
    0x58, 0x3b, 0x3a, 0x3f, 0x8d, 0x41, 0x6b, 0xbd, 0xf8, 0x49, 0x1c, 0xbf,
    0x2f, 0x2f, 0x16, 0xbe, 0x2d, 0xbf, 0xbf, 0xbe, 0xf2, 0x06, 0x07, 0x3d,
    0x67, 0xe1, 0x9a, 0x3d, 0xf3, 0x2c, 0xa6, 0x3e, 0x28, 0xcb, 0xc8, 0xbe,
    0xa6, 0xeb, 0x70, 0xbd, 0x2d, 0x23, 0x34, 0xbd, 0x09, 0xe7, 0x8c, 0x3e,
    0x30, 0x7b, 0xd3, 0xbd, 0x5f, 0xc3, 0x99, 0x3e, 0x92, 0xfd, 0xd2, 0xbe,
    0x11, 0xa3, 0xc8, 0xbd, 0x41, 0xaf, 0x02, 0x3e, 0xcd, 0x61, 0xef, 0xbe,
    0x10, 0x74, 0x1a, 0x3e, 0x29, 0x5a, 0xa7, 0x3e, 0xa5, 0x60, 0xd1, 0xbe,
    0x8a, 0xc6, 0x5f, 0x3e, 0x74, 0xd3, 0x08, 0x3e, 0x5b, 0xd0, 0x44, 0x3d,
    0xc8, 0xef, 0xac, 0xbe, 0xfe, 0x9c, 0x80, 0xbd, 0x6d, 0xe2, 0x41, 0xbd,
    0xc4, 0x5d, 0x82, 0x3d, 0x5a, 0xb5, 0x27, 0xbe, 0x54, 0xb6, 0x29, 0x3e,
    0x3b, 0x42, 0x32, 0x3f, 0x97, 0x3b, 0xfc, 0x3d, 0xab, 0x50, 0x62, 0x3e,
    0x8d, 0xac, 0x83, 0xbe, 0x8f, 0xa9, 0x26, 0x3e, 0x24, 0x39, 0xcd, 0x3e,
    0x26, 0x8f, 0x83, 0xbe, 0x24, 0x5a, 0x55, 0x3e, 0x7a, 0x18, 0xe1, 0xbc,
    0xb2, 0xa4, 0x0e, 0x3e, 0x8e, 0x51, 0x55, 0xbe, 0x61, 0x15, 0x46, 0xbe,
    0x7d, 0x88, 0x95, 0x3d, 0xd4, 0xa4, 0x2d, 0xbf, 0x82, 0xf9, 0x4e, 0xbe,
    0x39, 0xec, 0xd0, 0x3b, 0x38, 0x2b, 0xda, 0x3d, 0xc9, 0xa9, 0x0e, 0xbd,
    0xff, 0xa7, 0x7d, 0x3e, 0xaf, 0x0b, 0x30, 0x3e, 0x95, 0xd2, 0x6a, 0x3e,
    0x87, 0xe2, 0xea, 0x3e, 0x12, 0x68, 0x20, 0xbe, 0xa1, 0x51, 0xcc, 0x3e,
    0xd0, 0xa3, 0xc0, 0x3d, 0xdd, 0xa0, 0xc9, 0x3c, 0xaa, 0x49, 0x8f, 0xbd,
    0x48, 0xf1, 0x04, 0x3d, 0x83, 0x32, 0x0d, 0xbb, 0xbb, 0xf2, 0xa0, 0xbe,
    0xb2, 0xbd, 0x6e, 0xbe, 0x62, 0x84, 0x7e, 0x3e, 0x52, 0xcc, 0x3a, 0x3e,
    0x08, 0x26, 0xa0, 0x3d, 0x63, 0x47, 0x8c, 0x3e, 0xf8, 0x8f, 0x88, 0xbd,
    0x6c, 0xc0, 0xd7, 0x3e, 0x16, 0x3b, 0x23, 0x3f, 0x64, 0x9f, 0x73, 0xbe,
    0x18, 0x55, 0x19, 0x3f, 0xdf, 0xbe, 0x4f, 0x3d, 0x4d, 0x7d, 0x18, 0x3e,
    0x2b, 0x7e, 0x86, 0xbe, 0xea, 0xd7, 0xd4, 0xbc, 0xbb, 0xb1, 0x2f, 0xbc,
    0x47, 0xe2, 0xfd, 0xbe, 0xb8, 0x98, 0x29, 0xbe, 0xac, 0x5f, 0x54, 0x3e,
    0x1f, 0x93, 0x04, 0x3f, 0x73, 0xaa, 0x25, 0x3e, 0xe6, 0xb0, 0xb8, 0x3d,
    0x16, 0x76, 0x7c, 0xbe, 0xeb, 0x4d, 0xce, 0x3e, 0x09, 0x58, 0x9d, 0x3e,
    0xa1, 0xf8, 0x79, 0xbe, 0xb8, 0xe8, 0x58, 0x3e, 0x7c, 0x4b, 0x98, 0x3e,
    0x5f, 0xfe, 0x9a, 0x3d, 0x16, 0x59, 0x27, 0xbe, 0xad, 0xf1, 0x0f, 0xbe,
    0xb6, 0xac, 0x19, 0x3e, 0xe8, 0x50, 0x21, 0xbf, 0xcd, 0xe8, 0xf0, 0xbe,
    0x1a, 0xc2, 0x47, 0x3e, 0x76, 0x34, 0x27, 0x3f, 0x35, 0x33, 0xe6, 0xbd,
    0x14, 0xcb, 0xcf, 0x3d, 0x53, 0x47, 0x0d, 0x3d, 0x40, 0x65, 0xc3, 0x3e,
    0x6c, 0xe0, 0x00, 0x3f, 0x4a, 0x0e, 0x9c, 0xbe, 0xcb, 0x18, 0x09, 0x3f,
    0x34, 0x8d, 0x2c, 0xbe, 0xe7, 0x9f, 0xcc, 0x3d, 0xbe, 0x50, 0x06, 0xbe,
    0x80, 0xa2, 0x09, 0xbe, 0xbc, 0x9f, 0x4a, 0x3e, 0xeb, 0x9b, 0x5f, 0xbf,
    0xb9, 0xa8, 0x45, 0xbf, 0x00, 0x41, 0x01, 0x3d, 0x73, 0x2f, 0x83, 0x3e,
    0x75, 0x34, 0x09, 0xbc, 0x28, 0xca, 0x6c, 0x3e, 0x62, 0x16, 0x82, 0x3e,
    0x13, 0xe4, 0xbc, 0x3e, 0xe1, 0x33, 0xd5, 0x3d, 0xa3, 0x36, 0xc5, 0xbe,
    0x4d, 0x4a, 0x36, 0x3e, 0x73, 0x67, 0xd1, 0xbc, 0x1d, 0xaa, 0x6d, 0x3e,
    0x07, 0x26, 0xd1, 0xbd, 0x77, 0x0f, 0x2d, 0xbd, 0xe6, 0x70, 0xd8, 0x3d,
    0x1c, 0x94, 0xbd, 0xbe, 0xa9, 0x67, 0x16, 0xbf, 0x00, 0x7c, 0xb1, 0x3b,
    0xb8, 0x23, 0x32, 0x3f, 0x76, 0x0a, 0xf2, 0x3d, 0x16, 0x5d, 0xfd, 0xbd,
    0xda, 0xdc, 0x83, 0x3e, 0x7e, 0xd0, 0x7f, 0x3e, 0xb7, 0x69, 0x14, 0x3e,
    0x23, 0x4a, 0xf9, 0xbe, 0x82, 0x2f, 0xae, 0x3e, 0x93, 0x5b, 0x0a, 0xbf,
    0x8a, 0xbf, 0x10, 0xbf, 0x18, 0x2f, 0xa5, 0x3b, 0xae, 0x8a, 0x27, 0xbe,
    0xdf, 0xaf, 0x7c, 0xbe, 0x72, 0x54, 0x48, 0xbe, 0x4f, 0x2f, 0x2f, 0xbf,
    0x58, 0x1d, 0x5c, 0xbd, 0x1b, 0x89, 0x04, 0x3f, 0xab, 0x7e, 0x92, 0xbd,
    0x4a, 0x3e, 0x7f, 0x3d, 0x6f, 0x9e, 0xd2, 0x3e, 0x65, 0x01, 0x01, 0x3e,
    0x94, 0x4c, 0x4c, 0xbe, 0x32, 0xfb, 0x1b, 0xbf, 0xf6, 0x7a, 0xff, 0x3e,
    0x5c, 0xc5, 0xda, 0xbe, 0x02, 0x3a, 0xdb, 0xbe, 0xff, 0xb7, 0xf3, 0xbd,
    0xdf, 0x5d, 0x09, 0xbe, 0x39, 0x4e, 0x1a, 0xbe, 0x30, 0x11, 0xd1, 0xbc,
    0xc6, 0xda, 0x37, 0xbd, 0x71, 0xba, 0x9a, 0x3b, 0x1c, 0x16, 0x8d, 0x3e,
    0xcb, 0x97, 0x8c, 0xbd, 0xf1, 0x2c, 0x99, 0xbe, 0xb6, 0x22, 0xb0, 0x3c,
    0x44, 0x29, 0xd0, 0x3d, 0x3d, 0x47, 0x0b, 0x3e, 0x1f, 0x78, 0xdb, 0xbe,
    0xbe, 0xf3, 0x39, 0x3f, 0x65, 0x98, 0x8c, 0xbe, 0x20, 0x68, 0x83, 0xbe,
    0xb4, 0x35, 0x25, 0xbe, 0xfa, 0x8e, 0xd6, 0x3d, 0x1b, 0xe3, 0xb1, 0x3d,
    0xe0, 0x89, 0x3f, 0xbd, 0x29, 0x60, 0x34, 0xbe, 0xc9, 0x9e, 0x83, 0x3e,
    0x06, 0x2c, 0x6b, 0x3e, 0x4c, 0x53, 0xb5, 0xbd, 0x68, 0xe7, 0xbf, 0xbe,
    0xef, 0x91, 0x1d, 0xbd, 0xf4, 0x91, 0xb9, 0xbc, 0x3b, 0x08, 0x1f, 0xbe,
    0x07, 0xe9, 0x4a, 0xbe, 0xe6, 0xfc, 0x0f, 0x3f, 0x9d, 0x52, 0x07, 0xbe,
    0x6b, 0x44, 0xe7, 0xbd, 0x31, 0xae, 0xc6, 0xbd, 0x16, 0x3f, 0x14, 0x3d,
    0x93, 0x3a, 0x8a, 0x3d, 0x77, 0x2d, 0x5e, 0x3d, 0x9b, 0x6e, 0x80, 0xbe,
    0x44, 0x84, 0x2f, 0xbd, 0xa2, 0x5f, 0xef, 0x3d, 0x0e, 0xb2, 0xa5, 0xbc,
    0x7c, 0x17, 0xa9, 0xbe, 0xea, 0xdc, 0xa6, 0x3e, 0xf5, 0x2e, 0x37, 0xbe,
    0x20, 0x48, 0xf1, 0xbd, 0xd5, 0xd8, 0x1f, 0xbe, 0x8e, 0x13, 0xc7, 0x3e,
    0xfa, 0xfa, 0x04, 0xbe, 0x62, 0xf3, 0x59, 0xbe, 0xba, 0x1c, 0x5d, 0xbe,
    0x2b, 0xde, 0x18, 0xbe, 0x95, 0x8e, 0xd9, 0xbc, 0xab, 0x39, 0xbe, 0xbd,
    0xf1, 0xd3, 0xce, 0xbd, 0x31, 0x03, 0x4a, 0x3c, 0x31, 0xcf, 0x93, 0x3d,
    0x85, 0x86, 0xdc, 0x3e, 0xdf, 0x94, 0x46, 0xbe, 0xb0, 0xbe, 0xaf, 0x3d,
    0x67, 0x82, 0x54, 0xbe, 0x24, 0xc5, 0x02, 0x3e, 0x79, 0xfe, 0xf7, 0xbb,
    0x8a, 0x6a, 0x30, 0xbc, 0xf4, 0x2c, 0xc0, 0xbd, 0x4e, 0x8d, 0xa1, 0xbe,
    0x94, 0xf6, 0x93, 0xbd, 0xcd, 0x56, 0xbb, 0xbb, 0x9d, 0x7d, 0xc6, 0xbd,
    0xc1, 0xaf, 0xd5, 0xbe, 0xe3, 0x96, 0x8e, 0xbe, 0x1a, 0x26, 0x43, 0xbe,
    0x98, 0x74, 0xd7, 0x3d, 0x4f, 0x95, 0x98, 0x3e, 0xe1, 0xe1, 0x8e, 0x3d,
    0x27, 0x7a, 0xea, 0x3d, 0xf5, 0x2e, 0x14, 0x3e, 0xbd, 0xc0, 0xb2, 0x3e,
    0x3f, 0x81, 0xbd, 0xbe, 0xec, 0x40, 0xe3, 0x3e, 0x87, 0x4a, 0x0d, 0xbe,
    0xd4, 0x9f, 0x23, 0xbf, 0xae, 0x7c, 0xe6, 0x3d, 0x91, 0xb3, 0xa6, 0x3d,
    0x4a, 0x52, 0xc1, 0xbd, 0xfe, 0x02, 0xa4, 0xbe, 0x93, 0x5b, 0xc6, 0xbe,
    0x7f, 0x70, 0x40, 0xbf, 0x50, 0xe5, 0x1b, 0x3d, 0x54, 0xb0, 0x8d, 0x3e,
    0x81, 0xc3, 0xa5, 0xbd, 0xaf, 0x67, 0xc0, 0xbe, 0xdc, 0x28, 0x54, 0x3e,
    0xb1, 0x6c, 0xf4, 0x3d, 0x5e, 0x42, 0xf0, 0xbe, 0xfa, 0x2d, 0x60, 0x3e,
    0x6c, 0xbd, 0x6c, 0xbe, 0xbd, 0x94, 0x9f, 0xbe, 0xd0, 0x2f, 0x2d, 0x3d,
    0x9b, 0x1a, 0x20, 0xbc, 0x44, 0xea, 0xe2, 0xbd, 0x41, 0xae, 0xdb, 0xbe,
    0x6d, 0xdc, 0xc9, 0xbe, 0x05, 0x00, 0x46, 0xbe, 0xd2, 0xf6, 0xe8, 0x3c,
    0xfa, 0x41, 0x5c, 0x3e, 0xbe, 0xcf, 0x2c, 0xbd, 0x76, 0x67, 0xee, 0xbd,
    0xf4, 0x8e, 0x8e, 0x3e, 0xe8, 0x0d, 0xf0, 0x3e, 0x1d, 0xe3, 0x3d, 0xbf,
    0xef, 0x82, 0xee, 0x3e, 0x72, 0xac, 0xde, 0xbe, 0x9b, 0x27, 0x07, 0xbe,
    0x3e, 0x54, 0x99, 0x3d, 0x4d, 0x33, 0x52, 0x3d, 0xe8, 0x46, 0x86, 0x3d,
    0x53, 0x0e, 0x01, 0xbf, 0x85, 0x53, 0x56, 0xbe, 0x59, 0xce, 0x11, 0xbe,
    0x07, 0x67, 0x27, 0xbd, 0x20, 0x6a, 0x5b, 0x3e, 0xf7, 0x2d, 0x6b, 0xbd,
    0x2f, 0xb0, 0xb7, 0xbd, 0x96, 0xff, 0xe2, 0x3d, 0x9a, 0xe6, 0xfe, 0x3d,
    0xf9, 0x57, 0xea, 0xbe, 0x48, 0x48, 0x65, 0x3e, 0x2d, 0xa4, 0xb0, 0xbe,
    0xb8, 0x7c, 0x2b, 0xbe, 0xbc, 0x80, 0x52, 0x3d, 0x14, 0xf5, 0xf8, 0x3d,
    0xfc, 0x36, 0xc9, 0x3b, 0x08, 0x4c, 0x91, 0xbe, 0x92, 0xff, 0xe1, 0xbc,
    0x2a, 0x3a, 0x13, 0xbd, 0x8e, 0x6c, 0x01, 0xbe, 0x4e, 0x9f, 0x7e, 0x3e,
    0x04, 0xf3, 0x30, 0xbd, 0xf5, 0x83, 0x80, 0x3c, 0x5a, 0x78, 0x17, 0x3e,
    0xe0, 0x03, 0x85, 0x3e, 0x5e, 0x7b, 0x5c, 0xbe, 0x2e, 0x65, 0x92, 0x3e,
    0xae, 0xfe, 0x1b, 0xbe, 0x85, 0x39, 0x27, 0xbe, 0x1a, 0xad, 0x91, 0x3d,
    0xab, 0x19, 0xc9, 0xbc, 0xf1, 0xeb, 0xe5, 0x3c, 0xe8, 0x0d, 0x62, 0xbe,
    0xae, 0x96, 0x1e, 0xbd, 0x59, 0x6a, 0x26, 0x3e, 0x7c, 0x58, 0x53, 0xbe,
    0xd6, 0x00, 0x09, 0x3e, 0x63, 0x64, 0x8d, 0xbd, 0xc1, 0x2f, 0xba, 0x3e,
    0x20, 0x00, 0xa8, 0x3e, 0xa0, 0xb7, 0x41, 0x3e, 0x03, 0x54, 0xb6, 0xbd,
    0x69, 0x68, 0xc9, 0x3e, 0x83, 0x97, 0x8c, 0xbe, 0xa2, 0xa2, 0x45, 0xbd,
    0x17, 0x5e, 0xc5, 0x3d, 0xd6, 0x7b, 0x21, 0xbe, 0x27, 0x7a, 0x9e, 0xbd,
    0x3c, 0x2b, 0xcd, 0x3d, 0x6a, 0x5b, 0x42, 0xbe, 0x12, 0x0c, 0x1b, 0x3d,
    0x65, 0x6e, 0xf1, 0xbd, 0x59, 0x8c, 0xd5, 0x3d, 0x15, 0x2e, 0x81, 0x3e,
    0x30, 0x82, 0x7d, 0x3e, 0xfc, 0xf0, 0x0b, 0x3e, 0x74, 0x2a, 0xe9, 0x3d,
    0xa3, 0xb2, 0xa5, 0xbe, 0xa0, 0xe6, 0x8d, 0x3e, 0xba, 0x74, 0x60, 0xbe,
    0x18, 0x05, 0x23, 0xbc, 0xb1, 0x0e, 0xa8, 0xbc, 0xdd, 0x86, 0xd6, 0x3d,
    0x8e, 0xc7, 0xd4, 0xbb, 0xae, 0xce, 0x15, 0x3e, 0x69, 0x42, 0x4d, 0xbe,
    0xab, 0x8e, 0x82, 0xbe, 0x65, 0x9a, 0x1a, 0x3d, 0x5f, 0x89, 0x30, 0x3e,
    0x59, 0x35, 0x0c, 0xbc, 0xd8, 0x63, 0x10, 0x3e, 0xff, 0x6b, 0xc2, 0x3d,
    0x02, 0xb8, 0x87, 0x3d, 0x32, 0x21, 0x75, 0xbe, 0x5b, 0x0d, 0x70, 0x3e,
    0x6d, 0x58, 0x58, 0xbd, 0xc0, 0x9c, 0x66, 0x3d, 0xab, 0xa9, 0x4b, 0x3d,
    0x81, 0xb0, 0x41, 0x3d, 0x19, 0x08, 0xe1, 0xbd, 0xb9, 0x2a, 0x24, 0x3c,
    0x8a, 0x91, 0x90, 0xbe, 0x17, 0x9a, 0xd5, 0xbe, 0x11, 0x1b, 0x2a, 0x3e,
    0xfc, 0xad, 0x6f, 0x3d, 0x03, 0x2d, 0x90, 0x3c, 0xc5, 0x64, 0xaf, 0x3e,
    0x6d, 0xed, 0xdf, 0x3e, 0x72, 0x3f, 0x07, 0x3e, 0x41, 0x6e, 0x6a, 0xbe,
    0x0a, 0x7e, 0x8a, 0x3e, 0xef, 0x09, 0x2a, 0xbd, 0x16, 0x2b, 0xeb, 0x3d,
    0x4e, 0x16, 0x6c, 0x3d, 0x91, 0x5a, 0x00, 0xbe, 0xea, 0x11, 0x9a, 0x3d,
    0xa8, 0xe8, 0x98, 0x3a, 0x4c, 0x55, 0xb8, 0xbe, 0xc8, 0x3e, 0x17, 0xbf,
    0x9f, 0xf5, 0x9d, 0xbc, 0x7f, 0x06, 0x13, 0x3e, 0x55, 0xe9, 0xc5, 0xbd,
    0xe6, 0xfd, 0xb2, 0x3d, 0x58, 0x8c, 0xba, 0x3e, 0x85, 0x35, 0x63, 0x3e,
    0x33, 0xfb, 0x9c, 0xbe, 0x1f, 0x81, 0x1f, 0x3e, 0x94, 0xa8, 0x4b, 0xbe,
    0xf3, 0x27, 0xb5, 0x3d, 0xca, 0x78, 0x86, 0x3d, 0xe2, 0xbe, 0x2b, 0xbe,
    0x28, 0x97, 0x0c, 0x3e, 0x5b, 0x71, 0x77, 0x3c, 0x68, 0x9c, 0xa8, 0xbe,
    0x9a, 0x0a, 0x1c, 0xbf, 0x6c, 0x69, 0xfb, 0xbc, 0xa1, 0x05, 0x2a, 0x3e,
    0xb4, 0x0b, 0xb5, 0xbd, 0x7c, 0xd7, 0x03, 0xbe, 0x63, 0x55, 0x46, 0x3e,
    0xa3, 0x23, 0xd6, 0x3e, 0x0f, 0x93, 0xeb, 0xbe, 0x66, 0xe3, 0x93, 0x3e,
    0x68, 0x9b, 0x38, 0xbe, 0x69, 0x54, 0xc6, 0xbc, 0xe5, 0xe0, 0x9d, 0x3d,
    0x6b, 0x53, 0xac, 0xbd, 0xba, 0x7f, 0x81, 0xbc, 0x9c, 0x2d, 0xe6, 0xbe,
    0xde, 0xc7, 0x04, 0xbf, 0xd9, 0xf6, 0x2a, 0xbf, 0x2c, 0xab, 0xd1, 0xbd,
    0x64, 0xbf, 0x7f, 0x3d, 0xbe, 0xfa, 0x4f, 0xbd, 0x38, 0x27, 0x98, 0x3d,
    0x9d, 0xd6, 0x85, 0x3e, 0xe4, 0x1d, 0x25, 0x3e, 0x8c, 0x51, 0x05, 0xbf,
    0x11, 0x12, 0x92, 0x3e, 0x3d, 0xc1, 0x8c, 0xbe, 0xa9, 0x7a, 0xae, 0x3d,
    0x4c, 0x0d, 0x04, 0x3d, 0x58, 0xd7, 0x20, 0xbe, 0x38, 0xad, 0x80, 0xbd,
    0xd2, 0x9e, 0xdf, 0xbe, 0xf3, 0x8d, 0xce, 0xbe, 0x58, 0x73, 0xdd, 0xbe,
    0x55, 0xa9, 0xd0, 0xbe, 0xb6, 0x01, 0x6a, 0x3e, 0x04, 0x64, 0xb6, 0xbd,
    0x26, 0xe8, 0x4f, 0x3d, 0x2e, 0x30, 0x41, 0x3e, 0x96, 0xca, 0x69, 0x3e,
    0x5a, 0x71, 0x03, 0xbf, 0xc9, 0x5e, 0xe3, 0x3e, 0xbe, 0xfd, 0x9f, 0xbe,
    0x75, 0x18, 0xaf, 0x3d, 0xcc, 0x6b, 0x41, 0xba, 0x07, 0x29, 0xa5, 0xbd,
    0x5c, 0xbe, 0x34, 0xbd, 0xdb, 0xb7, 0x02, 0xbd, 0xc4, 0xf1, 0x66, 0xbf,
    0xc8, 0xff, 0x76, 0xbf, 0xdb, 0xcb, 0x71, 0x3e, 0xaf, 0x76, 0x3b, 0xbd,
    0xd1, 0x84, 0x29, 0x3e, 0xd0, 0xa6, 0x5f, 0xbd, 0x0b, 0x94, 0xb3, 0x3d,
    0x69, 0x04, 0x44, 0x3e, 0x13, 0xb4, 0x87, 0xbe, 0x14, 0xc9, 0x56, 0x3e,
    0x04, 0x8a, 0x18, 0xbe, 0x26, 0x8f, 0xb3, 0x3b, 0x9d, 0x31, 0x09, 0xbe,
    0x69, 0x04, 0x2e, 0xbb, 0xef, 0xe4, 0xfd, 0xbd, 0x75, 0x47, 0x1a, 0xbf,
    0xab, 0x2b, 0x5b, 0xbe, 0x71, 0xb8, 0x94, 0xbe, 0xf7, 0x84, 0xa3, 0x3d,
    0x69, 0xbc, 0x6a, 0xbd, 0xf9, 0x14, 0xd7, 0xbc, 0x2c, 0x72, 0x10, 0xbf,
    0xf0, 0x8b, 0x02, 0x3f, 0x1e, 0xdf, 0x0d, 0x3e, 0x79, 0xc1, 0x57, 0x3e,
    0x6e, 0x85, 0x37, 0x3e, 0x27, 0xd3, 0x01, 0xbe, 0xc2, 0x1d, 0x72, 0x3d,
    0x86, 0x3f, 0x1c, 0x3c, 0xd8, 0x49, 0x75, 0xbd, 0xee, 0xa6, 0xc9, 0x3c,
    0x7c, 0xd1, 0x86, 0x3e, 0x97, 0x86, 0x61, 0x3d, 0xea, 0xd7, 0x48, 0xbe,
    0x2d, 0x37, 0x0c, 0x3f, 0xac, 0xf1, 0xfa, 0x3e, 0x19, 0x56, 0x04, 0xbf,
    0xf9, 0x0a, 0x74, 0xbd, 0x2f, 0x43, 0x67, 0x3e, 0xdd, 0x0f, 0x88, 0xbe,
    0xdc, 0x88, 0x0b, 0x3e, 0x82, 0x8e, 0x1d, 0xbe, 0xc4, 0x7d, 0x50, 0xbe,
    0xa4, 0x38, 0xa0, 0xbe, 0x2f, 0xd2, 0x0e, 0x3e, 0x0c, 0x4c, 0x34, 0xbe,
    0x4e, 0x64, 0xc5, 0x3c, 0xd0, 0x3f, 0xd3, 0x3e, 0x65, 0xd1, 0x1f, 0x3e,
    0xe6, 0xa8, 0xb4, 0xbe, 0xb2, 0x85, 0xfd, 0x3e, 0x02, 0x9c, 0x89, 0x3e,
    0x00, 0x74, 0x69, 0xbe, 0xdf, 0xe3, 0x01, 0xbe, 0xab, 0x24, 0x93, 0xbe,
    0xc8, 0x7c, 0x04, 0xbd, 0x33, 0x94, 0x59, 0x3d, 0x82, 0xe8, 0x39, 0x3e,
    0x59, 0x8f, 0xfb, 0xbd, 0xd3, 0x1b, 0x73, 0xbe, 0x43, 0x60, 0xd7, 0xbd,
    0xa8, 0x50, 0x1d, 0xbe, 0xd6, 0xd0, 0x7d, 0xbe, 0xab, 0x1e, 0x0c, 0x3e,
    0xa4, 0x68, 0x22, 0x3e, 0xa1, 0xd0, 0x81, 0xbe, 0x3b, 0xfd, 0xd0, 0xbe,
    0xd5, 0x70, 0x9d, 0x3e, 0xb9, 0xf8, 0x9c, 0x3d, 0x06, 0xcd, 0x15, 0x3d,
    0xa6, 0x65, 0x01, 0xbf, 0xb4, 0x1d, 0x04, 0xbc, 0x18, 0x15, 0xf7, 0x3c,
    0xa5, 0x38, 0x80, 0x3e, 0xbb, 0xda, 0x1a, 0xbe, 0x2a, 0x65, 0xb5, 0xbd,
    0x17, 0xeb, 0x19, 0xbe, 0x3c, 0x5c, 0xbd, 0xbc, 0xe1, 0x11, 0x68, 0xbe,
    0x8b, 0x28, 0x10, 0x3e, 0x15, 0xab, 0x19, 0x3e, 0x62, 0xe9, 0x9b, 0xbd,
    0x9a, 0xda, 0x06, 0x3e, 0x40, 0x79, 0xb3, 0x3e, 0x8f, 0x6a, 0xf8, 0x3d,
    0xcd, 0x15, 0x11, 0xbe, 0x72, 0x16, 0x42, 0xbf, 0x2b, 0x23, 0xfd, 0xbe,
    0x54, 0xa3, 0xbd, 0xbd, 0x7d, 0x29, 0xa6, 0x3d, 0x66, 0x36, 0xa9, 0x3d,
    0xc8, 0x6c, 0xfb, 0xbd, 0xa4, 0xd5, 0x14, 0xbe, 0xfa, 0x98, 0x9d, 0x3d,
    0x92, 0x02, 0x38, 0xbd, 0x27, 0x39, 0xbf, 0x3d, 0xaf, 0x73, 0x86, 0x3d,
    0x77, 0x6f, 0xa8, 0xbe, 0x1d, 0x3f, 0xeb, 0xbe, 0xfb, 0xc2, 0x15, 0x3d,
    0x36, 0xff, 0x3a, 0x3e, 0xb5, 0x30, 0x15, 0x3e, 0x74, 0x38, 0x6c, 0xbe,
    0x05, 0xbd, 0x3e, 0x3f, 0x74, 0x40, 0x1b, 0xbe, 0xac, 0x6d, 0xc2, 0x3e,
    0xd4, 0xc9, 0x8b, 0xbd, 0x58, 0x03, 0x03, 0xbe, 0x13, 0x70, 0xa2, 0xbd,
    0x44, 0x24, 0xc0, 0xbd, 0xa0, 0xac, 0x26, 0xbe, 0x78, 0x32, 0xd6, 0xbd,
    0x7d, 0xab, 0x16, 0xbf, 0x5f, 0x07, 0x07, 0xbf, 0x7b, 0x8d, 0x82, 0xbc,
    0x19, 0x33, 0x8e, 0x3e, 0xc0, 0x13, 0x83, 0x3e, 0x1b, 0x53, 0x6c, 0x3e,
    0x22, 0x67, 0xbe, 0xbe, 0x7e, 0xcd, 0x52, 0x3e, 0xb8, 0x22, 0x0c, 0xbe,
    0xc4, 0x20, 0x9e, 0x3e, 0x5f, 0x07, 0xf6, 0x3d, 0xff, 0xcf, 0xa3, 0xbe,
    0x06, 0xc8, 0xbd, 0xbc, 0x3c, 0x34, 0xa9, 0x3d, 0x3d, 0xfb, 0xce, 0xbd,
    0xa0, 0x13, 0x89, 0xbe, 0x54, 0xc8, 0xfc, 0xbe, 0xe8, 0x54, 0x1f, 0xbf,
    0xcd, 0xdc, 0x38, 0xbe, 0xb1, 0x3e, 0xc7, 0xbc, 0xb8, 0x63, 0x89, 0x3e,
    0xbf, 0x86, 0xf9, 0x3d, 0x0c, 0x25, 0x1a, 0xbe, 0x3b, 0xd0, 0xef, 0x3e,
    0x54, 0x77, 0xc1, 0xbe, 0xad, 0x57, 0xd3, 0x3d, 0x11, 0xfc, 0xa2, 0xbe,
    0xb5, 0x18, 0x02, 0xbf, 0x58, 0x53, 0x83, 0x3c, 0xd8, 0xf6, 0x02, 0x3b,
    0xc8, 0x89, 0xa5, 0xbe, 0xbf, 0xe1, 0x77, 0xbe, 0xcf, 0x58, 0xb6, 0xbd,
    0x59, 0xd7, 0xa4, 0xbe, 0x92, 0x39, 0x43, 0x3e, 0x70, 0x46, 0xcc, 0x3c,
    0xcf, 0xf1, 0x9b, 0xbb, 0x6b, 0x14, 0x59, 0x3e, 0x7c, 0x15, 0xf7, 0x3e,
    0xf6, 0xd9, 0xa8, 0x3e, 0xf7, 0x79, 0xda, 0xbe, 0x49, 0x51, 0x1d, 0x3e,
    0xf5, 0x64, 0x12, 0xbe, 0xe0, 0x16, 0xa0, 0xbe, 0x73, 0x54, 0x9d, 0x3c,
    0x72, 0xcd, 0xce, 0x3d, 0x2a, 0x14, 0x37, 0x3d, 0x6d, 0x57, 0x7f, 0xbe,
    0x0a, 0xce, 0x89, 0xbc, 0x35, 0xb2, 0x5d, 0xbe, 0xd8, 0xe5, 0x57, 0x3e,
    0xb8, 0x0a, 0xba, 0x3e, 0xca, 0x6e, 0xc4, 0xbc, 0x6a, 0x5b, 0x80, 0x3d,
    0x99, 0x8a, 0xda, 0x3e, 0x9a, 0x2d, 0xc4, 0x3e, 0x00, 0xde, 0x21, 0x3c,
    0xec, 0xb1, 0x87, 0x3e, 0xb9, 0xa8, 0x1f, 0xbe, 0x26, 0x52, 0x94, 0xbe,
    0x9c, 0x7a, 0x02, 0x3e, 0x1c, 0x90, 0xc3, 0xbd, 0x36, 0x18, 0xff, 0x3d,
    0x68, 0x51, 0xa4, 0xbe, 0x36, 0xb9, 0x16, 0x3d, 0x7e, 0xff, 0xae, 0xbe,
    0x97, 0x0d, 0x7f, 0x3e, 0xbd, 0x71, 0xcb, 0x3e, 0x04, 0xa8, 0xb5, 0xbd,
    0xc6, 0x5c, 0xe0, 0xbd, 0x98, 0xb1, 0xf0, 0x3e, 0x21, 0x84, 0x98, 0x3e,
    0xca, 0xd2, 0x86, 0x3d, 0x50, 0x8a, 0x69, 0x3e, 0xb7, 0x22, 0xb1, 0xbd,
    0x67, 0xa7, 0x62, 0xbe, 0xda, 0x4a, 0xc4, 0x3c, 0x10, 0x7d, 0xbf, 0xbd,
    0x2f, 0xad, 0x84, 0xbc, 0xa6, 0x92, 0x3f, 0x3e, 0xf0, 0x2b, 0xb5, 0x3d,
    0x0f, 0xfa, 0x46, 0xbe, 0x67, 0xc8, 0x46, 0x3e, 0x39, 0x03, 0xa3, 0x3e,
    0xb2, 0x17, 0x1e, 0xbe, 0xd6, 0x7c, 0x14, 0xbe, 0xef, 0x9c, 0x11, 0x3c,
    0x2b, 0x3d, 0xff, 0x3d, 0xcf, 0xef, 0xb5, 0x3d, 0xc3, 0xae, 0x44, 0x3e,
    0x16, 0xf6, 0x4c, 0xbd, 0xe3, 0x31, 0x37, 0xbe, 0x97, 0x86, 0x46, 0x3d,
    0xdf, 0xd0, 0xae, 0x3d, 0x44, 0x41, 0x7a, 0xbe, 0xd2, 0xc8, 0x36, 0x3e,
    0xd9, 0x2e, 0xd9, 0x3d, 0xc7, 0x69, 0xcb, 0xbe, 0xd5, 0x0a, 0x93, 0x3e,
    0xfc, 0x89, 0x6d, 0xbe, 0x69, 0x80, 0x38, 0x3c, 0xf9, 0x4b, 0x26, 0xbe,
    0x6c, 0x53, 0x8a, 0xbf, 0xef, 0x53, 0x98, 0xbd, 0xc6, 0x41, 0x89, 0x3c,
    0x9a, 0x57, 0x8f, 0x3e, 0x77, 0x05, 0x59, 0xbe, 0x18, 0x16, 0x47, 0xbe,
    0xe7, 0x2f, 0x40, 0xbd, 0x22, 0x01, 0x9b, 0xbd, 0x0e, 0xcf, 0x56, 0xbe,
    0xac, 0xe8, 0x13, 0x3d, 0xf2, 0x6a, 0x9f, 0x3d, 0x63, 0xed, 0xd9, 0xbe,
    0x4f, 0x26, 0x4b, 0xbf, 0xee, 0xd4, 0x16, 0xbf, 0x35, 0x7a, 0x02, 0x3d,
    0x9a, 0x76, 0x8e, 0xbe, 0xaf, 0xe6, 0x87, 0xbf, 0x5c, 0xbf, 0x1a, 0xbe,
    0x58, 0xa0, 0x23, 0xbe, 0xeb, 0x80, 0x15, 0x3f, 0x00, 0x4c, 0x05, 0x3e,
    0xaa, 0xe6, 0xa6, 0x3d, 0x58, 0xcb, 0x93, 0xbe, 0x77, 0xeb, 0x0f, 0x3e,
    0x41, 0xa7, 0x1a, 0xbd, 0xb2, 0x5d, 0xb9, 0xbe, 0x91, 0x8f, 0xef, 0xbc,
    0xcc, 0xa2, 0x67, 0xbe, 0x69, 0xb0, 0x42, 0x3e, 0x84, 0xec, 0x2a, 0x3e,
    0x18, 0x42, 0x82, 0x3c, 0x46, 0xb3, 0xa4, 0xbe, 0x3f, 0x50, 0xd5, 0x3e,
    0x0c, 0x95, 0x9a, 0x3e, 0xc4, 0x1a, 0x01, 0x3e, 0x0c, 0x09, 0x0f, 0xbb,
    0x36, 0xd7, 0x2f, 0xbe, 0x5c, 0x64, 0x74, 0xbe, 0x9d, 0x91, 0x55, 0x3d,
    0xa1, 0xac, 0x1a, 0xbe, 0xb6, 0x14, 0x6d, 0xbc, 0xa4, 0x73, 0x8c, 0x3e,
    0xf3, 0xbf, 0x45, 0x3d, 0xaf, 0xc4, 0xc5, 0xbe, 0xc6, 0x78, 0xe6, 0x3e,
    0xba, 0x37, 0x92, 0x3e, 0x73, 0x8b, 0x8f, 0xbe, 0xdf, 0xca, 0x50, 0xbd,
    0xe0, 0xca, 0xbb, 0xbd, 0x25, 0x2d, 0x62, 0x3d, 0x23, 0x62, 0x48, 0x3d,
    0xea, 0x63, 0x94, 0x3e, 0xe8, 0xe6, 0x75, 0xbe, 0x39, 0x79, 0x8c, 0xbe,
    0x55, 0xe1, 0x9d, 0x3d, 0x4e, 0xa1, 0xbd, 0x3c, 0xbe, 0x20, 0xec, 0xbd,
    0x2c, 0x54, 0x62, 0x3e, 0x2d, 0xbb, 0x79, 0x3e, 0x3f, 0x0a, 0xdb, 0xbe,
    0x56, 0xfa, 0x86, 0xbe, 0x2d, 0xb9, 0xbb, 0x3e, 0x53, 0x2a, 0x28, 0xbc,
    0x29, 0x03, 0xb1, 0xbd, 0xb1, 0xd4, 0x07, 0xbf, 0x50, 0x5e, 0xa7, 0x3d,
    0xc9, 0xba, 0x28, 0xbc, 0xf9, 0x92, 0xac, 0xbe, 0x1a, 0x17, 0x3d, 0xbe,
    0x54, 0x5d, 0xa9, 0xbd, 0x3c, 0x00, 0xc3, 0xbd, 0xf7, 0x73, 0xd3, 0x3d,
    0xb4, 0x4b, 0x7a, 0xbe, 0xa7, 0xc9, 0x4e, 0x3e, 0xb6, 0xb5, 0x40, 0x3e,
    0xfe, 0x85, 0xae, 0xbe, 0x03, 0xd2, 0x93, 0x3b, 0x83, 0x74, 0x4c, 0x3d,
    0x5c, 0x3b, 0x23, 0x3d, 0xa3, 0x4a, 0x48, 0xbc, 0x64, 0x58, 0x6f, 0xbe,
    0x96, 0xd1, 0xfd, 0x3d, 0x66, 0xf5, 0x58, 0xbe, 0x48, 0x9e, 0x4b, 0x3e,
    0x53, 0x58, 0x5c, 0xbe, 0xd1, 0x1d, 0xf5, 0xbd, 0xbd, 0xbb, 0x0c, 0xbe,
    0x14, 0x32, 0x51, 0xbd, 0xe0, 0x44, 0x16, 0xbe, 0x4b, 0x4c, 0x99, 0x3d,
    0xb9, 0xbc, 0x3c, 0xbe, 0x6d, 0xd1, 0x0b, 0xbf, 0x9f, 0xdc, 0x37, 0x3e,
    0xf0, 0x89, 0xab, 0x3e, 0x11, 0x10, 0xde, 0x3d, 0x0e, 0x17, 0x90, 0xbd,
    0x1e, 0xf6, 0xde, 0xbd, 0xe4, 0x2a, 0x38, 0x3e, 0x9f, 0x1f, 0xe8, 0xbd,
    0x3e, 0x5c, 0x85, 0x3d, 0x79, 0xf4, 0x94, 0xbc, 0x21, 0xb0, 0x0f, 0xbe,
    0x9d, 0x38, 0xa6, 0x3b, 0x30, 0x6f, 0xdf, 0xbd, 0x1f, 0xd3, 0xed, 0xbd,
    0xae, 0xbc, 0x44, 0xbe, 0x38, 0x3b, 0xad, 0xbe, 0xba, 0x4d, 0x35, 0xbe,
    0xbd, 0x9d, 0xb7, 0x3d, 0x98, 0xd7, 0x50, 0x3c, 0x9b, 0x8d, 0x9b, 0x3e,
    0x4a, 0x6c, 0x2c, 0x3e, 0x59, 0x11, 0xc2, 0xbd, 0xb9, 0xe6, 0x1b, 0x3f,
    0xff, 0x65, 0xb9, 0xbd, 0x8c, 0xbd, 0x5e, 0x3e, 0x2e, 0x5f, 0xa1, 0xbd,
    0x34, 0x0c, 0x02, 0xbe, 0xd5, 0x0d, 0x8c, 0xbb, 0x2e, 0xbf, 0xb1, 0x3d,
    0x2d, 0xcd, 0x6e, 0x3d, 0xee, 0x14, 0x13, 0x3d, 0x34, 0x33, 0x8f, 0xbe,
    0x1f, 0x40, 0xc6, 0xbd, 0xab, 0x06, 0xac, 0xbd, 0x93, 0x43, 0xd1, 0x3e,
    0x67, 0x62, 0x80, 0x3e, 0x7e, 0xa7, 0x21, 0x3e, 0xe0, 0x81, 0xee, 0xbe,
    0xf8, 0xea, 0xf2, 0x3e, 0xaa, 0xcc, 0xf6, 0xbd, 0xea, 0x8f, 0x1b, 0x3e,
    0x2f, 0xae, 0x24, 0xbe, 0xdd, 0x17, 0x34, 0xbe, 0x4f, 0xb6, 0x94, 0x3d,
    0xba, 0xb0, 0xb7, 0x3d, 0x9e, 0x28, 0x3b, 0x3d, 0x6e, 0xf0, 0xef, 0xbc,
    0x2e, 0x65, 0xaa, 0xbe, 0x43, 0xd3, 0xa9, 0xbe, 0xde, 0x6a, 0x82, 0xbe,
    0xbd, 0x06, 0x7d, 0x3e, 0x5c, 0xa0, 0x69, 0xbc, 0xc8, 0x5c, 0x51, 0x3c,
    0x56, 0x14, 0x23, 0xbf, 0xdd, 0xe9, 0xab, 0x3e, 0x33, 0x64, 0xa7, 0xbc,
    0x29, 0xab, 0xf4, 0x3d, 0xc1, 0x63, 0x21, 0xbd, 0x58, 0xd4, 0xd2, 0xbd,
    0xa7, 0x87, 0x11, 0x3c, 0x4e, 0xe1, 0xc0, 0x3d, 0xa1, 0x88, 0x31, 0xbd,
    0x06, 0xdf, 0xa8, 0x3d, 0xab, 0x4e, 0x7e, 0xbe, 0x93, 0xc1, 0xc5, 0xbe,
    0x66, 0x86, 0xa4, 0xbd, 0xc3, 0x69, 0x95, 0x3e, 0xb7, 0xe3, 0x54, 0x3e,
    0xa2, 0x15, 0x32, 0x3e, 0xf9, 0xdb, 0xa2, 0xbe, 0x40, 0x7f, 0x2e, 0x3f,
    0x56, 0xf3, 0x64, 0xba, 0x99, 0x03, 0xf9, 0x3d, 0xb6, 0x68, 0x2f, 0xbe,
    0x4a, 0x85, 0x82, 0xbe, 0x82, 0xc1, 0x87, 0x3d, 0xcc, 0xff, 0x9c, 0xbd,
    0xc8, 0xfb, 0x91, 0xba, 0x12, 0xa3, 0xb3, 0xbd, 0xf1, 0x27, 0x83, 0xbe,
    0xe4, 0xbf, 0x29, 0xbf, 0x13, 0x25, 0x60, 0x3e, 0xb2, 0x12, 0x87, 0x3e,
    0x51, 0x29, 0x81, 0x3c, 0x8f, 0x6e, 0x81, 0x3e, 0xf1, 0x13, 0x84, 0x3e,
    0xb1, 0x4c, 0xf8, 0x3e, 0x36, 0x9c, 0xff, 0xbc, 0x3a, 0xb3, 0x97, 0x3e,
    0x4e, 0x82, 0xcc, 0xbe, 0x47, 0x7b, 0xb4, 0xbe, 0xe9, 0xfe, 0xed, 0x3c,
    0xf7, 0x15, 0xe0, 0xbc, 0x33, 0xa7, 0xb1, 0x3d, 0xd8, 0xb3, 0x1c, 0xbe,
    0x17, 0xf0, 0xe6, 0xbb, 0xc6, 0x52, 0x6f, 0xbe, 0x8f, 0x4b, 0x9a, 0x3d,
    0x38, 0xf4, 0xa8, 0x3e, 0xb1, 0xb0, 0xd6, 0xba, 0xee, 0x9f, 0x97, 0xbd,
    0xd7, 0x55, 0x87, 0x3e, 0x94, 0xbb, 0x22, 0x3f, 0x93, 0x53, 0xad, 0x3d,
    0xdb, 0x8e, 0x4a, 0xbd, 0x80, 0x5b, 0x42, 0xbe, 0x6c, 0xf6, 0x65, 0xbe,
    0xa2, 0xe0, 0x13, 0xbd, 0xdb, 0xd8, 0x79, 0x3d, 0xba, 0x47, 0xeb, 0x3d,
    0x3d, 0x33, 0x13, 0xbe, 0x2e, 0x48, 0xda, 0xbd, 0x73, 0x1c, 0xaf, 0xbe,
    0xd8, 0xdf, 0xea, 0x3d, 0x9e, 0xc6, 0x9f, 0xbd, 0x08, 0xce, 0x91, 0xbb,
    0xd0, 0xfe, 0xc7, 0xbd, 0x24, 0x8a, 0x1d, 0x3e, 0xa7, 0x6f, 0xad, 0x3e,
    0x62, 0xda, 0x53, 0x3d, 0xd5, 0x60, 0xb4, 0x3d, 0xc7, 0xfd, 0xe6, 0xbd,
    0x2d, 0xdd, 0x89, 0xbe, 0x7f, 0xe8, 0x38, 0x3d, 0x6e, 0x81, 0x23, 0xbe,
    0x87, 0xfe, 0xb2, 0xbd, 0x99, 0x11, 0x61, 0x3e, 0x53, 0xc1, 0xd4, 0x3c,
    0xf6, 0x91, 0xaf, 0xbe, 0x6e, 0xc4, 0xe9, 0x3d, 0x21, 0xdf, 0x0d, 0x3d,
    0x45, 0x40, 0x6f, 0xbe, 0x60, 0x17, 0x95, 0xbb, 0x81, 0x43, 0xc9, 0x3d,
    0x7a, 0x3a, 0xd8, 0x3e, 0x6d, 0x1b, 0xbc, 0x3d, 0xf0, 0xfb, 0x4d, 0xbd,
    0x77, 0xa6, 0x1e, 0xbe, 0x24, 0x79, 0x8f, 0xbe, 0xb0, 0x92, 0xd3, 0x3d,
    0x5c, 0xd7, 0x59, 0x3c, 0xdf, 0x14, 0x81, 0xbe, 0x7f, 0x56, 0xf8, 0x3d,
    0x83, 0x9f, 0x21, 0x3d, 0x71, 0xc2, 0xa4, 0xbe, 0xc4, 0xd3, 0xc6, 0x3d,
    0x4b, 0x8f, 0x6a, 0xbe, 0x68, 0xa4, 0x5f, 0xbe, 0x55, 0x75, 0x6b, 0xbd,
    0x57, 0x20, 0x8e, 0xbe, 0xd2, 0x7c, 0x44, 0xbe, 0x8d, 0x9d, 0x86, 0x3d,
    0x1b, 0x09, 0xbe, 0x3e, 0xd8, 0x21, 0x68, 0xbd, 0x75, 0x95, 0x03, 0x3b,
    0xb6, 0x5d, 0xb0, 0x3d, 0xeb, 0x93, 0x8c, 0x3c, 0x36, 0xc1, 0xb2, 0x3d,
    0xa5, 0x2e, 0x65, 0x3f, 0xa6, 0x49, 0xe3, 0xbc, 0x4a, 0xcb, 0xc1, 0x3e,
    0x97, 0xa5, 0x8d, 0xbe, 0x52, 0x32, 0xfb, 0x3e, 0x07, 0xc8, 0x93, 0x3e,
    0xb0, 0xe6, 0x6f, 0x3d, 0x1b, 0x47, 0x48, 0xbe, 0xc0, 0xe5, 0x0e, 0xbe,
    0x5a, 0xa5, 0x64, 0xbd, 0xa9, 0xf6, 0xcb, 0x3d, 0x81, 0xa2, 0x13, 0x3e,
    0x5c, 0xac, 0x82, 0xbe, 0xd0, 0xe4, 0xb9, 0xbb, 0x8b, 0xc7, 0x81, 0xbc,
    0xe6, 0xd6, 0x25, 0xbf, 0xbd, 0xa7, 0xc0, 0x3d, 0x65, 0x97, 0xc3, 0x3d,
    0xa5, 0x07, 0x8d, 0x3e, 0xf3, 0xeb, 0xd9, 0xbd, 0x07, 0x15, 0x06, 0x3e,
    0xa9, 0x17, 0x2f, 0xbd, 0xc7, 0x84, 0x2d, 0xbd, 0x45, 0xc8, 0xff, 0xbe,
    0xfa, 0x4c, 0x45, 0xbf, 0x7e, 0x5e, 0xa1, 0x3c, 0xd7, 0xfc, 0x2c, 0x3e,
    0x6f, 0x35, 0x1d, 0x3e, 0x65, 0xc4, 0xb0, 0xbe, 0x16, 0xf3, 0x66, 0x3d,
    0x43, 0x6a, 0xd7, 0x3d, 0xaf, 0x8d, 0xfe, 0xbe, 0xdf, 0xc5, 0xb2, 0xbd,
    0xdc, 0xab, 0x2c, 0xbd, 0x7c, 0xbb, 0xb2, 0x3d, 0x14, 0xb8, 0x4e, 0xbe,
    0xa0, 0xeb, 0x1f, 0x3e, 0xb0, 0x61, 0x48, 0xbe, 0x17, 0xc2, 0x08, 0x3e,
    0x23, 0x6b, 0x43, 0x3d, 0x2a, 0xa2, 0xfa, 0xbd, 0xc7, 0xfe, 0x37, 0x3d,
    0xd6, 0xb2, 0x69, 0xbc, 0x12, 0x58, 0x3b, 0x3e, 0x93, 0xdc, 0x29, 0xbe,
    0x02, 0xf5, 0xa0, 0x3d, 0xab, 0xcf, 0x3f, 0xbd, 0xfd, 0xa5, 0x91, 0xbe,
    0xed, 0xb4, 0xdc, 0xbd, 0x69, 0x38, 0x9d, 0xbe, 0x4d, 0x2b, 0x4a, 0xbf,
    0x2c, 0x19, 0x2d, 0x3e, 0xf7, 0x23, 0x0d, 0x3f, 0x0b, 0xca, 0x94, 0xbc,
    0x4b, 0xdb, 0x3c, 0x3b, 0xba, 0x17, 0x79, 0x3e, 0xa5, 0x71, 0x4a, 0xbe,
    0xd8, 0xd7, 0x2c, 0x3d, 0x82, 0x22, 0x8a, 0xbd, 0x0d, 0xc5, 0x49, 0x3e,
    0xc4, 0x78, 0x4e, 0xbe, 0xd5, 0x94, 0x9b, 0x3d, 0xed, 0x8d, 0x53, 0xbd,
    0xe5, 0xda, 0xee, 0xbe, 0xd0, 0xf5, 0xc9, 0x3d, 0x3d, 0x39, 0x62, 0xbe,
    0xd0, 0xe9, 0x02, 0xbf, 0xb2, 0x49, 0x71, 0x3e, 0x6e, 0xe8, 0xd1, 0x3e,
    0x67, 0x4c, 0x72, 0xbe, 0xbf, 0x45, 0x8d, 0xbe, 0x04, 0xbe, 0x82, 0x3e,
    0x8c, 0x37, 0x18, 0xbf, 0xe2, 0xa4, 0xa0, 0xbc, 0x36, 0x51, 0x7b, 0xbe,
    0x1b, 0xd9, 0xfe, 0xbe, 0x0a, 0xf9, 0x44, 0xbe, 0xcd, 0xe8, 0x45, 0xbd,
    0xf5, 0x67, 0xad, 0xbd, 0xf0, 0xb9, 0x32, 0xbe, 0x4b, 0x59, 0x49, 0x3e,
    0xee, 0x8d, 0x13, 0xbe, 0x84, 0xba, 0x77, 0xbe, 0x9e, 0x53, 0xa4, 0x3d,
    0x73, 0x43, 0xb8, 0x3e, 0x4d, 0x72, 0xa0, 0x3c, 0xb1, 0xb5, 0xda, 0xbe,
    0x6f, 0x9a, 0x26, 0x3d, 0x59, 0xf4, 0xa7, 0xbe, 0xe6, 0x04, 0x04, 0xbe,
    0xc9, 0x35, 0x3b, 0xbd, 0x36, 0xb1, 0x49, 0xbf, 0x3a, 0x73, 0x00, 0xbe,
    0xa9, 0xab, 0xe1, 0x3c, 0x1d, 0x57, 0xd3, 0xbd, 0xc1, 0x90, 0xf0, 0x3d,
    0x9e, 0xab, 0x46, 0x3e, 0x18, 0x5a, 0x7b, 0xbe, 0x29, 0x23, 0xa4, 0xbe,
    0xfc, 0xe8, 0x0c, 0x3e, 0x9e, 0x31, 0x9b, 0x3e, 0x77, 0xb3, 0x50, 0x3e,
    0x38, 0x25, 0x31, 0xbf, 0xfc, 0x2c, 0x30, 0x3e, 0x6d, 0x7c, 0xf1, 0xbd,
    0xa6, 0x40, 0x7a, 0xbe, 0x7d, 0xde, 0xab, 0xbd, 0xe7, 0x66, 0x14, 0xbf,
    0x19, 0x5a, 0xf8, 0xbd, 0xd8, 0x38, 0x83, 0xba, 0x03, 0x05, 0x5d, 0xbd,
    0x94, 0xce, 0xfb, 0x3d, 0x65, 0x6c, 0x49, 0x3d, 0xb6, 0xe4, 0x84, 0xbd,
    0x7c, 0xce, 0x59, 0x3e, 0x66, 0x5e, 0x22, 0xbe, 0xca, 0x7f, 0xad, 0x3e,
    0x65, 0xe6, 0x6a, 0x3e, 0x50, 0xb0, 0x87, 0xbe, 0xd4, 0x60, 0x61, 0xbe,
    0x1a, 0xd5, 0xbf, 0x3d, 0xed, 0x50, 0x0f, 0xbe, 0x26, 0xb8, 0x3c, 0xbe,
    0x8d, 0xa1, 0xa0, 0x3e, 0x5b, 0xc8, 0x05, 0xbf, 0xf0, 0x31, 0x17, 0x3c,
    0x4b, 0x0e, 0xb8, 0xbd, 0x78, 0x5b, 0xdf, 0xbe, 0x34, 0xa4, 0x77, 0xbd,
    0x43, 0x26, 0x82, 0x3d, 0x61, 0xb1, 0x84, 0x3d, 0xe6, 0xe2, 0x03, 0xbe,
    0xd8, 0x70, 0x35, 0x3e, 0x24, 0x5a, 0x75, 0x3e, 0xe7, 0xaa, 0x89, 0x3d,
    0x31, 0xdd, 0xd9, 0xbd, 0x7a, 0xeb, 0x00, 0x3e, 0xac, 0xad, 0x2f, 0xbe,
    0x2a, 0x5d, 0x03, 0xbe, 0xfb, 0xd4, 0xa2, 0x3d, 0xe6, 0x35, 0x91, 0xbe,
    0x6d, 0x7b, 0x37, 0x3d, 0x25, 0x90, 0xae, 0x3d, 0x6e, 0x26, 0xf3, 0xbe,
    0x2e, 0xf8, 0x45, 0xbd, 0x91, 0x95, 0xcf, 0x3d, 0x0c, 0x76, 0x16, 0x3e,
    0x68, 0x69, 0x03, 0xbe, 0xbe, 0x3e, 0x6d, 0x3e, 0xb4, 0xdc, 0x43, 0xbd,
    0xeb, 0xf8, 0x55, 0x3c, 0x32, 0x66, 0x1e, 0xbd, 0xe9, 0xbe, 0xc1, 0xbe,
    0x1b, 0x82, 0x1b, 0xbe, 0x3e, 0xbb, 0xdb, 0x3d, 0x9e, 0xda, 0xaf, 0x3d,
    0x5f, 0xfc, 0xb7, 0xbe, 0x75, 0x9c, 0xb8, 0x3d, 0xfd, 0xc0, 0xea, 0xbd,
    0xbb, 0xcc, 0x87, 0xbe, 0x3e, 0x9d, 0x98, 0x3d, 0x05, 0xd9, 0x95, 0x3d,
    0x18, 0xd5, 0x7f, 0x3e, 0xcb, 0x84, 0x6c, 0xbe, 0xbd, 0x0f, 0xd4, 0x3e,
    0x6f, 0x4c, 0xc2, 0x3d, 0x8a, 0xe5, 0x34, 0x3e, 0x27, 0x05, 0x82, 0xbe,
    0x90, 0xe9, 0xb3, 0xbe, 0xc4, 0x59, 0x24, 0x3c, 0xea, 0x80, 0x66, 0x3c,
    0xa2, 0xcd, 0x6d, 0x3e, 0x72, 0x8f, 0x81, 0xbe, 0x9d, 0xc8, 0x16, 0x3e,
    0x03, 0x0a, 0x6e, 0x3d, 0x55, 0x74, 0xa6, 0xbe, 0x95, 0x51, 0x19, 0xbe,
    0x8f, 0xe7, 0xae, 0xbd, 0xcf, 0x43, 0x83, 0x3e, 0x72, 0x1f, 0x07, 0xbe,
    0xbb, 0x48, 0x65, 0x3e, 0x8f, 0x27, 0xb6, 0xbe, 0x5e, 0x7c, 0xbb, 0x3d,
    0x02, 0x43, 0x94, 0x3a, 0x4c, 0x06, 0x10, 0x3d, 0x3b, 0x12, 0x92, 0x3c,
    0x69, 0xb4, 0x0f, 0x3e, 0x5e, 0x13, 0x30, 0x3e, 0xb9, 0x7c, 0x17, 0xbe,
    0xb9, 0xa4, 0xd4, 0x3d, 0xa6, 0xe5, 0x36, 0xbc, 0x9e, 0xba, 0x73, 0xbe,
    0x20, 0x17, 0x47, 0xbe, 0xa7, 0x40, 0xbf, 0xbe, 0x06, 0x63, 0xae, 0xbd,
    0x21, 0x5d, 0x1b, 0xbf, 0x39, 0xed, 0xfe, 0x3e, 0xed, 0x2b, 0x83, 0xbe,
    0x25, 0x7e, 0x56, 0xbd, 0x77, 0xf7, 0x58, 0xbc, 0x0f, 0xe5, 0xb2, 0xbd,
    0x71, 0xaf, 0x1f, 0x3e, 0x86, 0x42, 0x0b, 0xbe, 0xae, 0x05, 0x3f, 0x3e,
    0x3d, 0x1a, 0x28, 0xbe, 0xa3, 0x84, 0xdd, 0xbd, 0xfe, 0xe9, 0x88, 0xbb,
    0xc8, 0x21, 0x82, 0xbe, 0x51, 0x99, 0x58, 0xbd, 0x4a, 0x01, 0x73, 0xbe,
    0x0c, 0xcb, 0x78, 0xbf, 0x90, 0x27, 0x54, 0x3e, 0xb8, 0xbe, 0x1d, 0x3e,
    0xe3, 0xe5, 0xf3, 0xbe, 0x7e, 0xef, 0xd0, 0xbe, 0x84, 0x55, 0xcf, 0x3d,
    0x42, 0xe1, 0x33, 0xbf, 0x07, 0xf7, 0x55, 0xbe, 0x3c, 0x49, 0xfb, 0xbe,
    0x07, 0xb1, 0xf3, 0xbe, 0x7f, 0xbb, 0x0a, 0xbe, 0x47, 0xf7, 0x5b, 0xbd,
    0xc0, 0x4e, 0x96, 0x3b, 0xbe, 0xbb, 0xe0, 0xbe, 0x5e, 0xc7, 0xe8, 0x3e,
    0x3f, 0x12, 0xbc, 0xbd, 0xd8, 0x3d, 0x48, 0xbd, 0x5d, 0xac, 0xb4, 0xbe,
    0x3b, 0x28, 0xec, 0x3d, 0xc3, 0xef, 0x06, 0x3d, 0xbc, 0xd5, 0xcd, 0x3e,
    0x76, 0xdf, 0xfb, 0xbe, 0xba, 0x24, 0xac, 0x3e, 0xb1, 0xd2, 0x42, 0xbe,
    0xe9, 0x34, 0x46, 0x3f, 0x6b, 0x13, 0xcf, 0xbe, 0x7d, 0xd8, 0x2d, 0x3e,
    0x7b, 0xce, 0xd9, 0xbe, 0xe1, 0x7e, 0xba, 0x3d, 0x68, 0x51, 0x42, 0x3d,
    0xe9, 0x85, 0x5a, 0x3e, 0xfd, 0xaf, 0xb6, 0xbd, 0xe1, 0x91, 0xfa, 0x3d,
    0x08, 0x76, 0x39, 0xbd, 0x85, 0x90, 0x9c, 0x3e, 0x07, 0x2a, 0x57, 0xbd,
    0x39, 0xdd, 0x5e, 0x3d, 0x5c, 0x07, 0x9b, 0xbe, 0xd0, 0x95, 0x2d, 0x3e,
    0x59, 0x7a, 0x97, 0xbe, 0x43, 0x4b, 0xeb, 0x3e, 0x59, 0x2a, 0x33, 0xbe,
    0x0e, 0x83, 0x89, 0xbe, 0x5f, 0xdd, 0x5c, 0xbf, 0xba, 0xca, 0xe4, 0xbc,
    0x9d, 0x17, 0x76, 0xbe, 0xdf, 0x95, 0x3a, 0x3e, 0x1f, 0x78, 0x23, 0x3e,
    0xb7, 0xf9, 0x57, 0x3e, 0x23, 0xaf, 0x83, 0xbe, 0x2b, 0x02, 0x19, 0x3d,
    0x69, 0x3f, 0xb9, 0x3c, 0x08, 0xf1, 0x81, 0x3e, 0xba, 0x23, 0x1d, 0xbe,
    0xca, 0x38, 0xca, 0x3e, 0x89, 0x0a, 0x4d, 0xbe, 0x09, 0x62, 0xc0, 0x3e,
    0xf8, 0x92, 0xf0, 0xbd, 0x16, 0x0d, 0x6e, 0xbe, 0xb5, 0xd6, 0x9d, 0xbe,
    0x42, 0x2f, 0x3e, 0x3c, 0x5f, 0xb7, 0x69, 0xbe, 0xbb, 0x16, 0xc8, 0x3d,
    0xa6, 0x87, 0x59, 0x3e, 0xad, 0x69, 0xf1, 0xbd, 0x21, 0x37, 0x1e, 0x3e,
    0x13, 0xde, 0x3b, 0x3e, 0x06, 0x9c, 0xa5, 0xbd, 0x58, 0x91, 0x54, 0x3e,
    0x03, 0x44, 0xa9, 0xbd, 0x9d, 0x7b, 0xe0, 0x3e, 0x82, 0x9e, 0x21, 0x3d,
    0x00, 0x1a, 0xd8, 0x3e, 0xd3, 0x1e, 0x9a, 0xbe, 0x71, 0xa9, 0x44, 0xbe,
    0xf3, 0x4a, 0x02, 0xbe, 0x94, 0x60, 0x62, 0x3d, 0xab, 0xab, 0xb0, 0xbd,
    0xf2, 0x13, 0xd5, 0x3d, 0xbf, 0x7b, 0x2f, 0x3d, 0x8f, 0xb2, 0xab, 0xbd,
    0x0b, 0x27, 0x0b, 0x3e, 0x7a, 0xbd, 0xd8, 0x3d, 0x8b, 0x28, 0x34, 0x3d,
    0x97, 0x7f, 0x5c, 0x3e, 0x99, 0xbf, 0x53, 0xbe, 0xee, 0x3d, 0xad, 0x3e,
    0xbc, 0xdb, 0xa7, 0xbd, 0x51, 0xb2, 0xaa, 0x3e, 0x74, 0x27, 0xf6, 0xbd,
    0xf2, 0xb3, 0x89, 0xbe, 0x44, 0x36, 0x24, 0xbe, 0xca, 0x4f, 0x2c, 0xbc,
    0x93, 0x76, 0x6e, 0x3d, 0xa3, 0x1c, 0x3e, 0x3e, 0x02, 0xe4, 0xf2, 0x3d,
    0x8e, 0xca, 0x25, 0x3e, 0x02, 0xfe, 0x97, 0x3d, 0xb3, 0x13, 0xf9, 0x3d,
    0xdf, 0x9c, 0x10, 0xbe, 0x4a, 0x21, 0x49, 0x3d, 0xd4, 0x6e, 0x58, 0xbe,
    0xb6, 0x4e, 0x7a, 0x3e, 0x76, 0xc2, 0xc9, 0x3d, 0x03, 0x72, 0xb0, 0x3e,
    0xca, 0xea, 0x80, 0xbd, 0xcd, 0x1d, 0x01, 0xbe, 0xc4, 0xc9, 0x0d, 0xbf,
    0x2a, 0xc7, 0xd4, 0x3d, 0x36, 0x3d, 0x28, 0xbe, 0xe4, 0x39, 0x09, 0x3e,
    0xe8, 0xe5, 0x15, 0x3e, 0x9c, 0xc0, 0x87, 0x3d, 0x7e, 0x60, 0xde, 0x3d,
    0x43, 0x69, 0x51, 0x3e, 0x29, 0x0a, 0xa7, 0xbe, 0xd8, 0xa9, 0x93, 0x3b,
    0x33, 0x97, 0xe5, 0xbd, 0x7c, 0x1b, 0x9c, 0x3e, 0x44, 0x6d, 0x79, 0xbc,
    0x94, 0x24, 0x4e, 0x3f, 0xa8, 0xd9, 0xaf, 0xbe, 0x86, 0x22, 0x89, 0xbd,
    0x70, 0xb8, 0xc2, 0xbe, 0xd1, 0x02, 0x89, 0x3d, 0x01, 0x83, 0x99, 0xbd,
    0x29, 0xb8, 0xa1, 0x3e, 0xa4, 0x56, 0x66, 0x3e, 0x72, 0x68, 0x3e, 0x3e,
    0xa8, 0x32, 0x54, 0x3d, 0xea, 0x99, 0x9f, 0x3d, 0xad, 0x07, 0xfb, 0xbe,
    0x1e, 0xec, 0x38, 0x3e, 0x88, 0x10, 0x05, 0xbe, 0x33, 0x75, 0xe8, 0x3e,
    0x16, 0x6f, 0xa6, 0x3d, 0x7c, 0xf4, 0x32, 0x3e, 0x0e, 0x7a, 0x44, 0xbe,
    0x45, 0x7f, 0xfb, 0xbd, 0x8e, 0xc6, 0x27, 0xbf, 0x9f, 0x41, 0x2d, 0xbe,
    0x34, 0x06, 0x8e, 0x3d, 0x28, 0x76, 0x5e, 0x3e, 0xeb, 0x34, 0x15, 0x3e,
    0x44, 0xdf, 0xa4, 0x3d, 0xd8, 0xbf, 0xd9, 0xbc, 0xe2, 0x80, 0x4d, 0x3e,
    0xa7, 0x38, 0x3d, 0xbe, 0x31, 0x4c, 0x6b, 0x3e, 0x83, 0xdf, 0x9f, 0xbd,
    0x4b, 0x44, 0xda, 0x3e, 0xac, 0xe9, 0x47, 0x3d, 0x07, 0x46, 0x27, 0x3d,
    0xdc, 0x4b, 0xe9, 0x3d, 0xa4, 0x20, 0xa1, 0x3c, 0xd9, 0x65, 0xfd, 0xbe,
    0x2c, 0xaf, 0xe4, 0xbc, 0x4d, 0x93, 0x46, 0xbe, 0xcd, 0xc0, 0x7b, 0x3e,
    0x28, 0x45, 0x0e, 0x3e, 0xfb, 0x05, 0x14, 0x3d, 0xa7, 0xba, 0x1e, 0xbd,
    0xae, 0x1b, 0xd1, 0x3d, 0xe9, 0x17, 0x22, 0xbe, 0xe2, 0x8b, 0xad, 0x3e,
    0x26, 0xd2, 0xaf, 0xbe, 0xbb, 0xd4, 0x71, 0x3e, 0x07, 0x44, 0x09, 0x3d,
    0x94, 0xf0, 0xdc, 0x3e, 0xdd, 0x85, 0x9e, 0xbc, 0x16, 0x70, 0x3a, 0xbe,
    0xb9, 0x5f, 0xae, 0xbe, 0x90, 0xdb, 0x01, 0xbd, 0x72, 0xdb, 0x98, 0xbd,
    0x45, 0x60, 0x57, 0x3e, 0x1c, 0x84, 0x32, 0xbc, 0xfc, 0x0b, 0x0d, 0xbc,
    0x18, 0xe0, 0xd4, 0xbd, 0x90, 0x99, 0xb1, 0xbd, 0xf5, 0xa2, 0xa8, 0xbe,
    0x94, 0x94, 0x81, 0x3e, 0xe5, 0x91, 0x69, 0xbe, 0xa5, 0x3d, 0xb5, 0x3e,
    0x74, 0x91, 0xc7, 0x3b, 0xd9, 0x4d, 0x0f, 0x3f, 0xc6, 0x62, 0xc5, 0xbd,
    0x11, 0xb0, 0x3d, 0xbe, 0x8e, 0xb7, 0xec, 0xbe, 0xcf, 0x58, 0x5b, 0x3d,
    0x36, 0xe1, 0x63, 0xbd, 0xac, 0xdc, 0x4c, 0xbe, 0xe2, 0xf7, 0xc4, 0xbc,
    0x96, 0x48, 0x42, 0xbe, 0xab, 0xa4, 0xb5, 0xbc, 0x58, 0xcf, 0x6f, 0x3d,
    0x0e, 0x7b, 0x10, 0xbe, 0xee, 0x83, 0xd7, 0x3d, 0x79, 0x30, 0xa0, 0xbd,
    0x34, 0x31, 0x01, 0x3f, 0x5d, 0xea, 0x2b, 0xbe, 0x49, 0x1f, 0x55, 0x3e,
    0x52, 0xa4, 0x95, 0xbc, 0x34, 0xb6, 0x6f, 0x3a, 0x72, 0x6d, 0x3c, 0xbf,
    0x74, 0x73, 0x9b, 0x3d, 0xc9, 0x85, 0x97, 0x3a, 0x68, 0x1f, 0x15, 0xbd,
    0xc1, 0xd5, 0x21, 0x3d, 0xc8, 0xc1, 0x53, 0xbe, 0x2c, 0xfb, 0x69, 0x3d,
    0xd8, 0x34, 0xff, 0x3c, 0xda, 0x64, 0x14, 0xbe, 0x14, 0x66, 0x07, 0x3e,
    0xdc, 0x65, 0xd5, 0xbe, 0x57, 0x92, 0x8e, 0x3e, 0xb4, 0x6b, 0xc9, 0xbd,
    0x94, 0xc0, 0xc7, 0x3e, 0x5a, 0xc1, 0x4b, 0xbe, 0x88, 0x54, 0x71, 0xbd,
    0x49, 0x5a, 0xe2, 0xbe, 0xa6, 0xda, 0xd8, 0x3d, 0xb4, 0x04, 0x74, 0xbd,
    0x0f, 0x50, 0x9e, 0x3c, 0x29, 0x87, 0x6c, 0x3c, 0x3b, 0x47, 0x2b, 0xbe,
    0x77, 0xd5, 0x7c, 0xbe, 0x27, 0x4e, 0xe8, 0x3e, 0x71, 0xaa, 0xe1, 0xbd,
    0x4b, 0x65, 0xf7, 0x3d, 0xcf, 0x9a, 0x8e, 0xbe, 0x15, 0x6a, 0x9b, 0x3d,
    0xda, 0xdd, 0xe4, 0xbd, 0xaa, 0x4f, 0xdb, 0xbe, 0xce, 0x52, 0x15, 0x3e,
    0x96, 0x19, 0x46, 0x3d, 0xb7, 0x35, 0x03, 0xbf, 0x0f, 0x70, 0xf6, 0x3b,
    0x6a, 0xd6, 0x6b, 0xbe, 0xe8, 0x0c, 0xac, 0xbf, 0x16, 0xd7, 0xa6, 0xbd,
    0x2a, 0xee, 0x7c, 0xbe, 0x44, 0x03, 0xa7, 0x3e, 0xbc, 0x78, 0xe4, 0x3e,
    0x94, 0x7b, 0xd2, 0xbe, 0xfa, 0xae, 0x8e, 0xbe, 0x25, 0x73, 0xb5, 0x3d,
    0x56, 0x10, 0x09, 0x3e, 0x01, 0xf2, 0x72, 0x3d, 0xe6, 0x9e, 0xf0, 0x3d,
    0x77, 0xa8, 0x9d, 0xbe, 0xcd, 0x06, 0x82, 0x3c, 0xa0, 0xc1, 0x90, 0xbe,
    0x3f, 0x59, 0x85, 0xbd, 0xa6, 0x1e, 0x0b, 0x3e, 0x63, 0xeb, 0x0f, 0xbf,
    0xd1, 0xe5, 0xd7, 0xbd, 0x35, 0x62, 0xa1, 0xbe, 0xd2, 0x09, 0x96, 0x3c,
    0xf8, 0x84, 0x8a, 0x3e, 0x70, 0x0e, 0x1d, 0xbe, 0xd2, 0xb9, 0x80, 0x3c,
    0x39, 0x1d, 0xa8, 0xbd, 0xfc, 0xee, 0xb0, 0xbe, 0x3a, 0x59, 0x85, 0x3d,
    0xc4, 0x2d, 0x37, 0x3d, 0x7d, 0x0c, 0xc9, 0xbd, 0xd4, 0x02, 0x71, 0x3e,
    0x3e, 0xb7, 0x04, 0xbe, 0x25, 0xc1, 0xf3, 0x3d, 0xf8, 0x95, 0xae, 0xbd,
    0x76, 0x54, 0x18, 0x3d, 0x25, 0xc5, 0x90, 0xbd, 0xc6, 0x33, 0x29, 0x3d,
    0xc0, 0xa1, 0x9a, 0xbe, 0xff, 0x61, 0xdc, 0x3e, 0x0c, 0x6e, 0xb1, 0x3c,
    0x3c, 0x1f, 0x05, 0x3e, 0x49, 0xec, 0xe6, 0x3c, 0x53, 0xc7, 0xb7, 0xbe,
    0x86, 0x8e, 0x8d, 0x3c, 0x66, 0xfc, 0xc1, 0x3e, 0x3c, 0x58, 0xf5, 0x3c,
    0x54, 0x77, 0xf6, 0x3d, 0xc0, 0xfa, 0xcd, 0xbd, 0x95, 0xe4, 0x99, 0xbc,
    0x9c, 0xaa, 0xc3, 0x3d, 0x55, 0x86, 0x76, 0x3e, 0xce, 0x7b, 0x94, 0x3d,
    0xbb, 0x9b, 0x9e, 0x3d, 0xd7, 0xb7, 0x69, 0x3e, 0x3b, 0xfe, 0xa1, 0x3e,
    0x22, 0x69, 0x84, 0xbd, 0xa9, 0xd7, 0x3f, 0x3d, 0xe5, 0xd8, 0x27, 0x3d,
    0x79, 0xcf, 0xff, 0xbe, 0x91, 0xc4, 0x60, 0x3d, 0xfb, 0x53, 0xb3, 0x3d,
    0x01, 0x5c, 0xe7, 0xbc, 0x25, 0x04, 0x9e, 0x3d, 0xac, 0x93, 0xe4, 0xbb,
    0xbb, 0x57, 0xce, 0xbd, 0xa4, 0xd5, 0x39, 0x3d, 0x0f, 0x1b, 0x36, 0x3e,
    0x86, 0x71, 0x8d, 0x3d, 0xda, 0x7c, 0x80, 0x3e, 0xf7, 0x0a, 0xb7, 0x3d,
    0x2e, 0xd0, 0x60, 0x3e, 0xfb, 0x96, 0xd2, 0xbd, 0x98, 0xf5, 0x0f, 0x3e,
    0x7e, 0x9e, 0xde, 0xbe, 0x0d, 0xa9, 0xc8, 0xbe, 0x6d, 0xfd, 0xcc, 0x3d,
    0x17, 0xb6, 0x61, 0xbe, 0xd3, 0xae, 0x36, 0xbe, 0xf5, 0xe0, 0x2d, 0x3d,
    0xdb, 0x57, 0x31, 0x3e, 0x78, 0xfe, 0x61, 0x3c, 0x7b, 0x47, 0xf1, 0x3b,
    0x1c, 0x58, 0xe0, 0x3d, 0xdf, 0xa7, 0x0b, 0x3e, 0xc9, 0x3d, 0xb8, 0x3e,
    0xd1, 0xaa, 0x96, 0x3e, 0x15, 0xc1, 0xe4, 0x3d, 0xd7, 0x79, 0x32, 0xbd,
    0x6a, 0x84, 0x04, 0x3e, 0x00, 0x6f, 0xd7, 0xbe, 0x3a, 0x45, 0x34, 0xbf,
    0xe4, 0xba, 0x32, 0x3e, 0xd1, 0xfe, 0xc8, 0xbd, 0xa5, 0x3c, 0x6d, 0xbd,
    0xc7, 0xa7, 0xb7, 0x3c, 0xc1, 0x5b, 0xfa, 0x3d, 0xfe, 0x9a, 0xaa, 0x3d,
    0xc3, 0xe4, 0x77, 0xbd, 0x4e, 0x39, 0x52, 0x3e, 0xf8, 0x72, 0xc9, 0x3e,
    0x31, 0xe2, 0xd5, 0x3e, 0x63, 0x13, 0xbc, 0x3e, 0x2e, 0xc4, 0xf1, 0x3d,
    0xb4, 0x95, 0x39, 0xb9, 0xe3, 0xf3, 0x3a, 0xbe, 0x79, 0x26, 0x8e, 0x3e,
    0xa2, 0x62, 0xfa, 0xbe, 0xc8, 0xa0, 0x48, 0x3e, 0xd0, 0x13, 0xe8, 0x3c,
    0x3a, 0x89, 0x2f, 0xbe, 0xa5, 0xdf, 0x64, 0xbc, 0x70, 0xc9, 0x3c, 0x3d,
    0xca, 0x33, 0x99, 0xbd, 0x0c, 0x26, 0x33, 0xba, 0xc6, 0x2c, 0xa4, 0x3e,
    0x34, 0xed, 0x41, 0x3e, 0xf8, 0xe1, 0x47, 0x3e, 0xfe, 0x7f, 0xc3, 0x3e,
    0x14, 0x3b, 0x68, 0x3e, 0xd3, 0x9f, 0x92, 0xbd, 0x8e, 0x99, 0xa3, 0xbe,
    0x7d, 0x20, 0x0f, 0x3e, 0x24, 0xc6, 0x10, 0xbf, 0xef, 0x72, 0x79, 0x3e,
    0x4d, 0x98, 0xb2, 0xbd, 0xc8, 0xc4, 0x96, 0xbd, 0xa7, 0x1a, 0x9d, 0x3e,
    0x8b, 0x22, 0xd7, 0xbd, 0x44, 0x92, 0x1a, 0xbe, 0x23, 0x96, 0x20, 0xbd,
    0xb1, 0x48, 0xb3, 0x3e, 0x48, 0xfb, 0x2d, 0x3b, 0x71, 0x75, 0x27, 0x3e,
    0xc8, 0xa8, 0xe2, 0x3e, 0x0a, 0xe2, 0x30, 0x3e, 0xbe, 0x30, 0x09, 0x3e,
    0xe9, 0x66, 0xad, 0xbc, 0xd3, 0x3b, 0x0a, 0xbe, 0x7c, 0xe4, 0x07, 0xbf,
    0xfb, 0xac, 0x0a, 0x3e, 0x03, 0x9a, 0xfa, 0x3d, 0x30, 0xbc, 0xbd, 0xbd,
    0x91, 0x4e, 0xcd, 0x3d, 0x9c, 0x27, 0xc5, 0xbd, 0x8b, 0xad, 0x8c, 0xbc,
    0x83, 0x85, 0xc7, 0xbc, 0xf6, 0xe6, 0xcf, 0x3e, 0x53, 0x19, 0xe5, 0x3c,
    0xe5, 0x9b, 0xca, 0x3c, 0x24, 0x8c, 0xeb, 0x3d, 0x94, 0x52, 0x18, 0x3c,
    0x1a, 0x77, 0xb7, 0xbc, 0xeb, 0xcd, 0x30, 0xbe, 0xf9, 0xa9, 0x84, 0x3c,
    0x6e, 0x90, 0x0d, 0xbf, 0x9e, 0xb5, 0x5d, 0x3d, 0xff, 0x07, 0xe3, 0x3d,
    0x21, 0xa1, 0x02, 0xbd, 0x35, 0x90, 0xba, 0x3d, 0xe3, 0xbd, 0xd8, 0xbd,
    0x0d, 0x64, 0x13, 0xbe, 0x40, 0xe6, 0xc1, 0x3d, 0x3d, 0x97, 0x7a, 0x3d,
    0xc1, 0x91, 0x25, 0xbd, 0x1a, 0x01, 0x06, 0x3e, 0x53, 0xb2, 0xe9, 0x3d,
    0x75, 0x7c, 0x4e, 0x3e, 0x6e, 0xcf, 0xca, 0x3c, 0x7d, 0x13, 0xd9, 0xbb,
    0x08, 0x95, 0x69, 0xbe, 0x44, 0x21, 0xd1, 0xbe, 0x1c, 0x89, 0x88, 0x3d,
    0x21, 0xe8, 0xd6, 0x3d, 0xe8, 0x85, 0xa6, 0xbc, 0xbe, 0xfb, 0x0f, 0x3e,
    0x78, 0x74, 0x75, 0xbd, 0x03, 0xf5, 0x07, 0xbe, 0xee, 0x4e, 0x06, 0x3e,
    0x54, 0x28, 0xfc, 0x3d, 0x7d, 0xe4, 0x08, 0xbd, 0x40, 0x1e, 0xae, 0x3d,
    0xd5, 0xd0, 0x43, 0xbf, 0x52, 0x3f, 0x71, 0x3c, 0xd4, 0xf9, 0x77, 0x3e,
    0x02, 0xc2, 0x95, 0x3b, 0xa9, 0x5d, 0xb8, 0xbc, 0x03, 0xad, 0x47, 0xbf,
    0xdd, 0x0c, 0x94, 0x3b, 0x55, 0xf8, 0x05, 0x3e, 0x0f, 0x54, 0xaf, 0xbd,
    0x28, 0x47, 0xdc, 0x3d, 0x75, 0x19, 0x6b, 0xbd, 0xf7, 0x13, 0x22, 0xbe,
    0x0d, 0x5e, 0x17, 0x3d, 0x97, 0x67, 0x56, 0x3e, 0xe1, 0xd9, 0x8d, 0x3d,
    0x97, 0x4d, 0x05, 0xbf, 0x02, 0x15, 0x23, 0x3d, 0x39, 0xee, 0x37, 0x3e,
    0x4b, 0x6b, 0xad, 0xbe, 0x3a, 0xaa, 0x13, 0x3c, 0xa8, 0x02, 0x86, 0xbf,
    0x1a, 0xf4, 0xa1, 0xbf, 0xd4, 0x1e, 0x08, 0x3e, 0x01, 0x63, 0xab, 0x3c,
    0x1d, 0x26, 0x5d, 0xbe, 0x62, 0xd9, 0x00, 0xbe, 0x41, 0xc0, 0x4d, 0x3e,
    0x1b, 0x88, 0x50, 0x3d, 0xfb, 0x8a, 0xe5, 0x3d, 0x81, 0x2d, 0xff, 0xbc,
    0x23, 0x86, 0x13, 0x3e, 0xe0, 0xff, 0xab, 0xbe, 0x17, 0xb4, 0xd9, 0xbe,
    0xd7, 0x8f, 0xb2, 0xbf, 0x92, 0xf6, 0x1c, 0xbd, 0xc0, 0xaf, 0x29, 0x3d,
    0xed, 0x4a, 0x9f, 0xbf, 0xb9, 0x8a, 0x34, 0xbf, 0xcb, 0x12, 0x76, 0xbd,
    0xee, 0xfd, 0xb9, 0x3d, 0xd3, 0xbb, 0x36, 0xbb, 0x2b, 0x5e, 0x0e, 0xbd,
    0x68, 0x91, 0xea, 0xbe, 0xb0, 0x5d, 0x2e, 0xbd, 0xf4, 0x64, 0xbe, 0xbe,
    0xe5, 0xd8, 0xe1, 0x3e, 0x58, 0x4b, 0x21, 0xbe, 0x59, 0xdc, 0x15, 0xbf,
    0x62, 0xe6, 0xc6, 0xbe, 0x4f, 0x7c, 0x10, 0x3d, 0xa4, 0x33, 0x0f, 0xbe,
    0x89, 0x0b, 0xf9, 0x3e, 0x03, 0x4b, 0x41, 0xbe, 0x0c, 0x62, 0xcd, 0x3c,
    0xe9, 0x56, 0xb8, 0xbd, 0xac, 0xda, 0x8d, 0x3e, 0x84, 0x6f, 0xff, 0xbe,
    0x3f, 0x90, 0xd3, 0xbd, 0x09, 0x6c, 0x84, 0xbe, 0x22, 0x34, 0x4b, 0xbd,
    0x95, 0xa4, 0xd4, 0x3d, 0x84, 0xb7, 0x81, 0x3e, 0x7e, 0xf8, 0x92, 0xbe,
    0xcb, 0x17, 0xe2, 0xbe, 0x96, 0xf4, 0x70, 0xbd, 0xc1, 0x8d, 0x52, 0x3e,
    0xf5, 0xeb, 0x6c, 0x3d, 0xa9, 0x38, 0xfb, 0x3d, 0xe0, 0xf3, 0x54, 0x3c,
    0xc7, 0x96, 0xe0, 0x3c, 0x5f, 0xe4, 0x9e, 0xbe, 0x2d, 0x07, 0xbf, 0x3e,
    0xee, 0xa6, 0xb4, 0xbe, 0x20, 0xda, 0x05, 0xbe, 0x0d, 0xc7, 0xf1, 0xbe,
    0xa9, 0x00, 0x30, 0xbe, 0x42, 0x7b, 0x9a, 0x3d, 0x7b, 0x6b, 0x3e, 0x3e,
    0xbf, 0x30, 0xa8, 0x3d, 0xaa, 0xec, 0x8b, 0xbe, 0x0f, 0x0e, 0x21, 0x3d,
    0xdc, 0x3f, 0x44, 0x3e, 0x94, 0xc9, 0xb3, 0xbc, 0x30, 0x6d, 0x10, 0x3c,
    0x79, 0xe2, 0x21, 0x3e, 0x30, 0xc3, 0x08, 0x3e, 0x09, 0x7f, 0x21, 0xbe,
    0x25, 0x37, 0x0c, 0x3f, 0x86, 0x4d, 0xdb, 0xbe, 0xe9, 0x83, 0x22, 0xbd,
    0x3f, 0x00, 0x48, 0xbe, 0xf7, 0x1a, 0x4f, 0x3d, 0x93, 0xaf, 0xc3, 0xbd,
    0xe5, 0x6f, 0xa5, 0x3d, 0x7d, 0x05, 0x3a, 0xbd, 0x35, 0x33, 0xdf, 0xb9,
    0xcd, 0x43, 0x9f, 0x3e, 0x35, 0x3a, 0xee, 0x3d, 0xe7, 0xd4, 0x07, 0x3d,
    0xd8, 0xa9, 0xd5, 0x3d, 0xbc, 0x7c, 0x90, 0x3e, 0x80, 0x3d, 0x85, 0x3e,
    0x80, 0xd5, 0xa1, 0xbd, 0xcc, 0x84, 0x65, 0x3c, 0xc8, 0xaa, 0x3d, 0xbe,
    0xc4, 0x0b, 0x80, 0xbd, 0x8b, 0x87, 0x99, 0xbe, 0x69, 0x02, 0x2d, 0xbd,
    0xa2, 0x32, 0x45, 0x3d, 0x2d, 0x46, 0x2c, 0x3e, 0x13, 0x70, 0xe9, 0xbc,
    0x0f, 0x6a, 0x22, 0x3d, 0x2a, 0x1c, 0x2b, 0xbe, 0x85, 0x6a, 0xbb, 0x3a,
    0x96, 0x7b, 0xd7, 0x3d, 0xa9, 0x73, 0x3d, 0x3c, 0xf1, 0xf2, 0x4a, 0x3e,
    0xe2, 0xff, 0x93, 0x3e, 0x15, 0x17, 0xe1, 0xbd, 0x2c, 0x74, 0x84, 0x3e,
    0x18, 0x4c, 0x16, 0xbe, 0x9d, 0x40, 0xfe, 0xbd, 0xa4, 0x9e, 0x0e, 0xbe,
    0xd6, 0xf1, 0x3a, 0xbc, 0x5f, 0x4c, 0xdd, 0xbd, 0xb4, 0x3e, 0xd7, 0x3d,
    0x8c, 0xe6, 0x9e, 0x3c, 0x18, 0xf9, 0x2b, 0x3d, 0x37, 0xf2, 0x87, 0x3e,
    0x8b, 0x8b, 0x62, 0x3e, 0xbc, 0x13, 0xff, 0x3b, 0x9d, 0x49, 0x80, 0x3e,
    0xf0, 0xfb, 0x02, 0x3f, 0xe6, 0x3a, 0xde, 0x3d, 0x5e, 0xe3, 0xa3, 0x3d,
    0xbb, 0x23, 0xdc, 0x3d, 0xf3, 0x9a, 0xb4, 0x3d, 0x98, 0x2b, 0xa0, 0x3c,
    0x17, 0x74, 0x8d, 0xbd, 0x59, 0x75, 0x43, 0x3d, 0xd1, 0x0a, 0x16, 0xbe,
    0x05, 0x9b, 0x0c, 0xbe, 0x0c, 0x36, 0x84, 0x3d, 0x77, 0xcf, 0xc6, 0x3c,
    0x00, 0xb9, 0x98, 0x3e, 0x6b, 0xdc, 0x5d, 0x3e, 0x42, 0x4c, 0xfb, 0xbd,
    0x86, 0xfc, 0x7c, 0x3d, 0xa2, 0x75, 0x87, 0x3e, 0x1d, 0x4a, 0x96, 0x3d,
    0x2c, 0xb8, 0x37, 0xbd, 0xec, 0x04, 0x20, 0x3e, 0x64, 0x84, 0x0d, 0xbe,
    0x9b, 0x68, 0xb0, 0xbc, 0x22, 0x92, 0x43, 0xbd, 0x9c, 0xe0, 0x6f, 0x3c,
    0xf2, 0xaf, 0xf1, 0xbd, 0x88, 0xbb, 0x96, 0xbd, 0xf8, 0x12, 0x4e, 0xbd,
    0x17, 0xe0, 0xa1, 0xbe, 0x58, 0x41, 0x98, 0x3d, 0x03, 0x3c, 0x40, 0x3e,
    0xc6, 0xb6, 0x01, 0xbe, 0x52, 0x08, 0x9d, 0x3d, 0xba, 0x88, 0x45, 0xbd,
    0xf9, 0x90, 0xc4, 0x3d, 0x4d, 0xff, 0x1c, 0xbd, 0x36, 0x08, 0xae, 0x3e,
    0x29, 0x37, 0x78, 0x3c, 0x53, 0xe2, 0xac, 0xbd, 0x5a, 0x62, 0x57, 0xbd,
    0x29, 0x8c, 0xe4, 0xbc, 0x99, 0xc8, 0x17, 0xbd, 0x00, 0xe2, 0xdb, 0x3d,
    0xc0, 0x16, 0x8c, 0x3b, 0xdd, 0xf6, 0x29, 0xbe, 0x0e, 0x2d, 0xbb, 0x3e,
    0xa5, 0xa0, 0x36, 0x3e, 0x02, 0xc0, 0xd7, 0xbd, 0xf9, 0xf7, 0xb1, 0x3e,
    0xa7, 0x9a, 0xff, 0x3d, 0xf9, 0x45, 0x1d, 0x3e, 0xb7, 0x04, 0x73, 0xbd,
    0x0b, 0x1a, 0xce, 0x3e, 0x3b, 0xf0, 0x69, 0xbe, 0x83, 0xa9, 0xcd, 0x3d,
    0x70, 0x87, 0x0b, 0x3d, 0x5f, 0x65, 0xfe, 0x3b, 0x74, 0x78, 0xdd, 0x3c,
    0x98, 0x62, 0xad, 0x3d, 0x57, 0xe3, 0x20, 0xbe, 0x1c, 0xa8, 0x13, 0xbe,
    0x11, 0x41, 0x04, 0xbe, 0x07, 0x4d, 0x8b, 0x3d, 0x00, 0x53, 0x0a, 0xbe,
    0x99, 0x1e, 0x9d, 0x3e, 0xcf, 0xd5, 0x2d, 0xbe, 0x99, 0xa0, 0xaf, 0x3d,
    0xa1, 0xfa, 0x99, 0xbd, 0xa9, 0xf1, 0x26, 0x3d, 0x82, 0x14, 0x86, 0xbe,
    0xfc, 0x1d, 0x6a, 0xbd, 0xf7, 0xf0, 0xa8, 0x3d, 0x8b, 0x77, 0x0e, 0xbe,
    0x97, 0xcb, 0x3a, 0xbd, 0x5b, 0xce, 0x56, 0x3d, 0xd7, 0xab, 0x55, 0xbe,
    0xf5, 0x49, 0x8a, 0xbe, 0x4d, 0x68, 0x5d, 0x3e, 0xd3, 0xf3, 0x84, 0x3e,
    0xa1, 0x08, 0x58, 0x3d, 0x72, 0x30, 0x09, 0x3d, 0x51, 0x74, 0xc2, 0x3c,
    0x98, 0x8a, 0x26, 0x3c, 0x12, 0xf2, 0xe9, 0x3c, 0x18, 0xa0, 0x83, 0x3e,
    0x77, 0x60, 0x36, 0xbe, 0xca, 0x94, 0xde, 0xbd, 0x7e, 0xf6, 0x74, 0xbe,
    0x2c, 0xf2, 0x23, 0xbe, 0x02, 0x34, 0x9c, 0xbc, 0x9c, 0xae, 0xe6, 0x3d,
    0xf7, 0x2f, 0x0d, 0xbe, 0x26, 0xd3, 0x36, 0xbe, 0x20, 0xea, 0xc8, 0x3d,
    0xd6, 0x3e, 0x8b, 0x3e, 0x59, 0xab, 0x41, 0x3d, 0xad, 0xdb, 0x3b, 0x3e,
    0x16, 0xcf, 0xa3, 0xbd, 0xd0, 0x7b, 0x50, 0x3c, 0x18, 0x40, 0x1e, 0xbe,
    0x15, 0x2d, 0x85, 0x3e, 0xb5, 0x62, 0x9d, 0xbe, 0x7e, 0x1d, 0xc9, 0x3d,
    0xa9, 0x8f, 0x29, 0xbe, 0xe3, 0x70, 0xe4, 0xbd, 0xb7, 0x21, 0xee, 0x3d,
    0x14, 0x84, 0x44, 0x3c, 0xee, 0xfa, 0x6e, 0xbe, 0x84, 0x45, 0x0b, 0x3e,
    0x74, 0xa9, 0x00, 0x3b, 0x68, 0x28, 0x39, 0x3e, 0xb9, 0x32, 0x1a, 0x3d,
    0x9c, 0x2e, 0x08, 0x3e, 0x49, 0x5d, 0x40, 0xbe, 0x3e, 0xd5, 0x15, 0x3d,
    0x7d, 0xb5, 0xb4, 0xbe, 0x86, 0xfb, 0xc2, 0x3e, 0x2f, 0x8a, 0x8f, 0xbe,
    0xd5, 0x61, 0xc4, 0x3c, 0x09, 0x41, 0xd7, 0xbe, 0xc4, 0x12, 0xd6, 0xbd,
    0x24, 0xff, 0x2b, 0x3c, 0x94, 0x05, 0x69, 0x3e, 0x01, 0xe8, 0x5b, 0xbe,
    0x9b, 0x7d, 0x9d, 0xbe, 0xbe, 0x86, 0xaf, 0x3e, 0x7e, 0x23, 0x6c, 0x3e,
    0xec, 0x72, 0x66, 0x3d, 0xc6, 0x78, 0xa5, 0x3e, 0x52, 0xc4, 0x5c, 0x3e,
    0xeb, 0x5a, 0xcb, 0x3e, 0x35, 0xd2, 0x2c, 0xbe, 0x0e, 0x92, 0x6c, 0xbe,
    0x2a, 0x1e, 0x30, 0xbd, 0xa8, 0x1f, 0xab, 0xbe, 0xb0, 0x00, 0x46, 0xbe,
    0x0b, 0xd6, 0x82, 0x3d, 0x3d, 0xd7, 0x21, 0xbe, 0xfe, 0xfa, 0xb2, 0x3e,
    0xa8, 0xa9, 0xc0, 0xbe, 0x6d, 0xc4, 0x5e, 0xbf, 0x06, 0x3e, 0xad, 0xbe,
    0x41, 0x87, 0x1a, 0x3f, 0x65, 0x4e, 0x08, 0xbe, 0x35, 0xa1, 0x63, 0x3e,
    0x28, 0x55, 0xb5, 0x3d, 0xbe, 0x55, 0xfe, 0x3e, 0xea, 0x92, 0x89, 0xbc,
    0x3e, 0x58, 0x46, 0x3f, 0x1d, 0x6f, 0xc9, 0xbe, 0xea, 0x4c, 0x63, 0xbd,
    0xb0, 0x12, 0x56, 0x3d, 0x0a, 0xbd, 0xe2, 0xbd, 0x9d, 0x9c, 0xb5, 0xbd,
    0x53, 0xdc, 0x57, 0xbd, 0x01, 0x4d, 0x9f, 0xbe, 0x0b, 0x08, 0x45, 0xbf,
    0x87, 0x61, 0x1c, 0xbe, 0x36, 0x8d, 0x82, 0x3e, 0x6a, 0xb1, 0xb5, 0xbd,
    0xbb, 0x35, 0x16, 0xbe, 0x64, 0x9d, 0x7f, 0x3e, 0x4b, 0x18, 0xda, 0x3e,
    0xe6, 0x44, 0xfd, 0xbe, 0xaf, 0xe6, 0xdc, 0x3e, 0x98, 0xa4, 0x0b, 0xbf,
    0xa9, 0x90, 0x83, 0xbe, 0x2e, 0x8c, 0x05, 0x3d, 0xbb, 0xbb, 0x39, 0xbe,
    0x65, 0x12, 0x07, 0xbd, 0x28, 0x1e, 0x07, 0xbe, 0xa0, 0xe1, 0x82, 0xbe,
    0xc3, 0x0a, 0xc4, 0xbe, 0xc2, 0xe9, 0x98, 0x3d, 0x3b, 0xc2, 0x81, 0x3e,
    0xd6, 0x0c, 0x94, 0xbe, 0x13, 0xe1, 0x5b, 0xbd, 0xd6, 0x4d, 0xa0, 0x3e,
    0x5c, 0xf3, 0x9e, 0x3e, 0x4f, 0xd0, 0x62, 0xbe, 0x25, 0xe4, 0xb4, 0x3e,
    0x5f, 0x50, 0x26, 0xbf, 0x27, 0x42, 0x91, 0xbd, 0xf1, 0x23, 0x2d, 0x3d,
    0x4e, 0xb4, 0x42, 0xbe, 0x6a, 0xb1, 0x12, 0x3e, 0xb0, 0x1f, 0x57, 0xbd,
    0x13, 0x82, 0xef, 0xbd, 0xe2, 0x98, 0x03, 0xbe, 0x94, 0x4c, 0x87, 0x3c,
    0x19, 0x2a, 0xf6, 0x3e, 0xfc, 0x1c, 0xb0, 0xbe, 0x38, 0xae, 0xe1, 0x3d,
    0x8c, 0x78, 0x8f, 0x3e, 0xe9, 0xe4, 0x0a, 0x3e, 0xf2, 0x4d, 0x97, 0xbe,
    0x14, 0xfc, 0xc6, 0x3e, 0x5d, 0x95, 0xf4, 0xbe, 0xbd, 0x3a, 0xc1, 0x3b,
    0xb0, 0x57, 0x8f, 0x3d, 0x8b, 0xfa, 0xaa, 0x3d, 0x5b, 0x2b, 0xf5, 0xbb,
    0x24, 0xee, 0xc7, 0xbd, 0x67, 0x9b, 0xcb, 0xbc, 0xfd, 0xff, 0x6b, 0x3e,
    0xd0, 0xd3, 0xcc, 0xbc, 0xe8, 0x85, 0x9c, 0x3e, 0x77, 0x6c, 0xf6, 0xbe,
    0x38, 0x5b, 0x20, 0x3e, 0xb1, 0xa4, 0x45, 0x3e, 0x2d, 0xfb, 0x94, 0x3e,
    0x07, 0x4f, 0x92, 0xbe, 0x37, 0xcb, 0xa0, 0x3e, 0xf3, 0x27, 0x5c, 0xbc,
    0x8a, 0x4b, 0xb7, 0xbd, 0xb5, 0x1b, 0xf0, 0x3d, 0xb5, 0x89, 0x4b, 0xbe,
    0x0f, 0xf1, 0xd7, 0xbd, 0x78, 0xae, 0x5a, 0x3d, 0x06, 0x8b, 0x83, 0xbe,
    0xf7, 0xe7, 0x2c, 0x3e, 0x14, 0xf8, 0x17, 0xbe, 0x47, 0x79, 0xe4, 0x3e,
    0xe2, 0x8c, 0x00, 0xbe, 0x3e, 0x0a, 0xb6, 0x3e, 0x41, 0x53, 0xb4, 0x3e,
    0x22, 0x63, 0x62, 0x3e, 0x13, 0xd4, 0xeb, 0xbd, 0xb5, 0x21, 0x3f, 0x3f,
    0x03, 0x10, 0x50, 0xbe, 0x8f, 0x99, 0x56, 0xbc, 0xf6, 0x1b, 0x3c, 0x3b,
    0xe7, 0x5d, 0xb8, 0xbd, 0xd7, 0xd7, 0x8e, 0xbc, 0x30, 0xfd, 0x7f, 0xbd,
    0x01, 0x71, 0x9f, 0x3d, 0xb0, 0xc1, 0x26, 0x3e, 0xa3, 0x55, 0x96, 0x3d,
    0x95, 0x91, 0xd0, 0x3e, 0xa9, 0x87, 0xf1, 0xbd, 0x9c, 0x85, 0x39, 0x3e,
    0x8d, 0xb3, 0x4a, 0x3e, 0xf8, 0xb5, 0x31, 0x3e, 0x8a, 0x9c, 0xa2, 0xbd,
    0x0a, 0x5a, 0xd0, 0x3e, 0xd9, 0xae, 0x41, 0xbe, 0x0c, 0x8c, 0xe5, 0xba,
    0x5a, 0x99, 0xd4, 0x3d, 0x29, 0x0e, 0x89, 0x3c, 0x9e, 0xae, 0x25, 0x3d,
    0x17, 0xa3, 0xc0, 0xbd, 0xc6, 0xe3, 0x3b, 0xbe, 0x21, 0x05, 0x51, 0xbe,
    0x72, 0x77, 0x23, 0x3c, 0x73, 0x56, 0x03, 0x3f, 0x58, 0x92, 0xb4, 0xbe,
    0xf4, 0x64, 0xa0, 0x3e, 0x1b, 0x29, 0x83, 0x3e, 0xe3, 0xec, 0x12, 0x3e,
    0x69, 0x17, 0x11, 0xbf, 0x84, 0xcb, 0x92, 0x3e, 0x88, 0xff, 0x64, 0xbe,
    0x49, 0xb5, 0xbd, 0xbd, 0x04, 0x67, 0x17, 0x3d, 0xb8, 0xc6, 0x33, 0xbd,
    0xcf, 0xd9, 0x8a, 0x3c, 0xba, 0xce, 0x79, 0xbd, 0x9f, 0xdc, 0x2f, 0xbe,
    0x28, 0xba, 0xd7, 0xbe, 0x72, 0x70, 0xb3, 0x3d, 0xa1, 0xb6, 0xbb, 0x3e,
    0x74, 0x49, 0x80, 0xbe, 0xa1, 0x8b, 0xd0, 0x3c, 0xd0, 0x93, 0xb8, 0x3e,
    0x04, 0x4e, 0x17, 0x3e, 0xf6, 0x54, 0x26, 0xbe, 0xb3, 0x04, 0x04, 0x3f,
    0xd4, 0xa9, 0x14, 0xbe, 0x9f, 0xcf, 0x9a, 0x3d, 0x77, 0xd9, 0x07, 0x3e,
    0x78, 0x4e, 0x66, 0xbd, 0xfe, 0xf6, 0xa2, 0xbd, 0x12, 0xc8, 0x7a, 0xbd,
    0x72, 0xe0, 0xb1, 0xbe, 0x9e, 0x80, 0x63, 0xbf, 0xe4, 0x7b, 0x82, 0x3e,
    0x5e, 0xd8, 0x1e, 0x3e, 0x63, 0xd0, 0x9a, 0xbe, 0xdd, 0xf6, 0x54, 0x3d,
    0x78, 0x8f, 0xa0, 0x3e, 0x9a, 0xcd, 0x03, 0x3f, 0x92, 0x63, 0x18, 0xbe,
    0x87, 0x93, 0xd4, 0x3e, 0xf3, 0x30, 0x0f, 0xbf, 0x3d, 0xa7, 0x54, 0xbd,
    0x2b, 0xbd, 0xb4, 0x3d, 0xf6, 0xb6, 0x85, 0x3c, 0xe4, 0x02, 0xab, 0x3b,
    0x88, 0xbf, 0x0f, 0x3d, 0x89, 0xc2, 0xf2, 0xbe, 0x52, 0xf7, 0x20, 0xbf,
    0x6c, 0x9e, 0x2b, 0x3e, 0x42, 0xc5, 0x87, 0x3e, 0x12, 0x4f, 0xbb, 0xbe,
    0x6f, 0x4e, 0xa8, 0xbd, 0x36, 0x83, 0x4f, 0x3e, 0x95, 0xfb, 0x27, 0x3e,
    0xbd, 0xd9, 0x8f, 0xbe, 0xee, 0xa9, 0x6b, 0x3e, 0xc8, 0x7b, 0xd7, 0xbe,
    0xbe, 0x16, 0x23, 0xbd, 0x90, 0xe7, 0x78, 0x3c, 0x7f, 0x0f, 0x43, 0xbc,
    0x4a, 0x54, 0xdd, 0x3d, 0xa8, 0x10, 0xc0, 0xbc, 0x9f, 0xa7, 0x97, 0xbe,
    0x17, 0xc5, 0x34, 0xbf, 0xd0, 0xa1, 0xe7, 0xbd, 0xc8, 0xcb, 0x4a, 0x3e,
    0xd3, 0x4f, 0x41, 0xbe, 0x54, 0x32, 0xea, 0x3d, 0x6c, 0xf4, 0x62, 0x3e,
    0x70, 0x8c, 0x08, 0x3f, 0x98, 0xab, 0xe4, 0xbe, 0xfd, 0xde, 0xe7, 0x3e,
    0x77, 0x85, 0x29, 0xbf, 0x6c, 0x95, 0x4b, 0x3d, 0x63, 0xb6, 0x38, 0xbc,
    0xe9, 0x86, 0xea, 0x3c, 0xa5, 0x17, 0x22, 0x3c, 0x1e, 0x8b, 0x1e, 0x3c,
    0x3b, 0x3e, 0x0c, 0xbf, 0x82, 0xa8, 0xee, 0xbe, 0xd2, 0x0f, 0x01, 0xbe,
    0xf3, 0xbb, 0x05, 0x3f, 0x0d, 0x6f, 0xe0, 0xbe, 0xe4, 0xfd, 0x20, 0x3e,
    0x85, 0x06, 0x65, 0xbc, 0x75, 0x43, 0x60, 0x3e, 0xf9, 0x26, 0x50, 0xbf,
    0x0a, 0xfa, 0x32, 0x3f, 0xd4, 0x7c, 0x30, 0xbf, 0x57, 0xaf, 0x97, 0x3c,
    0xd1, 0x1f, 0x70, 0x3c, 0xbd, 0x22, 0xc0, 0x3c, 0xa7, 0x9c, 0xa9, 0x3d,
    0x00, 0x60, 0x03, 0xb4, 0xa4, 0xd5, 0x5f, 0xbe, 0x29, 0xcf, 0x9d, 0xbf,
    0x85, 0xf8, 0xce, 0x3e, 0x5b, 0xc1, 0x9a, 0x3e, 0x96, 0x24, 0x1e, 0xbe,
    0xe9, 0x76, 0x16, 0xbe, 0x43, 0x76, 0x0b, 0x3e, 0xd4, 0xa9, 0x95, 0x3e,
    0x80, 0x93, 0xde, 0xbe, 0x5e, 0x68, 0x83, 0x3e, 0x10, 0xca, 0xca, 0xbe,
    0x47, 0xbb, 0xf8, 0xbd, 0xe5, 0x41, 0x8e, 0xbd, 0x13, 0x04, 0x9c, 0x3d,
    0x5a, 0x16, 0x8f, 0xbf, 0xd6, 0x09, 0x8e, 0x3d, 0x20, 0x7b, 0x0f, 0xbf,
    0xae, 0x3a, 0x12, 0xbe, 0x63, 0x02, 0x94, 0xbd, 0x7e, 0x3d, 0xbe, 0x3e,
    0xc1, 0xfb, 0x1c, 0xbe, 0x83, 0x8e, 0xdc, 0x3e, 0x6f, 0xf7, 0x3e, 0x3d,
    0x2e, 0x2a, 0x80, 0x3f, 0x40, 0x6f, 0xd8, 0xbd, 0x27, 0x70, 0x31, 0x3f,
    0x00, 0xae, 0x41, 0xbe, 0xe1, 0x30, 0x36, 0xbe, 0x1e, 0xdb, 0xa4, 0x3d,
    0xba, 0x69, 0x26, 0x3e, 0xa6, 0x50, 0x80, 0xbe, 0xfe, 0x9d, 0xc3, 0xbe,
    0x04, 0xbe, 0xed, 0xbe, 0x19, 0x62, 0x29, 0xbf, 0xf6, 0x4b, 0x1c, 0x3e,
    0x07, 0x8b, 0x0b, 0x3e, 0x63, 0xc4, 0x6e, 0xbe, 0x7f, 0xcb, 0x69, 0x3e,
    0x09, 0xc3, 0xdd, 0x3e, 0xb5, 0xc3, 0x57, 0x3f, 0xa0, 0x89, 0x7c, 0xbf,
    0xc3, 0xee, 0xc4, 0x3e, 0x62, 0xff, 0x64, 0xbf, 0x8f, 0x66, 0xa6, 0xbe,
    0xb2, 0xe6, 0xd8, 0x3d, 0x01, 0xa5, 0x26, 0xbe, 0x4e, 0x37, 0xd7, 0xbe,
    0x7d, 0x9e, 0x1a, 0xbf, 0x23, 0x50, 0xe7, 0xbe, 0x9f, 0x80, 0xf6, 0xbe,
    0xb3, 0xaa, 0x8a, 0x3c, 0xfa, 0x33, 0x45, 0x3e, 0xeb, 0x65, 0x6b, 0xbe,
    0x1e, 0x36, 0xbe, 0x3e, 0x94, 0x0c, 0xf5, 0x3e, 0x51, 0x9a, 0x5f, 0x3f,
    0x14, 0x81, 0x21, 0xbf, 0xdd, 0xee, 0xcc, 0x3e, 0xf9, 0x4f, 0xb0, 0xbe,
    0xc0, 0xd7, 0x86, 0xbe, 0x1a, 0xde, 0xaf, 0x3d, 0x06, 0xbe, 0x58, 0x3d,
    0x50, 0xfa, 0x28, 0x3d, 0x56, 0x80, 0x5d, 0xbf, 0xc3, 0x52, 0xd0, 0xbd,
    0x9b, 0x8c, 0xec, 0xbd, 0xd1, 0x33, 0xa1, 0x3d, 0x0b, 0x34, 0x2a, 0x3e,
    0xeb, 0xc6, 0x49, 0xbe, 0x71, 0xa5, 0x96, 0x3e, 0xf1, 0xe5, 0x9c, 0x3e,
    0x73, 0xcc, 0xb7, 0x3e, 0xc2, 0x69, 0x28, 0xbe, 0x7c, 0x8d, 0xd0, 0x3e,
    0x16, 0x8b, 0x1b, 0xbe, 0x08, 0xad, 0x49, 0xbe, 0xdc, 0x48, 0xbf, 0x3d,
    0x4a, 0xab, 0x04, 0x3e, 0xd9, 0x76, 0x94, 0x3d, 0xb1, 0x90, 0x11, 0xbf,
    0x8b, 0x4b, 0x36, 0xbe, 0x55, 0xab, 0xb6, 0x3d, 0x23, 0xfd, 0x86, 0x3e,
    0xd8, 0x30, 0x96, 0x3e, 0xee, 0xce, 0x55, 0xbe, 0xcf, 0xe1, 0x67, 0x3e,
    0x19, 0x38, 0x46, 0x3e, 0x92, 0x96, 0x24, 0x3f, 0xd4, 0x9b, 0x45, 0xbe,
    0x0e, 0x0c, 0x1d, 0x3f, 0xad, 0xcf, 0x53, 0x3d, 0x87, 0xd1, 0x0e, 0xbe,
    0x2f, 0x8e, 0xdc, 0x3d, 0x9d, 0x96, 0x7f, 0xbc, 0x57, 0x20, 0x8b, 0xbd,
    0x30, 0x60, 0x15, 0xbe, 0x9d, 0xb8, 0x01, 0xbe, 0xeb, 0xc6, 0xdc, 0xbd,
    0x1d, 0x0c, 0x33, 0x3e, 0x1d, 0xac, 0x96, 0x3e, 0xd6, 0xf1, 0x17, 0xbe,
    0x00, 0xb8, 0x17, 0x3e, 0x66, 0x96, 0xdc, 0x3e, 0x92, 0x12, 0x1c, 0x3f,
    0xd1, 0x56, 0xae, 0xbd, 0x23, 0xf5, 0x04, 0x3f, 0x8c, 0x8a, 0x89, 0xbd,
    0xf7, 0x59, 0xef, 0xbd, 0x64, 0xc6, 0xe5, 0x3d, 0x2a, 0xb1, 0x00, 0x3d,
    0x2c, 0x94, 0x15, 0x3c, 0x1f, 0xe4, 0x15, 0x3c, 0xee, 0x2f, 0x03, 0x3d,
    0x9e, 0xb6, 0x0b, 0x3e, 0x47, 0x05, 0xd3, 0xbe, 0xeb, 0x5f, 0x82, 0x3d,
    0x3b, 0x37, 0xe8, 0x3d, 0x70, 0x52, 0x03, 0x3d, 0xf3, 0x46, 0x18, 0x3e,
    0x25, 0x4b, 0x12, 0x3f, 0xff, 0xb9, 0x47, 0x3e, 0x5b, 0x81, 0xbc, 0x3e,
    0xf6, 0x1f, 0xc6, 0xbd, 0x15, 0x07, 0x98, 0xbd, 0xb1, 0x93, 0x71, 0x3c,
    0xe8, 0x02, 0xc9, 0xbd, 0xf6, 0xd3, 0x9d, 0xbe, 0x78, 0x1b, 0x3b, 0xbc,
    0x9a, 0x41, 0xc0, 0xbd, 0xa3, 0x55, 0xb3, 0x3b, 0xe0, 0x98, 0xc2, 0x3e,
    0x60, 0xfc, 0x83, 0x3d, 0xc6, 0x14, 0x79, 0x3e, 0x0f, 0x24, 0xb6, 0x3e,
    0xf8, 0xd4, 0x9d, 0x3e, 0xf5, 0x90, 0x27, 0x3f, 0x7e, 0xf0, 0x71, 0xbe,
    0xd4, 0xca, 0x6f, 0x3e, 0xeb, 0x78, 0xda, 0xbd, 0xc3, 0x55, 0x4d, 0xbc,
    0xa9, 0x53, 0xd4, 0x3d, 0xb6, 0x28, 0xf7, 0xbc, 0x67, 0xe6, 0x62, 0xbe,
    0x24, 0x29, 0x2b, 0xbe, 0xdc, 0x1f, 0x87, 0xbe, 0x59, 0x5f, 0xd7, 0xbe,
    0xbb, 0x53, 0xb3, 0xbd, 0x15, 0xee, 0x7f, 0x3e, 0xd3, 0x43, 0x97, 0x3d,
    0xe2, 0x10, 0xbc, 0x3e, 0x8c, 0x1c, 0xc0, 0x3e, 0xcf, 0xd5, 0x37, 0x3f,
    0x04, 0x85, 0xc9, 0xbe, 0x57, 0x8b, 0xfd, 0x3e, 0x6d, 0x19, 0x87, 0xbe,
    0x3a, 0x90, 0x87, 0xbe, 0xcd, 0x66, 0xd4, 0x3d, 0xbd, 0x9f, 0x86, 0xbd,
    0x17, 0x19, 0x9b, 0xbd, 0x8a, 0xb3, 0x9a, 0x3a, 0xb5, 0x4c, 0x80, 0xbe,
    0xff, 0x61, 0x16, 0xbf, 0x81, 0xc5, 0x17, 0x3d, 0x3d, 0xee, 0xfb, 0x3e,
    0xed, 0xbf, 0x53, 0xbc, 0xec, 0x00, 0x83, 0x3e, 0x95, 0xec, 0xac, 0x3e,
    0x0f, 0xfb, 0x66, 0x3f, 0x72, 0xdd, 0x85, 0xbe, 0x20, 0xb1, 0x09, 0x3f,
    0x6f, 0x93, 0xa3, 0xbe, 0x94, 0x4a, 0x0a, 0x3e, 0xf8, 0x30, 0xa8, 0x3d,
    0x44, 0x5a, 0x13, 0xbe, 0x95, 0x1f, 0x69, 0xbe, 0x91, 0xf4, 0x82, 0xbb,
    0xf9, 0x93, 0xd8, 0xbe, 0xf4, 0x2a, 0xae, 0xbe, 0xbc, 0xca, 0x07, 0x3e,
    0x97, 0x4b, 0xe8, 0x3e, 0xbf, 0x21, 0xbd, 0xbd, 0xad, 0x3e, 0xf6, 0x3c,
    0xfc, 0x58, 0xc0, 0x3e, 0x35, 0x65, 0x27, 0x3f, 0xa0, 0xac, 0xf1, 0xbe,
    0x3d, 0xeb, 0xe4, 0x3e, 0x65, 0x5d, 0x66, 0xbe, 0xcf, 0x55, 0xed, 0x3d,
    0xc3, 0xb3, 0x29, 0x3e, 0x7c, 0x41, 0xd8, 0xbd, 0x6b, 0x0a, 0x14, 0xbe,
    0x60, 0xe9, 0x27, 0xbe, 0x84, 0xc6, 0xc1, 0xbe, 0xaf, 0x9e, 0x2d, 0xbe,
    0x20, 0x81, 0xdb, 0x3d, 0x7b, 0x6a, 0x3f, 0x3f, 0xa8, 0xfb, 0x4b, 0xbd,
    0xc5, 0x69, 0x71, 0x3e, 0xce, 0x7a, 0x88, 0x3e, 0x72, 0xe4, 0x0e, 0x3f,
    0x42, 0x7b, 0xee, 0xbe, 0x19, 0x5e, 0xa2, 0x3e, 0xb5, 0x9a, 0xa3, 0xbe,
    0x63, 0x93, 0x2b, 0x3e, 0x55, 0xc7, 0x1d, 0x3e, 0x65, 0x9a, 0x09, 0xbe,
    0x27, 0xcc, 0xc2, 0xbd, 0x5d, 0xd2, 0x58, 0xbf, 0xac, 0xaa, 0x03, 0xbf,
    0xc5, 0xff, 0xea, 0xbe, 0xdd, 0x74, 0xb6, 0xbe, 0xec, 0x2f, 0x5c, 0x3f,
    0x46, 0x5b, 0xd7, 0x3c, 0x8b, 0x97, 0xbb, 0x3e, 0x07, 0x99, 0xc6, 0x3d,
    0x68, 0x48, 0x2b, 0x3f, 0xc8, 0xfa, 0x04, 0xbf, 0x7f, 0xf0, 0xde, 0x3e,
    0xde, 0x1a, 0xab, 0xbe, 0x0d, 0xd4, 0x43, 0xbe, 0x0c, 0x18, 0xde, 0x3d,
    0x2e, 0x1e, 0x87, 0xbd, 0xe3, 0x18, 0xd7, 0xbe, 0xb2, 0xa8, 0x22, 0xbf,
    0x64, 0xe5, 0xca, 0xbf, 0x0b, 0xc5, 0x4e, 0xbf, 0xa0, 0x6b, 0xa7, 0x3e,
    0x92, 0xa3, 0x39, 0x3e, 0xb9, 0xe0, 0x6f, 0xbd, 0x1d, 0x11, 0xf8, 0x3d,
    0xd1, 0x1b, 0xc0, 0x3d, 0x01, 0x82, 0x0e, 0x3f, 0xae, 0xcd, 0xd3, 0xbe,
    0xee, 0x76, 0x68, 0x3c, 0x8b, 0x15, 0xaa, 0xbd, 0xb9, 0x80, 0xbd, 0xbc,
    0xf8, 0x56, 0x26, 0xbe, 0xed, 0xab, 0x86, 0x3e, 0x69, 0xc8, 0xad, 0xbe,
    0x80, 0xba, 0xbd, 0x3e, 0x33, 0x90, 0x83, 0xbc, 0x24, 0x42, 0x7b, 0x3e,
    0x90, 0x98, 0xac, 0xbe, 0x55, 0xf1, 0x56, 0xbd, 0xd6, 0x66, 0x50, 0x3e,
    0x40, 0xfe, 0xcb, 0xbd, 0xa4, 0x8e, 0xb1, 0x3c, 0x0b, 0x41, 0x28, 0x3e,
    0x77, 0x42, 0x80, 0xbe, 0x00, 0x32, 0xbb, 0xbe, 0x5b, 0x98, 0xf3, 0x3d,
    0xa5, 0xeb, 0x2d, 0x3e, 0x89, 0x09, 0x11, 0xbd, 0xab, 0x78, 0xe2, 0x3b,
    0x77, 0xd4, 0x89, 0xbc, 0xc5, 0xf2, 0x38, 0xbe, 0x54, 0x2b, 0x37, 0xbd,
    0x74, 0xf7, 0x92, 0x3e, 0x5c, 0x39, 0x25, 0xbb, 0x6b, 0x6f, 0xf7, 0xbc,
    0x56, 0x76, 0xc2, 0xbb, 0xd3, 0x54, 0xd5, 0xbd, 0xec, 0x04, 0x7c, 0xbe,
    0x0d, 0xb1, 0xa7, 0x3e, 0xbc, 0xc9, 0x56, 0xbd, 0xcc, 0x77, 0x40, 0x3c,
    0x4f, 0x3c, 0x3f, 0x3d, 0x9a, 0x73, 0x67, 0x3d, 0x38, 0xac, 0x3d, 0xbd,
    0x91, 0x54, 0xe8, 0xba, 0x8e, 0xdf, 0x3c, 0xbb, 0xc3, 0xa0, 0x32, 0xbf,
    0xff, 0x87, 0x1f, 0xbe, 0x6a, 0x58, 0x25, 0x3e, 0xbb, 0x44, 0xb8, 0x3d,
    0x3a, 0xe4, 0x68, 0x3e, 0x94, 0x37, 0x1c, 0x3e, 0xaf, 0xbb, 0x40, 0xbe,
    0x1a, 0x6b, 0x05, 0xba, 0xf3, 0x06, 0xa8, 0x3e, 0xa7, 0xca, 0x37, 0xbc,
    0x58, 0x16, 0x88, 0xbd, 0x67, 0x6d, 0xc7, 0x3d, 0xbb, 0x31, 0xb1, 0xbd,
    0xeb, 0x8e, 0x11, 0x3b, 0xcf, 0xc6, 0xda, 0xbd, 0x81, 0x40, 0xd8, 0xbd,
    0xc4, 0xbe, 0xd2, 0xbe, 0x84, 0x7a, 0xfa, 0xbd, 0xec, 0xd0, 0x54, 0x3d,
    0xcf, 0x48, 0x75, 0x3e, 0xf2, 0xea, 0xb0, 0x3e, 0x75, 0x4a, 0x96, 0x3d,
    0xff, 0xb1, 0xd5, 0xbc, 0xc8, 0x81, 0x5e, 0x3e, 0xed, 0xf6, 0xb1, 0x3e,
    0x16, 0x66, 0x2e, 0xbe, 0x87, 0xe8, 0x5a, 0x3e, 0xa0, 0x0e, 0x39, 0x3e,
    0x46, 0xe9, 0x28, 0xbd, 0x4f, 0xa4, 0x09, 0x3c, 0xd6, 0xf2, 0x77, 0xbc,
    0x9e, 0x7f, 0x01, 0x3d, 0x00, 0x82, 0x26, 0xbf, 0x12, 0xee, 0x24, 0xbf,
    0x2f, 0x85, 0x53, 0xbe, 0xbe, 0x92, 0x07, 0xbe, 0x06, 0xc6, 0x80, 0x3d,
    0xe7, 0x44, 0x82, 0x3d, 0x50, 0x1c, 0x9e, 0xbd, 0xf7, 0x62, 0xa5, 0x3e,
    0xbd, 0xef, 0xd5, 0x3e, 0x5c, 0xe0, 0x5d, 0xbe, 0x56, 0x7d, 0x27, 0x3e,
    0xc1, 0xa2, 0x68, 0xbd, 0xff, 0xae, 0xba, 0x3d, 0x65, 0x65, 0x88, 0xbd,
    0x0c, 0x3a, 0x35, 0xbe, 0x7a, 0x78, 0x57, 0x3e, 0x47, 0x07, 0x5a, 0xbf,
    0x60, 0x6c, 0x7c, 0xbf, 0x53, 0x16, 0x87, 0xbd, 0xc3, 0xa2, 0x99, 0xbe,
    0x61, 0x2c, 0xb0, 0x3e, 0x1b, 0x15, 0x69, 0xbe, 0x2a, 0x52, 0xd5, 0xbe,
    0x1e, 0xf2, 0xee, 0x3d, 0xc3, 0xb6, 0x2e, 0x3f, 0xd8, 0x1f, 0xa2, 0xbe,
    0xe5, 0x36, 0x14, 0x3e, 0x39, 0x5f, 0xae, 0xbe, 0xc7, 0x51, 0xe6, 0x3b,
    0x6d, 0xe6, 0xe6, 0xbc, 0x8b, 0x42, 0xfc, 0xbd, 0x1f, 0x37, 0x00, 0x3e,
    0x42, 0x2d, 0x58, 0xbf, 0x15, 0x19, 0xd6, 0xbe, 0x99, 0x03, 0x10, 0x3e,
    0x64, 0x67, 0x20, 0xbe, 0x57, 0x7c, 0xa2, 0x3c, 0x80, 0x20, 0x5c, 0xbe,
    0x5e, 0x63, 0x5e, 0x3d, 0x6c, 0x9c, 0x9e, 0xbd, 0xb9, 0x96, 0x1d, 0x3f,
    0xb3, 0x4c, 0x06, 0xbf, 0xa1, 0x45, 0x99, 0x3d, 0x23, 0xf8, 0x5e, 0x3e,
    0xe2, 0x27, 0x9b, 0xbc, 0x18, 0x2d, 0x1d, 0x3d, 0x1a, 0x92, 0xc3, 0x3c,
    0x9f, 0x31, 0x8f, 0x3d, 0xd0, 0x56, 0x60, 0xbe, 0x17, 0x11, 0xf7, 0xbd,
    0xf7, 0x63, 0x49, 0x3e, 0xa7, 0x07, 0x46, 0xbe, 0x40, 0x92, 0xb7, 0x3d,
    0x8f, 0x6c, 0xe0, 0xbc, 0x90, 0xec, 0x88, 0x3e, 0xe2, 0x44, 0x94, 0xbe,
    0x2e, 0x9e, 0xe4, 0x3e, 0x0f, 0x62, 0x74, 0xbe, 0x0c, 0x09, 0x0b, 0x3e,
    0x16, 0x0d, 0x81, 0x3d, 0x18, 0x4c, 0x2c, 0xbc, 0xf4, 0x87, 0x98, 0xbb,
    0x42, 0x87, 0x4b, 0xbd, 0x72, 0x7a, 0xc4, 0xbd, 0x75, 0x40, 0x55, 0x3e,
    0x7b, 0xf7, 0xcd, 0xbd, 0x4d, 0x3f, 0x04, 0x3e, 0xa3, 0x31, 0x0d, 0xbf,
    0xb7, 0xe5, 0xc4, 0x3e, 0x27, 0x38, 0xc6, 0xbc, 0x31, 0x5e, 0xbc, 0xbd,
    0xa6, 0x3d, 0xf4, 0x3d, 0x12, 0x73, 0x0b, 0x3f, 0x59, 0xa3, 0x5f, 0xbe,
    0x06, 0x7e, 0x85, 0x3e, 0x0b, 0x2a, 0x1a, 0x3e, 0xa7, 0xe6, 0x6c, 0xbd,
    0x3c, 0xdf, 0xc6, 0x3d, 0x7d, 0xd3, 0xd1, 0xbd, 0xd9, 0x0f, 0x14, 0x3d,
    0x19, 0x24, 0x54, 0x3c, 0xa2, 0x98, 0x52, 0xbc, 0x25, 0xfd, 0x48, 0x3e,
    0xcb, 0x1b, 0x12, 0xbf, 0xd7, 0xd5, 0xba, 0x3e, 0x16, 0x23, 0xb4, 0x3d,
    0x9b, 0x3f, 0x0f, 0x3b, 0x93, 0x97, 0x07, 0xbe, 0x95, 0x06, 0xbe, 0x3e,
    0xe3, 0xd2, 0x0b, 0xbe, 0xde, 0x47, 0x3c, 0xba, 0x81, 0x20, 0x89, 0x3d,
    0x24, 0x62, 0x5e, 0x3c, 0x4f, 0xd9, 0x20, 0xbc, 0x1b, 0xaf, 0x6f, 0xbd,
    0xf2, 0x26, 0x4f, 0x3d, 0x19, 0x85, 0x07, 0x3e, 0xcf, 0xd0, 0x4e, 0xbd,
    0x3d, 0xa5, 0x02, 0x3e, 0xea, 0x13, 0x0b, 0xbf, 0x20, 0x22, 0xbd, 0x3d,
    0x5f, 0xe9, 0xec, 0x3d, 0x7f, 0x0f, 0xb1, 0xbd, 0x93, 0x88, 0x48, 0xbc,
    0xa9, 0xbb, 0xe7, 0x3e, 0xfc, 0x9e, 0x43, 0xbd, 0xc5, 0x2b, 0x58, 0x3e,
    0x59, 0xc9, 0x59, 0x3e, 0x54, 0xd5, 0xbb, 0x3c, 0xc6, 0xe5, 0xbd, 0x3c,
    0xf4, 0xfe, 0x25, 0xbe, 0xbd, 0xfa, 0xac, 0x3c, 0xce, 0x53, 0x44, 0xbe,
    0x5e, 0x1b, 0x9d, 0xbd, 0x78, 0x0b, 0x5d, 0x3e, 0x90, 0x34, 0x9e, 0xbe,
    0x21, 0xda, 0x3e, 0x3e, 0x92, 0xbc, 0x14, 0x3e, 0x78, 0xa1, 0x2c, 0xbe,
    0x1a, 0x84, 0x10, 0x3e, 0xe4, 0x1c, 0x24, 0x3f, 0xac, 0x57, 0x55, 0xbe,
    0x0d, 0x10, 0xe4, 0x3d, 0x44, 0xe7, 0xec, 0x3d, 0x97, 0xc5, 0x0b, 0xbc,
    0x7e, 0xab, 0xe5, 0xbd, 0xfc, 0x47, 0xc9, 0x3c, 0x20, 0x09, 0xc1, 0x3a,
    0x92, 0x22, 0xcd, 0xbe, 0xa8, 0x9b, 0x17, 0x3d, 0x66, 0xc4, 0x47, 0x3e,
    0xf5, 0xf9, 0x02, 0x3d, 0xfe, 0x71, 0x80, 0x3e, 0x5b, 0xc7, 0x05, 0x3b,
    0x56, 0x5d, 0x58, 0xbe, 0x86, 0xac, 0x0d, 0xbe, 0xce, 0xd9, 0x16, 0x3f,
    0x15, 0x8a, 0x40, 0xbe, 0xda, 0x49, 0x9e, 0x3b, 0xa8, 0x0e, 0xf7, 0x3d,
    0x83, 0x0e, 0x11, 0xbd, 0xb1, 0x19, 0x44, 0x3a, 0xe6, 0xe1, 0xc7, 0xbd,
    0x7c, 0x17, 0x69, 0x3d, 0x83, 0xb8, 0xa3, 0xbe, 0x5a, 0x98, 0xd8, 0xbc,
    0x0f, 0x89, 0xcd, 0x3e, 0x49, 0x87, 0xc0, 0x3d, 0xdf, 0xe9, 0x20, 0x3e,
    0x53, 0x86, 0xe7, 0x3d, 0x0a, 0xdb, 0xd6, 0xbd, 0xb8, 0x7b, 0x06, 0x3e,
    0x13, 0xbb, 0x62, 0x3d, 0x85, 0xda, 0x84, 0xbc, 0x93, 0xdd, 0xab, 0x3e,
    0x56, 0x5c, 0x09, 0x3e, 0x02, 0x4e, 0x4b, 0x3d, 0x8c, 0x2d, 0x15, 0xbe,
    0x59, 0x30, 0x93, 0xbd, 0x53, 0x1a, 0x11, 0x3a, 0x0f, 0x96, 0xb2, 0x3f,
    0x9a, 0x81, 0xab, 0xbe, 0xb2, 0x7b, 0xcd, 0xbe, 0x87, 0x1f, 0x5f, 0xbf,
    0xb4, 0x97, 0x17, 0x3f, 0xf9, 0xb5, 0xcf, 0xbe, 0x29, 0x03, 0x25, 0x3f,
    0x01, 0x07, 0x74, 0xbf, 0xc6, 0x07, 0xb9, 0x3f, 0xfa, 0x39, 0x2b, 0xbe,
    0x15, 0x5d, 0x93, 0x3f, 0x54, 0xa4, 0xcf, 0xbe, 0xe0, 0x0a, 0xbe, 0x3e,
    0xa8, 0xa5, 0xb1, 0xbe, 0x21, 0xa6, 0x5c, 0xbe, 0x4f, 0xbf, 0xa6, 0xbd,
    0x44, 0x94, 0x93, 0x3e, 0x64, 0x4d, 0x03, 0xbe, 0x21, 0x7d, 0xbf, 0xbe,
    0x9c, 0x27, 0x8a, 0xbc, 0xc1, 0x91, 0x34, 0x3f, 0xcc, 0x84, 0xc8, 0xbe,
    0x0b, 0x7c, 0x1b, 0x3f, 0xe5, 0xb9, 0xdb, 0xbd, 0x65, 0x60, 0x93, 0x3f,
    0x5b, 0x71, 0x20, 0xbf, 0x6f, 0xc0, 0x4e, 0x3f, 0xc0, 0x39, 0x8c, 0xbe,
    0xf1, 0xf1, 0x12, 0xbe, 0xf2, 0xda, 0x6e, 0xbf, 0xb9, 0x6e, 0x59, 0xb8,
    0x96, 0x69, 0xc0, 0xbe, 0x8e, 0x4b, 0x0f, 0x3e, 0xf5, 0xf0, 0xa4, 0x3d,
    0xd6, 0xf5, 0x58, 0xbe, 0xf1, 0x3d, 0xeb, 0x3d, 0x03, 0x14, 0x22, 0x3f,
    0xa9, 0x5b, 0xa1, 0xbe, 0x71, 0xf2, 0x3e, 0x3f, 0x52, 0x95, 0xe4, 0x3e,
    0x6f, 0x56, 0x9e, 0x3f, 0x23, 0x9a, 0x1e, 0xbe, 0x61, 0x33, 0x37, 0x3f,
    0x76, 0x18, 0x28, 0xbe, 0x2c, 0xce, 0x86, 0xbe, 0x57, 0xff, 0x82, 0xbe,
    0xc4, 0xb9, 0xf1, 0xbd, 0xac, 0x09, 0x8e, 0xbe, 0x75, 0x20, 0x1b, 0x3e,
    0xb7, 0xde, 0x92, 0x3e, 0xcd, 0x72, 0x6b, 0xbe, 0xe8, 0x88, 0x39, 0x3f,
    0x39, 0xce, 0xc1, 0x3e, 0x4e, 0x2c, 0x94, 0xbe, 0x21, 0x99, 0x87, 0x3e,
    0x55, 0x27, 0x4a, 0x3d, 0x80, 0x30, 0x63, 0x3f, 0x59, 0x60, 0xf5, 0x3c,
    0x47, 0x33, 0x1a, 0x3f, 0xbd, 0xce, 0x40, 0xbe, 0xb8, 0x81, 0xe8, 0xbe,
    0x37, 0x36, 0xd4, 0xbe, 0xfe, 0x6b, 0x76, 0x3d, 0xa2, 0x29, 0x54, 0xbd,
    0x01, 0x3f, 0x7b, 0x3e, 0xf9, 0xcb, 0x05, 0x3e, 0x50, 0x5c, 0xc9, 0xbd,
    0xee, 0x79, 0xee, 0x3e, 0x0d, 0x7b, 0xb4, 0x3e, 0x5f, 0xd6, 0x03, 0xbf,
    0x07, 0x4a, 0x9c, 0x3e, 0x31, 0xd7, 0x83, 0xbd, 0x75, 0x11, 0x61, 0x3f,
    0xd7, 0xa6, 0x00, 0x3e, 0x58, 0x5f, 0xee, 0x3e, 0x39, 0x5b, 0x18, 0xbe,
    0x69, 0x1c, 0x7c, 0xbe, 0xb8, 0x58, 0x62, 0xbe, 0x50, 0xa6, 0x95, 0x3c,
    0x39, 0x3c, 0xa3, 0xbe, 0xf7, 0x14, 0x00, 0x3e, 0xf2, 0x59, 0x45, 0x3e,
    0xb0, 0xea, 0xb4, 0x3e, 0xe4, 0xd5, 0xec, 0x3e, 0x68, 0xb8, 0x83, 0x3e,
    0x49, 0xca, 0xd2, 0xbe, 0x61, 0xe6, 0x36, 0x3e, 0x18, 0x7e, 0xf8, 0x3e,
    0x32, 0xec, 0x46, 0x3f, 0x32, 0x9e, 0x41, 0x3d, 0x67, 0x26, 0x10, 0x3f,
    0x78, 0x62, 0x9a, 0xbd, 0x66, 0x36, 0x91, 0xbd, 0x8a, 0xb3, 0x83, 0xbe,
    0xa9, 0xc0, 0x24, 0xbe, 0xfd, 0xd4, 0x5c, 0xbe, 0x95, 0x5e, 0x24, 0x3e,
    0x64, 0xf3, 0xbc, 0x3e, 0x54, 0x7e, 0xf9, 0x3d, 0x33, 0xa2, 0x13, 0x3f,
    0x28, 0x0b, 0x6f, 0x3e, 0x35, 0x5f, 0xce, 0xbe, 0x81, 0x65, 0xba, 0x3d,
    0xd1, 0x3f, 0x46, 0x3e, 0x4d, 0xa1, 0xf6, 0x3e, 0x2f, 0x69, 0x7c, 0x3e,
    0x5a, 0x29, 0x8d, 0x3f, 0x0d, 0xc1, 0x0a, 0xbe, 0x56, 0x4f, 0x83, 0xbe,
    0xa1, 0x0a, 0xac, 0xbe, 0xdd, 0x2d, 0xb4, 0xbd, 0xbf, 0x92, 0x9c, 0xbe,
    0x5e, 0xea, 0xfc, 0x3c, 0xf3, 0x23, 0xb8, 0x3e, 0xc2, 0x30, 0x83, 0x3e,
    0xaf, 0xe0, 0x8b, 0x3e, 0x90, 0x96, 0x0e, 0x3d, 0x07, 0x3c, 0x90, 0xbe,
    0x05, 0xad, 0xb2, 0x3d, 0x4c, 0x33, 0x12, 0xbe, 0x56, 0x72, 0x2b, 0x3f,
    0x7d, 0xee, 0x3a, 0x3e, 0xef, 0x36, 0x0e, 0x3f, 0xdf, 0x05, 0xb3, 0xbe,
    0x2e, 0x3c, 0x9d, 0x3d, 0x38, 0x56, 0x95, 0xbe, 0x76, 0xf4, 0xc8, 0x3d,
    0xe7, 0x36, 0xa6, 0xbe, 0x7b, 0x64, 0x59, 0x3b, 0x3b, 0x40, 0x09, 0x3e,
    0x7e, 0xac, 0xc3, 0x3c, 0xf9, 0x0f, 0xa0, 0x3e, 0x04, 0x2c, 0xfd, 0x3e,
    0x18, 0x5f, 0x86, 0xbe, 0x91, 0x95, 0x2d, 0x3e, 0xba, 0x68, 0xa4, 0xbb,
    0x9d, 0x79, 0x57, 0x3f, 0x40, 0xb1, 0xf4, 0x3d, 0xc3, 0x33, 0x68, 0x3f,
    0x29, 0xa2, 0x94, 0xbe, 0xf6, 0x5e, 0x81, 0xbe, 0xb5, 0x45, 0xa2, 0xbe,
    0x23, 0xac, 0x6c, 0x3c, 0x3b, 0xb9, 0x84, 0xbe, 0x4a, 0x44, 0xa8, 0x3e,
    0x03, 0x53, 0x80, 0x3d, 0x89, 0xfd, 0x36, 0x3e, 0xe3, 0x3b, 0xbb, 0x3e,
    0x0d, 0xbb, 0x8e, 0x3e, 0x92, 0x8b, 0x44, 0xbf, 0xe4, 0x59, 0xbe, 0xb9,
    0x7a, 0x9b, 0x4b, 0xbe, 0xf9, 0xf7, 0x11, 0x3f, 0xb9, 0xc6, 0xeb, 0xbd,
    0xe8, 0x2c, 0xce, 0x3e, 0xb2, 0xfe, 0x74, 0xbe, 0x3f, 0x6f, 0xc4, 0xbe,
    0x2d, 0x79, 0x48, 0xbe, 0x2c, 0x4f, 0xa9, 0x3d, 0xed, 0x80, 0x46, 0xbe,
    0x8f, 0x91, 0x6f, 0xbc, 0xda, 0xc7, 0xec, 0xbc, 0x92, 0xac, 0xc1, 0x3d,
    0x39, 0x29, 0x3f, 0x3e, 0x43, 0x39, 0x43, 0x3f, 0x49, 0x94, 0xfd, 0xbe,
    0x19, 0xfa, 0x97, 0x3e, 0x92, 0x81, 0x89, 0xbe, 0xf1, 0xc8, 0x36, 0x3f,
    0x5c, 0x56, 0x42, 0xbe, 0x8c, 0x98, 0x10, 0x3f, 0x29, 0xde, 0xb9, 0xbd,
    0xef, 0x71, 0xcf, 0xbe, 0xc4, 0xb2, 0xf4, 0xbd, 0x3a, 0xcb, 0x15, 0xbe,
    0xc1, 0x40, 0xbd, 0xbe, 0xe2, 0x9e, 0xf8, 0x3d, 0xe1, 0xba, 0xae, 0x3d,
    0xe4, 0xad, 0x7a, 0x3e, 0xf8, 0xae, 0xa2, 0x3d, 0x5f, 0xa4, 0xdb, 0x3e,
    0x40, 0x19, 0x32, 0xbe, 0xb4, 0xc4, 0x85, 0x3e, 0x51, 0xb8, 0xc5, 0xbe,
    0x7e, 0x5d, 0x38, 0x3f, 0xda, 0xb0, 0x11, 0xbe, 0x2e, 0xac, 0x2b, 0x3f,
    0xe8, 0x06, 0xcd, 0xbd, 0xad, 0xc7, 0x9f, 0xbd, 0x33, 0xf1, 0xae, 0xbe,
    0x20, 0xb0, 0x95, 0x3c, 0x48, 0x0d, 0xf1, 0xbd, 0xb1, 0x0b, 0x5b, 0xbe,
    0x2e, 0x09, 0x92, 0xbd, 0xca, 0x4b, 0x85, 0xbe, 0x98, 0x75, 0x0f, 0xbe,
    0x01, 0x25, 0xe6, 0x3e, 0x26, 0x84, 0xf6, 0xbe, 0xe6, 0x2c, 0x0f, 0x3f,
    0x8a, 0x6a, 0x0d, 0xbf, 0x7e, 0xc5, 0x5c, 0x3f, 0x9b, 0xab, 0x53, 0xbe,
    0x13, 0xf5, 0x1b, 0x3f, 0x0f, 0xf1, 0x7d, 0xbe, 0x53, 0x2b, 0xbb, 0xbe,
    0xf3, 0xb9, 0xa5, 0xbd, 0x7a, 0x52, 0x4e, 0xbd, 0x58, 0xe7, 0x29, 0xbe,
    0xfc, 0x92, 0xb8, 0x3c, 0x5b, 0x21, 0xb5, 0x3d, 0x56, 0xc8, 0x19, 0xbe,
    0xcf, 0xb9, 0x99, 0xbf, 0x89, 0x22, 0x79, 0x3f, 0x6c, 0xc3, 0x8f, 0xbe,
    0x4a, 0x58, 0xce, 0x3e, 0x3a, 0xaa, 0x47, 0xbe, 0xec, 0xf6, 0x43, 0x3f,
    0x71, 0x12, 0x38, 0xbd, 0xf7, 0x3b, 0xf3, 0xbe, 0x6e, 0xed, 0x60, 0xbe,
    0x0f, 0x8c, 0x55, 0xbe, 0x3d, 0x8d, 0xd7, 0xbe, 0x55, 0xb5, 0xd5, 0x3d,
    0x13, 0xe6, 0x82, 0xbe, 0x3e, 0xf1, 0xff, 0xff, 0x10, 0x00, 0x00, 0x00,
    0x0d, 0x00, 0x00, 0x00, 0x1c, 0x00, 0x00, 0x00, 0x48, 0x00, 0x00, 0x00,
    0x04, 0x00, 0x00, 0x00, 0x10, 0x00, 0x00, 0x00, 0x04, 0x00, 0x00, 0x00,
    0x01, 0x00, 0x00, 0x00, 0x08, 0x00, 0x00, 0x00, 0x29, 0x00, 0x00, 0x00,
    0x73, 0x65, 0x71, 0x75, 0x65, 0x6e, 0x74, 0x69, 0x61, 0x6c, 0x2f, 0x63,
    0x6f, 0x6e, 0x76, 0x32, 0x64, 0x5f, 0x31, 0x2f, 0x43, 0x6f, 0x6e, 0x76,
    0x32, 0x44, 0x2f, 0x52, 0x65, 0x61, 0x64, 0x56, 0x61, 0x72, 0x69, 0x61,
    0x62, 0x6c, 0x65, 0x4f, 0x70, 0x00, 0x00, 0x00, 0x90, 0xf0, 0xff, 0xff,
    0x00, 0x08, 0x00, 0x00, 0xa4, 0x3f, 0xa9, 0xbe, 0x5f, 0xd3, 0x65, 0xbe,
    0xa9, 0x10, 0x3d, 0x3f, 0x4e, 0x80, 0xd9, 0xb9, 0xc3, 0xc1, 0x23, 0xbe,
    0x84, 0x62, 0x53, 0xbe, 0x47, 0xef, 0xa7, 0xbe, 0xdd, 0x5b, 0xc4, 0xbe,
    0x83, 0x81, 0x93, 0xbe, 0xfc, 0x0e, 0x8e, 0xbd, 0x1e, 0xb5, 0x48, 0xbe,
    0xdc, 0xe4, 0x23, 0x3e, 0x9b, 0x6f, 0x6b, 0xbe, 0x47, 0xf3, 0xe2, 0x3d,
    0x9f, 0xbd, 0x74, 0x3e, 0x10, 0x02, 0xfb, 0x3d, 0x44, 0xac, 0xcc, 0xbc,
    0xad, 0x6e, 0x9f, 0xbd, 0xca, 0x37, 0x37, 0xbe, 0x7f, 0x05, 0x10, 0xbe,
    0x8e, 0x51, 0x91, 0xbd, 0x0a, 0x14, 0x21, 0x3e, 0x32, 0x82, 0xee, 0x3d,
    0x11, 0x9f, 0xde, 0x3d, 0x16, 0xac, 0x1e, 0xbe, 0x0d, 0xcb, 0xc1, 0xbd,
    0x31, 0x17, 0x9d, 0xbe, 0x5c, 0xea, 0x88, 0xbe, 0x9f, 0xa4, 0x1d, 0xbe,
    0x59, 0x02, 0x08, 0xbd, 0x67, 0x1b, 0xa8, 0xbb, 0x89, 0x84, 0x4b, 0xbb,
    0xf4, 0x9a, 0x32, 0xbd, 0x4f, 0x7a, 0x5a, 0xbd, 0x68, 0xf3, 0x3a, 0xbd,
    0x69, 0xeb, 0xc5, 0xba, 0xea, 0x14, 0x6c, 0x3d, 0xe0, 0x05, 0x8b, 0xbd,
    0x8f, 0xb6, 0xbd, 0xbe, 0xe8, 0x28, 0xd5, 0xbe, 0x50, 0x22, 0x77, 0xbd,
    0x7a, 0xef, 0xaf, 0xbd, 0xfb, 0x9c, 0x7e, 0xbc, 0x68, 0x8f, 0x46, 0x3e,
    0x31, 0x22, 0xa1, 0x3d, 0xdc, 0xe4, 0x56, 0xbd, 0xf6, 0xc0, 0xd3, 0xbe,
    0x69, 0x96, 0x94, 0xbe, 0x1e, 0x21, 0x82, 0xbd, 0x57, 0x77, 0x05, 0xbe,
    0xee, 0xa3, 0x7b, 0x3d, 0x58, 0x0b, 0xf5, 0x3c, 0xad, 0x89, 0x23, 0x3d,
    0xc7, 0x2d, 0x06, 0x3a, 0xb8, 0xae, 0xa9, 0xbe, 0x1a, 0x7a, 0xdf, 0xbb,
    0x95, 0x3e, 0x0d, 0xbd, 0xb0, 0xea, 0x16, 0xbe, 0x19, 0x74, 0xb3, 0xbd,
    0xf7, 0x26, 0x06, 0xbe, 0x58, 0x60, 0x5f, 0x3d, 0x73, 0x65, 0x72, 0x3e,
    0x63, 0x63, 0x8b, 0x3f, 0x42, 0xad, 0x56, 0xbc, 0x28, 0xe8, 0x27, 0x3e,
    0x79, 0xb7, 0x47, 0xbd, 0x39, 0xcc, 0xc4, 0xbd, 0x88, 0x6b, 0xed, 0xbd,
    0xfa, 0x01, 0xc4, 0xbd, 0x0d, 0xfc, 0x76, 0xbe, 0xad, 0xc1, 0x2f, 0xbf,
    0x16, 0x2a, 0x0f, 0xbf, 0x11, 0xd3, 0xa9, 0xbd, 0xc9, 0xbb, 0x4d, 0xbe,
    0x7c, 0xad, 0xee, 0xbd, 0xbf, 0x0a, 0x03, 0xbe, 0x75, 0x1b, 0x2b, 0x3e,
    0xfa, 0x63, 0x74, 0xbd, 0xd1, 0x23, 0x55, 0xbe, 0xd4, 0x5f, 0xeb, 0xbe,
    0xae, 0xa7, 0x02, 0xbe, 0xbc, 0x64, 0x73, 0xbd, 0xaf, 0x72, 0xb9, 0xbd,
    0xa8, 0xe9, 0x11, 0x3b, 0x41, 0x16, 0x1a, 0x3e, 0x44, 0x86, 0xe3, 0xbd,
    0x44, 0x1a, 0x6a, 0x3c, 0x65, 0xc2, 0xa0, 0xbe, 0xb4, 0x88, 0xae, 0xbd,
    0x46, 0x7a, 0xe2, 0xbc, 0xf8, 0x25, 0x03, 0xbc, 0x62, 0xc2, 0x94, 0x3d,
